TRT-8503-EntropyCalibration2
images: 3bf80000
/Slice_output_0: 3bf80000
/Slice_1_output_0: 3bf80000
/model.0/conv/Conv_output_0: 3e145a9f
/model.0/act/Sigmoid_output_0: 3c010a14
/model.0/act/Mul_output_0: 3d899f3b
/model.1/conv/Conv_output_0: 3dc45d92
/model.1/act/Sigmoid_output_0: 3c010a14
/model.1/act/Mul_output_0: 3cf2d151
/model.2/cv1/conv/Conv_output_0: 3d8a4533
/model.2/cv1/act/Sigmoid_output_0: 3c00e9d4
/model.2/cv1/act/Mul_output_0: 3d0f8206
/model.2/Split_output_0: 3d6f2e0a
/model.2/Split_output_1: 3cbf8c3f
/model.2/m.0/cv1/conv/Conv_output_0: 3d5ab8d1
/model.2/m.0/cv1/act/Sigmoid_output_0: 3bffcf9f
/model.2/m.0/cv1/act/Mul_output_0: 3cf85d95
/model.2/m.0/cv2/conv/Conv_output_0: 3d4ca3cf
/model.2/m.0/cv2/act/Sigmoid_output_0: 3c0152a2
/model.2/m.0/cv2/act/Mul_output_0: 3d2a35d4
/model.2/m.0/Add_output_0: 3d6bda4c
/model.2/Concat_output_0: 3d64db18
/model.2/cv2/conv/Conv_output_0: 3d9ba84a
/model.2/cv2/act/Sigmoid_output_0: 3c03365e
/model.2/cv2/act/Mul_output_0: 3d1236b0
/model.3/conv/Conv_output_0: 3d2e919c
/model.3/act/Sigmoid_output_0: 3c01ef15
/model.3/act/Mul_output_0: 3d01c280
/model.4/conv/Conv_output_0: 3db8a278
/model.4/act/Sigmoid_output_0: 3c010a14
/model.4/act/Mul_output_0: 3d73d163
/model.5/conv/Conv_output_0: 3deb27ee
/model.5/act/Sigmoid_output_0: 3c010a14
/model.5/act/Mul_output_0: 3d464c06
/model.6/cv1/conv/Conv_output_0: 3d839154
/model.6/cv1/act/Sigmoid_output_0: 3c067b61
/model.6/cv1/act/Mul_output_0: 3d10cd98
/model.6/Split_output_0: 3cd39f8b
/model.6/Split_output_1: 3cd1f98d
/model.6/m.0/cv1/conv/Conv_output_0: 3d95081e
/model.6/m.0/cv1/act/Sigmoid_output_0: 3c000c59
/model.6/m.0/cv1/act/Mul_output_0: 3d04f24c
/model.6/m.0/cv2/conv/Conv_output_0: 3d0d04cc
/model.6/m.0/cv2/act/Sigmoid_output_0: 3c04383a
/model.6/m.0/cv2/act/Mul_output_0: 3cf80e33
/model.6/m.0/Add_output_0: 3d7ca85e
/model.6/Concat_output_0: 3d41e3f5
/model.6/cv2/conv/Conv_output_0: 3d406472
/model.6/cv2/act/Sigmoid_output_0: 3c03b74c
/model.6/cv2/act/Mul_output_0: 3d0ff3ae
/model.7/conv/Conv_output_0: 3d3df760
/model.7/act/Sigmoid_output_0: 3c0e7269
/model.7/act/Mul_output_0: 3d012dd7
/Concat_output_0: 3d01c280
/Slice_2_output_0: 3d01c280
/Slice_3_output_0: 3d012dd7
/model.9/cv1/conv/Conv_output_0: 3d3eb502
/model.9/cv1/act/Sigmoid_output_0: 3c05db3f
/model.9/cv1/act/Mul_output_0: 3d025ede
/model.9/Split_output_0: 3d025ede
/model.9/Split_output_1: 3cc11342
/model.9/m.0/cv1/conv/Conv_output_0: 3d4e0489
/model.9/m.0/cv1/act/Sigmoid_output_0: 3c004f6a
/model.9/m.0/cv1/act/Mul_output_0: 3ce69d93
/model.9/m.0/cv2/conv/Conv_output_0: 3d30b66f
/model.9/m.0/cv2/act/Sigmoid_output_0: 3c075dee
/model.9/m.0/cv2/act/Mul_output_0: 3ce5e7d8
/model.9/m.0/Add_output_0: 3d54191a
/model.9/m.1/cv1/conv/Conv_output_0: 3d6ea21d
/model.9/m.1/cv1/act/Sigmoid_output_0: 3c03f46e
/model.9/m.1/cv1/act/Mul_output_0: 3d03a003
/model.9/m.1/cv2/conv/Conv_output_0: 3da9e0fe
/model.9/m.1/cv2/act/Sigmoid_output_0: 3c031610
/model.9/m.1/cv2/act/Mul_output_0: 3d1284d1
/model.9/m.1/Add_output_0: 3dbe1f80
/model.9/Concat_output_0: 3d6a55b0
/model.9/cv2/conv/Conv_output_0: 3d166ebb
/model.9/cv2/act/Sigmoid_output_0: 3c0c41ed
/model.9/cv2/act/Mul_output_0: 3c902fe9
/model.10/conv/Conv_output_0: 3d80b3e4
/model.10/act/Sigmoid_output_0: 3c063bf1
/model.10/act/Mul_output_0: 3d00f664
/model.11/cv1/conv/Conv_output_0: 3d1e4727
/model.11/cv1/act/Sigmoid_output_0: 3c0315b9
/model.11/cv1/act/Mul_output_0: 3d107b62
/model.11/Split_output_0: 3d107b62
/model.11/Split_output_1: 3cc07421
/model.11/m.0/cv1/conv/Conv_output_0: 3d3ed804
/model.11/m.0/cv1/act/Sigmoid_output_0: 3c037037
/model.11/m.0/cv1/act/Mul_output_0: 3cd4e91d
/model.11/m.0/cv2/conv/Conv_output_0: 3d5110fb
/model.11/m.0/cv2/act/Sigmoid_output_0: 3c00f5b4
/model.11/m.0/cv2/act/Mul_output_0: 3cd21900
/model.11/m.0/Add_output_0: 3d379a0a
/model.11/m.1/cv1/conv/Conv_output_0: 3d5c508f
/model.11/m.1/cv1/act/Sigmoid_output_0: 3c011357
/model.11/m.1/cv1/act/Mul_output_0: 3c994d81
/model.11/m.1/cv2/conv/Conv_output_0: 3db594c8
/model.11/m.1/cv2/act/Sigmoid_output_0: 3c010a14
/model.11/m.1/cv2/act/Mul_output_0: 3dc3fc5c
/model.11/m.1/Add_output_0: 3de0ca4a
/model.11/Concat_output_0: 3d9309f5
/model.11/cv2/conv/Conv_output_0: 3d5fc268
/model.11/cv2/act/Sigmoid_output_0: 3c019053
/model.11/cv2/act/Mul_output_0: 3d12425d
/model.12/conv/Conv_output_0: 3d659b70
/model.12/act/Sigmoid_output_0: 3c054934
/model.12/act/Mul_output_0: 3ce807d3
/Concat_1_output_0: 3d00f664
/Slice_4_output_0: 3d00f664
/Slice_5_output_0: 3ce807d3
/model.14/cv1/conv/Conv_output_0: 3d8164ae
/model.14/cv1/act/Sigmoid_output_0: 3c00b15a
/model.14/cv1/act/Mul_output_0: 3cd31634
/model.14/Split_output_0: 3d1141cd
/model.14/Split_output_1: 3cd21e7d
/model.14/m.0/cv1/conv/Conv_output_0: 3d7fd565
/model.14/m.0/cv1/act/Sigmoid_output_0: 3c00c8cb
/model.14/m.0/cv1/act/Mul_output_0: 3d00e1fe
/model.14/m.0/cv2/conv/Conv_output_0: 3d675b5f
/model.14/m.0/cv2/act/Sigmoid_output_0: 3c009353
/model.14/m.0/cv2/act/Mul_output_0: 3ce8f212
/model.14/m.0/Add_output_0: 3d4cd8b0
/model.14/m.1/cv1/conv/Conv_output_0: 3d656f27
/model.14/m.1/cv1/act/Sigmoid_output_0: 3c00e7f5
/model.14/m.1/cv1/act/Mul_output_0: 3ce87fa5
/model.14/m.1/cv2/conv/Conv_output_0: 3d71a4b7
/model.14/m.1/cv2/act/Sigmoid_output_0: 3c00ef9a
/model.14/m.1/cv2/act/Mul_output_0: 3d10dafc
/model.14/m.1/Add_output_0: 3d82ce3d
/model.14/Concat_output_0: 3d1141cd
/model.14/cv2/conv/Conv_output_0: 3d622b6b
/model.14/cv2/act/Sigmoid_output_0: 3c00f0a1
/model.14/cv2/act/Mul_output_0: 3ce5d8f7
/model.15/conv/Conv_output_0: 3d460e2a
/model.15/act/Sigmoid_output_0: 3c00e410
/model.15/act/Mul_output_0: 3ce7e2d2
/model.16/cv1/conv/Conv_output_0: 3d5f26c4
/model.16/cv1/act/Sigmoid_output_0: 3c07d211
/model.16/cv1/act/Mul_output_0: 3ce9c549
/model.16/Split_output_0: 3d11c469
/model.16/Split_output_1: 3cd2702f
/model.16/m.0/cv1/conv/Conv_output_0: 3d94518c
/model.16/m.0/cv1/act/Sigmoid_output_0: 3c00a198
/model.16/m.0/cv1/act/Mul_output_0: 3d12679b
/model.16/m.0/cv2/conv/Conv_output_0: 3d7cdba1
/model.16/m.0/cv2/act/Sigmoid_output_0: 3c03ba89
/model.16/m.0/cv2/act/Mul_output_0: 3cd3fadb
/model.16/m.0/Add_output_0: 3d4fb153
/model.16/m.1/cv1/conv/Conv_output_0: 3d836cdf
/model.16/m.1/cv1/act/Sigmoid_output_0: 3c00bab8
/model.16/m.1/cv1/act/Mul_output_0: 3cd50ed7
/model.16/m.1/cv2/conv/Conv_output_0: 3d85cd80
/model.16/m.1/cv2/act/Sigmoid_output_0: 3c00ef5d
/model.16/m.1/cv2/act/Mul_output_0: 3d1431ab
/model.16/m.1/Add_output_0: 3d8d5816
/model.16/Concat_output_0: 3d4521ab
/model.16/cv2/conv/Conv_output_0: 3d8e2037
/model.16/cv2/act/Sigmoid_output_0: 3c00efc5
/model.16/cv2/act/Mul_output_0: 3d11f772
/model.17/conv/Conv_output_0: 3d4ee9dd
/model.17/act/Sigmoid_output_0: 3c00bbcf
/model.17/act/Mul_output_0: 3ce6294c
/Concat_2_output_0: 3ce7e2d2
/Slice_6_output_0: 3ce7e2d2
/Slice_7_output_0: 3ce6294c
/model.19/cv1/conv/Conv_output_0: 3d5116f2
/model.19/cv1/act/Sigmoid_output_0: 3c00af0a
/model.19/cv1/act/Mul_output_0: 3cd2d57e
/model.19/Split_output_0: 3d00f05b
/model.19/Split_output_1: 3cea04c8
/model.19/m.0/cv1/conv/Conv_output_0: 3d6c37a1
/model.19/m.0/cv1/act/Sigmoid_output_0: 3c02e995
/model.19/m.0/cv1/act/Mul_output_0: 3cebc1c8
/model.19/m.0/cv2/conv/Conv_output_0: 3d4e09ec
/model.19/m.0/cv2/act/Sigmoid_output_0: 3c009915
/model.19/m.0/cv2/act/Mul_output_0: 3ce6cedd
/model.19/m.0/Add_output_0: 3d65ea0f
/model.19/Concat_output_0: 3d126621
/model.19/cv2/conv/Conv_output_0: 3d482f1d
/model.19/cv2/act/Sigmoid_output_0: 3c00b582
/model.19/cv2/act/Mul_output_0: 3cd45ab2
/model.20/cv1/conv/Conv_output_0: 3d630111
/model.20/cv1/act/Sigmoid_output_0: 3c00d848
/model.20/cv1/act/Mul_output_0: 3d001e75
/model.20/m/MaxPool_output_0: 3d001e75
/model.20/m_1/MaxPool_output_0: 3d001e75
/model.20/m_2/MaxPool_output_0: 3d001e75
/model.20/Concat_output_0: 3d6514ea
/model.20/cv2/conv/Conv_output_0: 3d3b06fe
/model.20/cv2/act/Sigmoid_output_0: 3c00a3de
/model.20/cv2/act/Mul_output_0: 3cb38133
/model.21/cv1/conv/Conv_output_0: 3d4077c2
/model.21/cv1/act/Sigmoid_output_0: 3c0060c8
/model.21/cv1/act/Mul_output_0: 3ce817b8
/model.21/Split_output_0: 3cd2fd99
/model.21/Split_output_1: 3cb275cf
/model.21/m.0/cv1/conv/Conv_output_0: 3d68358d
/model.21/m.0/cv1/act/Sigmoid_output_0: 3c00d5da
/model.21/m.0/cv1/act/Mul_output_0: 3cd47b4f
/model.21/m.0/cv2/conv/Conv_output_0: 3d69abae
/model.21/m.0/cv2/act/Sigmoid_output_0: 3c00dd17
/model.21/m.0/cv2/act/Mul_output_0: 3d10da5e
/model.21/m.0/Add_output_0: 3d7f333b
/model.21/Concat_output_0: 3ce6d062
/model.21/cv2/conv/Conv_output_0: 3d41dcfb
/model.21/cv2/act/Sigmoid_output_0: 3c0089a8
/model.21/cv2/act/Mul_output_0: 3cc111ae
/model.22/cv1/conv/Conv_output_0: 3d534ee5
/model.22/cv1/act/Sigmoid_output_0: 3c00c396
/model.22/cv1/act/Mul_output_0: 3ce75ff9
/model.22/m/MaxPool_output_0: 3ce75ff9
/model.22/m_1/MaxPool_output_0: 3ce75ff9
/model.22/m_2/MaxPool_output_0: 3ce75ff9
/model.22/Concat_output_0: 3d654c53
/model.22/cv2/conv/Conv_output_0: 3d8221f4
/model.22/cv2/act/Sigmoid_output_0: 3c00d5bb
/model.22/cv2/act/Mul_output_0: 3d01bee3
/model.23/Add_output_0: 3d62455f
/model.24/Add_output_0: 3da61b44
/model.25/Add_output_0: 3d65730d
/model.26/Resize_output_0: 3d65730d
/model.27/Concat_output_0: 3d8ff57f
/model.28/cv1/conv/Conv_output_0: 3d86c77a
/model.28/cv1/act/Sigmoid_output_0: 3c00a554
/model.28/cv1/act/Mul_output_0: 3cebea19
/model.28/Split_output_0: 3cd16943
/model.28/Split_output_1: 3cebea19
/model.28/m.0/cv1/conv/Conv_output_0: 3d88823d
/model.28/m.0/cv1/act/Sigmoid_output_0: 3c00c57e
/model.28/m.0/cv1/act/Mul_output_0: 3ceb3d9b
/model.28/m.0/cv2/conv/Conv_output_0: 3d713469
/model.28/m.0/cv2/act/Sigmoid_output_0: 3c00efa4
/model.28/m.0/cv2/act/Mul_output_0: 3d111c66
/model.28/Concat_output_0: 3cd31910
/model.28/cv2/conv/Conv_output_0: 3d664459
/model.28/cv2/act/Sigmoid_output_0: 3c00d151
/model.28/cv2/act/Mul_output_0: 3d01379c
/model.29/Resize_output_0: 3d01379c
/model.30/Concat_output_0: 3d01379c
/model.31/cv1/conv/Conv_output_0: 3d528135
/model.31/cv1/act/Sigmoid_output_0: 3c00e302
/model.31/cv1/act/Mul_output_0: 3cebfc02
/model.31/Split_output_0: 3cebfc02
/model.31/Split_output_1: 3ce7f7dd
/model.31/m.0/cv1/conv/Conv_output_0: 3d5561b8
/model.31/m.0/cv1/act/Sigmoid_output_0: 3c005f17
/model.31/m.0/cv1/act/Mul_output_0: 3c99366c
/model.31/m.0/cv2/conv/Conv_output_0: 3d7f4911
/model.31/m.0/cv2/act/Sigmoid_output_0: 3c00cb38
/model.31/m.0/cv2/act/Mul_output_0: 3d272d6d
/model.31/Concat_output_0: 3d272d6d
/model.31/cv2/conv/Conv_output_0: 3da1f1b8
/model.31/cv2/act/Sigmoid_output_0: 3c016fd1
/model.31/cv2/act/Mul_output_0: 3cd2ddd4
/model.32/conv/Conv_output_0: 3da1cf33
/model.32/act/Sigmoid_output_0: 3c01121d
/model.32/act/Mul_output_0: 3d46b097
/model.33/Concat_output_0: 3d15129e
/model.34/cv1/conv/Conv_output_0: 3d83369f
/model.34/cv1/act/Sigmoid_output_0: 3c00ee44
/model.34/cv1/act/Mul_output_0: 3d02d12f
/model.34/Split_output_0: 3cff884f
/model.34/Split_output_1: 3d02d12f
/model.34/m.0/cv1/conv/Conv_output_0: 3d8b15f5
/model.34/m.0/cv1/act/Sigmoid_output_0: 3c010df7
/model.34/m.0/cv1/act/Mul_output_0: 3cd2b99e
/model.34/m.0/cv2/conv/Conv_output_0: 3d82da3b
/model.34/m.0/cv2/act/Sigmoid_output_0: 3c0111ed
/model.34/m.0/cv2/act/Mul_output_0: 3d007ff7
/model.34/Concat_output_0: 3d007ff7
/model.34/cv2/conv/Conv_output_0: 3d7bb2fc
/model.34/cv2/act/Sigmoid_output_0: 3c011097
/model.34/cv2/act/Mul_output_0: 3d11dccb
/model.35/conv/Conv_output_0: 3d30e800
/model.35/act/Sigmoid_output_0: 3c026f0c
/model.35/act/Mul_output_0: 3ca46d1f
/model.36/Concat_output_0: 3d24697a
/model.37/cv1/conv/Conv_output_0: 3d08cea5
/model.37/cv1/act/Sigmoid_output_0: 3bfe30ad
/model.37/cv1/act/Mul_output_0: 3c99eb4a
/model.37/Split_output_0: 3c99eb4a
/model.37/Split_output_1: 3cb24814
/model.37/m.0/cv1/conv/Conv_output_0: 3ce13d0d
/model.37/m.0/cv1/act/Sigmoid_output_0: 3bf87e60
/model.37/m.0/cv1/act/Mul_output_0: 3c997686
/model.37/m.0/cv2/conv/Conv_output_0: 3ced5046
/model.37/m.0/cv2/act/Sigmoid_output_0: 3bfca32f
/model.37/m.0/cv2/act/Mul_output_0: 3cb1d96b
/model.37/Concat_output_0: 3c99eb4a
/model.37/cv2/conv/Conv_output_0: 3ce9ba7f
/model.37/cv2/act/Sigmoid_output_0: 3bf89972
/model.37/cv2/act/Mul_output_0: 3c9a2346
/model.38/cv2.0/cv2.0.0/conv/Conv_output_0: 3d878891
/model.38/cv2.0/cv2.0.0/act/Sigmoid_output_0: 3c008931
/model.38/cv2.0/cv2.0.0/act/Mul_output_0: 3ce75288
/model.38/cv2.0/cv2.0.1/conv/Conv_output_0: 3da37428
/model.38/cv2.0/cv2.0.1/act/Sigmoid_output_0: 3c010a14
/model.38/cv2.0/cv2.0.1/act/Mul_output_0: 3d6b095a
/model.38/cv2.0/cv2.0.2/Conv_output_0: 3df69810
/model.38/cv3.0/cv3.0.0/conv/Conv_output_0: 3debea92
/model.38/cv3.0/cv3.0.0/act/Sigmoid_output_0: 3c01120a
/model.38/cv3.0/cv3.0.0/act/Mul_output_0: 3d132369
/model.38/cv3.0/cv3.0.1/conv/Conv_output_0: 3e6282f0
/model.38/cv3.0/cv3.0.1/act/Sigmoid_output_0: 3c010a14
/model.38/cv3.0/cv3.0.1/act/Mul_output_0: 3dd3a6e1
/model.38/cv3.0/cv3.0.2/Conv_output_0: 3f10ea32
/model.38/Concat_output_0: 3ea9ab83
/model.38/cv2.1/cv2.1.0/conv/Conv_output_0: 3d7af535
/model.38/cv2.1/cv2.1.0/act/Sigmoid_output_0: 3c010f9f
/model.38/cv2.1/cv2.1.0/act/Mul_output_0: 3d13a329
/model.38/cv2.1/cv2.1.1/conv/Conv_output_0: 3dbf04a9
/model.38/cv2.1/cv2.1.1/act/Sigmoid_output_0: 3c010a14
/model.38/cv2.1/cv2.1.1/act/Mul_output_0: 3d1108ff
/model.38/cv2.1/cv2.1.2/Conv_output_0: 3dcad2ab
/model.38/cv3.1/cv3.1.0/conv/Conv_output_0: 3d93d8fa
/model.38/cv3.1/cv3.1.0/act/Sigmoid_output_0: 3c010e6b
/model.38/cv3.1/cv3.1.0/act/Mul_output_0: 3cd55062
/model.38/cv3.1/cv3.1.1/conv/Conv_output_0: 3dc3f47b
/model.38/cv3.1/cv3.1.1/act/Sigmoid_output_0: 3c010a14
/model.38/cv3.1/cv3.1.1/act/Mul_output_0: 3d4a04bd
/model.38/cv3.1/cv3.1.2/Conv_output_0: 3e9d47ab
/model.38/Concat_1_output_0: 3e55e2f9
/model.38/cv2.2/cv2.2.0/conv/Conv_output_0: 3cd69d8d
/model.38/cv2.2/cv2.2.0/act/Sigmoid_output_0: 3bf587a9
/model.38/cv2.2/cv2.2.0/act/Mul_output_0: 3c9a2aae
/model.38/cv2.2/cv2.2.1/conv/Conv_output_0: 3cd7e00d
/model.38/cv2.2/cv2.2.1/act/Sigmoid_output_0: 3bfbe73c
/model.38/cv2.2/cv2.2.1/act/Mul_output_0: 3ca3ea28
/model.38/cv2.2/cv2.2.2/Conv_output_0: 3c101ea9
/model.38/cv3.2/cv3.2.0/conv/Conv_output_0: 3cb02648
/model.38/cv3.2/cv3.2.0/act/Sigmoid_output_0: 3be756ff
/model.38/cv3.2/cv3.2.0/act/Mul_output_0: 3c486c52
/model.38/cv3.2/cv3.2.1/conv/Conv_output_0: 3ca726c4
/model.38/cv3.2/cv3.2.1/act/Sigmoid_output_0: 3bee5abc
/model.38/cv3.2/cv3.2.1/act/Mul_output_0: 3c9a2cc3
/model.38/cv3.2/cv3.2.2/Conv_output_0: 3dc4c95f
/model.38/Concat_2_output_0: 3dc30d84
/model.38/Reshape_output_0: 3ea9ab83
/model.38/Reshape_1_output_0: 3e55e2f9
/model.38/Reshape_2_output_0: 3dc30d84
/model.38/Concat_6_output_0: 3e977f67
(Unnamed Layer* 700) [Constant]_output: 3e810a14
/model.38/Split_output_0: 3d810a14
/model.38/Split_output_1: 3e010a14
/model.38/Split_output_2: 3e810a14
/model.38/Range_output_0: 3f1f4871
(Unnamed Layer* 724) [Shuffle]_output: 3c010a14
(Unnamed Layer* 726) [Shuffle]_output: 3b810a14
/model.38/Add_output_0: 3f204a85
/model.38/Range_1_output_0: 3f1f4871
(Unnamed Layer* 739) [Shuffle]_output: 3c010a14
(Unnamed Layer* 741) [Shuffle]_output: 3b810a14
/model.38/Add_1_output_0: 3f204a85
/model.38/Reshape_5_output_0: 3f204a85
/model.38/Expand_output_0: 3f204a85
/model.38/Reshape_6_output_0: 3f204a85
/model.38/Expand_1_output_0: 3f204a85
/model.38/Unsqueeze_3_output_0: 3f204a85
/model.38/Unsqueeze_4_output_0: 3f204a85
/model.38/Concat_10_output_0: 3f204a85
/model.38/Reshape_7_output_0: 3f204a85
(Unnamed Layer* 792) [Constant]_output: 0
(Unnamed Layer* 793) [Shuffle]_output: 0
/model.38/ConstantOfShape_output_0: 0
(Unnamed Layer* 796) [Shuffle]_output: 3d810a14
/model.38/Add_2_output_0: 3d810a14
/model.38/Range_2_output_0: 3e9d4449
(Unnamed Layer* 815) [Shuffle]_output: 3c010a14
(Unnamed Layer* 817) [Shuffle]_output: 3b810a14
/model.38/Add_3_output_0: 3e9f4871
/model.38/Range_3_output_0: 3e9d4449
(Unnamed Layer* 830) [Shuffle]_output: 3c010a14
(Unnamed Layer* 832) [Shuffle]_output: 3b810a14
/model.38/Add_4_output_0: 3e9f4871
/model.38/Reshape_10_output_0: 3e9f4871
/model.38/Expand_2_output_0: 3e9f4871
/model.38/Reshape_11_output_0: 3e9f4871
/model.38/Expand_3_output_0: 3e9f4871
/model.38/Unsqueeze_6_output_0: 3e9f4871
/model.38/Unsqueeze_7_output_0: 3e9f4871
/model.38/Concat_15_output_0: 3e9f4871
/model.38/Reshape_12_output_0: 3e9f4871
(Unnamed Layer* 883) [Constant]_output: 0
(Unnamed Layer* 884) [Shuffle]_output: 0
/model.38/ConstantOfShape_1_output_0: 0
(Unnamed Layer* 887) [Shuffle]_output: 3e010a14
/model.38/Add_5_output_0: 3e010a14
/model.38/Range_4_output_0: 3e193bf8
(Unnamed Layer* 906) [Shuffle]_output: 3c010a14
(Unnamed Layer* 908) [Shuffle]_output: 3b810a14
/model.38/Add_6_output_0: 3e1d4449
/model.38/Range_5_output_0: 3e193bf8
(Unnamed Layer* 921) [Shuffle]_output: 3c010a14
(Unnamed Layer* 923) [Shuffle]_output: 3b810a14
/model.38/Add_7_output_0: 3e1d4449
/model.38/Reshape_15_output_0: 3e1d4449
/model.38/Expand_4_output_0: 3e1d4449
/model.38/Reshape_16_output_0: 3e1d4449
/model.38/Expand_5_output_0: 3e1d4449
/model.38/Unsqueeze_9_output_0: 3e1d4449
/model.38/Unsqueeze_10_output_0: 3e1d4449
/model.38/Concat_20_output_0: 3e1d4449
/model.38/Reshape_17_output_0: 3e1d4449
(Unnamed Layer* 974) [Constant]_output: 0
(Unnamed Layer* 975) [Shuffle]_output: 0
/model.38/ConstantOfShape_2_output_0: 0
(Unnamed Layer* 978) [Shuffle]_output: 3e810a14
/model.38/Add_8_output_0: 3e810a14
/model.38/Concat_22_output_0: 3f204a85
/model.38/Concat_23_output_0: 3e810a14
/model.38/Transpose_output_0: 3f204a85
/model.38/Transpose_1_output_0: 3e810a14
/model.38/Split_1_output_0: 3dd820c2
/model.38/Split_1_output_1: 3edfd0e6
/model.38/dfl/Reshape_output_0: 3dd820c2
/model.38/dfl/Transpose_output_0: 3dd820c2
(Unnamed Layer* 1007) [Softmax]_output: 3bd6130a
/model.38/dfl/conv/Conv_output_0: 3da45394
/model.38/dfl/Reshape_1_output_0: 3da45394
/model.38/Unsqueeze_12_output_0: 3f204a85
/model.38/Slice_output_0: 3da426e6
/model.38/Slice_1_output_0: 3da63fb4
/model.38/Sub_output_0: 3f1fc8b7
/model.38/Add_10_output_0: 3f22b619
/model.38/Add_11_output_0: 3fa08564
(Unnamed Layer* 1090) [Shuffle]_output: 3c810a14
/model.38/Div_1_output_0: 3f208564
/model.38/Sub_1_output_0: 3df418e8
/model.38/Concat_24_output_0: 3f208564
(Unnamed Layer* 1097) [Shuffle]_output: 3e810a14
/model.38/Mul_5_output_0: 40a47123
/model.38/Sigmoid_output_0: 3be2f200
output0: 40a47123
