TRT-8503-EntropyCalibration2
images: 3bf80000
/Slice_output_0: 3bf80000
/Slice_1_output_0: 3bf80000
/model.0/conv/Conv_output_0: 3da477ca
/model.0/act/Sigmoid_output_0: 3c010a14
/model.0/act/Mul_output_0: 3d79576c
/model.1/conv/Conv_output_0: 3dc6dd17
/model.1/act/Sigmoid_output_0: 3c010a14
/model.1/act/Mul_output_0: 3cdd77e2
/model.2/cv1/conv/Conv_output_0: 3d574679
/model.2/cv1/act/Sigmoid_output_0: 3c00e9d4
/model.2/cv1/act/Mul_output_0: 3d104502
/model.2/Split_output_0: 3d10d9a1
/model.2/Split_output_1: 3ce74342
/model.2/m.0/cv1/conv/Conv_output_0: 3d5d937a
/model.2/m.0/cv1/act/Sigmoid_output_0: 3bffcf9f
/model.2/m.0/cv1/act/Mul_output_0: 3d031a01
/model.2/m.0/cv2/conv/Conv_output_0: 3d856711
/model.2/m.0/cv2/act/Sigmoid_output_0: 3c01529d
/model.2/m.0/cv2/act/Mul_output_0: 3d279251
/model.2/m.0/Add_output_0: 3d8b502a
/model.2/Concat_output_0: 3d651f59
/model.2/cv2/conv/Conv_output_0: 3d9af68b
/model.2/cv2/act/Sigmoid_output_0: 3c033660
/model.2/cv2/act/Mul_output_0: 3d12a41b
/model.3/conv/Conv_output_0: 3d2e8b7e
/model.3/act/Sigmoid_output_0: 3c01efa7
/model.3/act/Mul_output_0: 3d00a8fe
/model.4/conv/Conv_output_0: 3e12404d
/model.4/act/Sigmoid_output_0: 3c010a14
/model.4/act/Mul_output_0: 3d887e65
/model.5/conv/Conv_output_0: 3daede69
/model.5/act/Sigmoid_output_0: 3c010a14
/model.5/act/Mul_output_0: 3d4709fd
/model.6/cv1/conv/Conv_output_0: 3d5481c5
/model.6/cv1/act/Sigmoid_output_0: 3c067bd6
/model.6/cv1/act/Mul_output_0: 3d11c076
/model.6/Split_output_0: 3d0fcd4c
/model.6/Split_output_1: 3ce95dca
/model.6/m.0/cv1/conv/Conv_output_0: 3d8692da
/model.6/m.0/cv1/act/Sigmoid_output_0: 3c000783
/model.6/m.0/cv1/act/Mul_output_0: 3d141433
/model.6/m.0/cv2/conv/Conv_output_0: 3d0d4284
/model.6/m.0/cv2/act/Sigmoid_output_0: 3c04384d
/model.6/m.0/cv2/act/Mul_output_0: 3d09c08a
/model.6/m.0/Add_output_0: 3d4ef281
/model.6/Concat_output_0: 3d6401e1
/model.6/cv2/conv/Conv_output_0: 3d3ffe94
/model.6/cv2/act/Sigmoid_output_0: 3c03b74b
/model.6/cv2/act/Mul_output_0: 3d0fa775
/model.7/conv/Conv_output_0: 3d3132ec
/model.7/act/Sigmoid_output_0: 3c0e74fa
/model.7/act/Mul_output_0: 3cd0147b
/model.9/cv1/conv/Conv_output_0: 3d273267
/model.9/cv1/act/Sigmoid_output_0: 3c05d9f1
/model.9/cv1/act/Mul_output_0: 3ce6cc91
/model.9/Split_output_0: 3ce62d86
/model.9/Split_output_1: 3c987670
/model.9/m.0/cv1/conv/Conv_output_0: 3d4dd79d
/model.9/m.0/cv1/act/Sigmoid_output_0: 3c004f2f
/model.9/m.0/cv1/act/Mul_output_0: 3ceabdd0
/model.9/m.0/cv2/conv/Conv_output_0: 3d476e9e
/model.9/m.0/cv2/act/Sigmoid_output_0: 3bff4e82
/model.9/m.0/cv2/act/Mul_output_0: 3cea0787
/model.9/m.0/Add_output_0: 3d540ca1
/model.9/m.1/cv1/conv/Conv_output_0: 3d985e04
/model.9/m.1/cv1/act/Sigmoid_output_0: 3c03f3a7
/model.9/m.1/cv1/act/Mul_output_0: 3cd2a132
/model.9/m.1/cv2/conv/Conv_output_0: 3da9d261
/model.9/m.1/cv2/act/Sigmoid_output_0: 3c031619
/model.9/m.1/cv2/act/Mul_output_0: 3d105534
/model.9/m.1/Add_output_0: 3dbf1543
/model.9/Concat_output_0: 3d3f97d9
/model.9/cv2/conv/Conv_output_0: 3d1d0c8e
/model.9/cv2/act/Sigmoid_output_0: 3c0c56c1
/model.9/cv2/act/Mul_output_0: 3cb31646
/model.10/conv/Conv_output_0: 3d809207
/model.10/act/Sigmoid_output_0: 3c063bb1
/model.10/act/Mul_output_0: 3d262879
/model.11/cv1/conv/Conv_output_0: 3d1e6518
/model.11/cv1/act/Sigmoid_output_0: 3c0313a8
/model.11/cv1/act/Mul_output_0: 3d0e879f
/model.11/Split_output_0: 3d0f6d59
/model.11/Split_output_1: 3cc7a803
/model.11/m.0/cv1/conv/Conv_output_0: 3d41598e
/model.11/m.0/cv1/act/Sigmoid_output_0: 3c0362c9
/model.11/m.0/cv1/act/Mul_output_0: 3cc35bb4
/model.11/m.0/cv2/conv/Conv_output_0: 3d5144bd
/model.11/m.0/cv2/act/Sigmoid_output_0: 3c080e4f
/model.11/m.0/cv2/act/Mul_output_0: 3ce7e644
/model.11/m.0/Add_output_0: 3d3c7a13
/model.11/m.1/cv1/conv/Conv_output_0: 3d5bf86b
/model.11/m.1/cv1/act/Sigmoid_output_0: 3c02625f
/model.11/m.1/cv1/act/Mul_output_0: 3ceb3d43
/model.11/m.1/cv2/conv/Conv_output_0: 3dd2c469
/model.11/m.1/cv2/act/Sigmoid_output_0: 3c010a14
/model.11/m.1/cv2/act/Mul_output_0: 3d942529
/model.11/m.1/Add_output_0: 3df9985b
/model.11/Concat_output_0: 3d3e6a9f
/model.11/cv2/conv/Conv_output_0: 3d59beaa
/model.11/cv2/act/Sigmoid_output_0: 3c018ecf
/model.11/cv2/act/Mul_output_0: 3d00467c
/model.12/conv/Conv_output_0: 3d5a1727
/model.12/act/Sigmoid_output_0: 3c0cda4b
/model.12/act/Mul_output_0: 3ce70d84
/model.14/cv1/conv/Conv_output_0: 3d822107
/model.14/cv1/act/Sigmoid_output_0: 3c00d9b3
/model.14/cv1/act/Mul_output_0: 3d008dfa
/model.14/Split_output_0: 3d008dfa
/model.14/Split_output_1: 3cb11aa6
/model.14/m.0/cv1/conv/Conv_output_0: 3d80a367
/model.14/m.0/cv1/act/Sigmoid_output_0: 3c00c658
/model.14/m.0/cv1/act/Mul_output_0: 3ce75fd4
/model.14/m.0/cv2/conv/Conv_output_0: 3d75de57
/model.14/m.0/cv2/act/Sigmoid_output_0: 3c0303ef
/model.14/m.0/cv2/act/Mul_output_0: 3ce63c69
/model.14/m.0/Add_output_0: 3d51c356
/model.14/m.1/cv1/conv/Conv_output_0: 3d65302c
/model.14/m.1/cv1/act/Sigmoid_output_0: 3c00edaa
/model.14/m.1/cv1/act/Mul_output_0: 3cd26144
/model.14/m.1/cv2/conv/Conv_output_0: 3d769cc9
/model.14/m.1/cv2/act/Sigmoid_output_0: 3c00cf39
/model.14/m.1/cv2/act/Mul_output_0: 3cd19158
/model.14/m.1/Add_output_0: 3d84246f
/model.14/Concat_output_0: 3d253ed0
/model.14/cv2/conv/Conv_output_0: 3d6e8110
/model.14/cv2/act/Sigmoid_output_0: 3c00f165
/model.14/cv2/act/Mul_output_0: 3d014fcf
/model.15/conv/Conv_output_0: 3d509444
/model.15/act/Sigmoid_output_0: 3c00ebcf
/model.15/act/Mul_output_0: 3d02dcc3
/model.16/cv1/conv/Conv_output_0: 3d6002a1
/model.16/cv1/act/Sigmoid_output_0: 3c00a83f
/model.16/cv1/act/Mul_output_0: 3ce93289
/model.16/Split_output_0: 3d014abc
/model.16/Split_output_1: 3cd3ea21
/model.16/m.0/cv1/conv/Conv_output_0: 3d95d017
/model.16/m.0/cv1/act/Sigmoid_output_0: 3c00c785
/model.16/m.0/cv1/act/Mul_output_0: 3ce6386b
/model.16/m.0/cv2/conv/Conv_output_0: 3d7ea639
/model.16/m.0/cv2/act/Sigmoid_output_0: 3c020d1d
/model.16/m.0/cv2/act/Mul_output_0: 3cc12d9a
/model.16/m.0/Add_output_0: 3d51b6f4
/model.16/m.1/cv1/conv/Conv_output_0: 3d839bc5
/model.16/m.1/cv1/act/Sigmoid_output_0: 3c00cc97
/model.16/m.1/cv1/act/Mul_output_0: 3d028507
/model.16/m.1/cv2/conv/Conv_output_0: 3d8949cf
/model.16/m.1/cv2/act/Sigmoid_output_0: 3c00ed97
/model.16/m.1/cv2/act/Mul_output_0: 3d005893
/model.16/m.1/Add_output_0: 3d83a182
/model.16/Concat_output_0: 3d277758
/model.16/cv2/conv/Conv_output_0: 3d879365
/model.16/cv2/act/Sigmoid_output_0: 3c00eff0
/model.16/cv2/act/Mul_output_0: 3d133a77
/model.17/conv/Conv_output_0: 3d568bf9
/model.17/act/Sigmoid_output_0: 3c00cbc4
/model.17/act/Mul_output_0: 3d035e29
/model.19/cv1/conv/Conv_output_0: 3d5f7c27
/model.19/cv1/act/Sigmoid_output_0: 3c00de18
/model.19/cv1/act/Mul_output_0: 3ce9466a
/model.19/Split_output_0: 3ce9466a
/model.19/Split_output_1: 3d0299bb
/model.19/m.0/cv1/conv/Conv_output_0: 3d66f829
/model.19/m.0/cv1/act/Sigmoid_output_0: 3c0088d1
/model.19/m.0/cv1/act/Mul_output_0: 3cd3e3f0
/model.19/m.0/cv2/conv/Conv_output_0: 3d5e61f0
/model.19/m.0/cv2/act/Sigmoid_output_0: 3c01cacd
/model.19/m.0/cv2/act/Mul_output_0: 3ce736da
/model.19/m.0/Add_output_0: 3d642298
/model.19/Concat_output_0: 3d11d37b
/model.19/cv2/conv/Conv_output_0: 3d4ad68b
/model.19/cv2/act/Sigmoid_output_0: 3c00dbf2
/model.19/cv2/act/Mul_output_0: 3ce87155
/model.20/cv1/conv/Conv_output_0: 3d5d9c83
/model.20/cv1/act/Sigmoid_output_0: 3c015d16
/model.20/cv1/act/Mul_output_0: 3d0ffe31
/model.20/m/MaxPool_output_0: 3d0ffe31
/model.20/m_1/MaxPool_output_0: 3d0ffe31
/model.20/m_2/MaxPool_output_0: 3d0ffe31
/model.20/Concat_output_0: 3d65130e
/model.20/cv2/conv/Conv_output_0: 3d3f705f
/model.20/cv2/act/Sigmoid_output_0: 3c01c5fe
/model.20/cv2/act/Mul_output_0: 3cc2326d
/model.21/cv1/conv/Conv_output_0: 3d491252
/model.21/cv1/act/Sigmoid_output_0: 3c00ad67
/model.21/cv1/act/Mul_output_0: 3cd1675c
/model.21/Split_output_0: 3cd1675c
/model.21/Split_output_1: 3cc0ce60
/model.21/m.0/cv1/conv/Conv_output_0: 3d63014f
/model.21/m.0/cv1/act/Sigmoid_output_0: 3c00e371
/model.21/m.0/cv1/act/Mul_output_0: 3ce6d229
/model.21/m.0/cv2/conv/Conv_output_0: 3d757496
/model.21/m.0/cv2/act/Sigmoid_output_0: 3c00e71b
/model.21/m.0/cv2/act/Mul_output_0: 3d007a75
/model.21/m.0/Add_output_0: 3d7d6675
/model.21/Concat_output_0: 3d24c6fc
/model.21/cv2/conv/Conv_output_0: 3d4ca31b
/model.21/cv2/act/Sigmoid_output_0: 3c00a1bd
/model.21/cv2/act/Mul_output_0: 3cea63a4
/model.22/cv1/conv/Conv_output_0: 3d58ad81
/model.22/cv1/act/Sigmoid_output_0: 3c00d166
/model.22/cv1/act/Mul_output_0: 3d2a78c9
/model.22/m/MaxPool_output_0: 3d2a78c9
/model.22/m_1/MaxPool_output_0: 3d2a78c9
/model.22/m_2/MaxPool_output_0: 3d2a78c9
/model.22/Concat_output_0: 3d6d2b89
/model.22/cv2/conv/Conv_output_0: 3d864c99
/model.22/cv2/act/Sigmoid_output_0: 3c00f8f2
/model.22/cv2/act/Mul_output_0: 3ce6c826
/model.23/Add_output_0: 3d4db286
/model.24/Add_output_0: 3da0f1bb
/model.25/Add_output_0: 3d7e62f5
/model.26/Resize_output_0: 3d7e62f5
/model.27/Concat_output_0: 3d7898d4
/model.28/cv1/conv/Conv_output_0: 3d87f0a6
/model.28/cv1/act/Sigmoid_output_0: 3c00dc53
/model.28/cv1/act/Mul_output_0: 3ce6942e
/model.28/Split_output_0: 3ce6942e
/model.28/Split_output_1: 3cd1e8f1
/model.28/m.0/cv1/conv/Conv_output_0: 3d820eed
/model.28/m.0/cv1/act/Sigmoid_output_0: 3c00e740
/model.28/m.0/cv1/act/Mul_output_0: 3ce919d6
/model.28/m.0/cv2/conv/Conv_output_0: 3d790954
/model.28/m.0/cv2/act/Sigmoid_output_0: 3c00e878
/model.28/m.0/cv2/act/Mul_output_0: 3cffca9c
/model.28/Concat_output_0: 3cffca9c
/model.28/cv2/conv/Conv_output_0: 3d609094
/model.28/cv2/act/Sigmoid_output_0: 3c00cba1
/model.28/cv2/act/Mul_output_0: 3d030759
/model.29/Resize_output_0: 3d030759
/model.30/Concat_output_0: 3d14b5dc
/model.31/cv1/conv/Conv_output_0: 3d52d07c
/model.31/cv1/act/Sigmoid_output_0: 3c00e230
/model.31/cv1/act/Mul_output_0: 3cea5575
/model.31/Split_output_0: 3cea5575
/model.31/Split_output_1: 3d0286bb
/model.31/m.0/cv1/conv/Conv_output_0: 3d562bee
/model.31/m.0/cv1/act/Sigmoid_output_0: 3c004d7c
/model.31/m.0/cv1/act/Mul_output_0: 3c9a2472
/model.31/m.0/cv2/conv/Conv_output_0: 3d79559c
/model.31/m.0/cv2/act/Sigmoid_output_0: 3c00e3cc
/model.31/m.0/cv2/act/Mul_output_0: 3d253d4d
/model.31/Concat_output_0: 3d10b8d0
/model.31/cv2/conv/Conv_output_0: 3da870a7
/model.31/cv2/act/Sigmoid_output_0: 3c018943
/model.31/cv2/act/Mul_output_0: 3ceb7847
/model.32/conv/Conv_output_0: 3da4eca1
/model.32/act/Sigmoid_output_0: 3c011213
/model.32/act/Mul_output_0: 3d119cbf
/model.33/Concat_output_0: 3d119cbf
/model.34/cv1/conv/Conv_output_0: 3d77bc96
/model.34/cv1/act/Sigmoid_output_0: 3c00f0a2
/model.34/cv1/act/Mul_output_0: 3ce5edeb
/model.34/Split_output_0: 3d11f95e
/model.34/Split_output_1: 3ce5edeb
/model.34/m.0/cv1/conv/Conv_output_0: 3d870683
/model.34/m.0/cv1/act/Sigmoid_output_0: 3c0313b3
/model.34/m.0/cv1/act/Mul_output_0: 3cd17423
/model.34/m.0/cv2/conv/Conv_output_0: 3d8c4c81
/model.34/m.0/cv2/act/Sigmoid_output_0: 3c031398
/model.34/m.0/cv2/act/Mul_output_0: 3d141e7f
/model.34/Concat_output_0: 3ce5edeb
/model.34/cv2/conv/Conv_output_0: 3d8226a8
/model.34/cv2/act/Sigmoid_output_0: 3c021423
/model.34/cv2/act/Mul_output_0: 3d24bec4
/model.35/conv/Conv_output_0: 3d33c342
/model.35/act/Sigmoid_output_0: 3c00a746
/model.35/act/Mul_output_0: 3cd1936d
/model.36/Concat_output_0: 3d3e730b
/model.37/cv1/conv/Conv_output_0: 3d17931b
/model.37/cv1/act/Sigmoid_output_0: 3c00b66f
/model.37/cv1/act/Mul_output_0: 3ca69883
/model.37/Split_output_0: 3cc22f69
/model.37/Split_output_1: 3cb1b83b
/model.37/m.0/cv1/conv/Conv_output_0: 3d074220
/model.37/m.0/cv1/act/Sigmoid_output_0: 3bff41b2
/model.37/m.0/cv1/act/Mul_output_0: 3ca4d40b
/model.37/m.0/cv2/conv/Conv_output_0: 3d0a40a2
/model.37/m.0/cv2/act/Sigmoid_output_0: 3c00591c
/model.37/m.0/cv2/act/Mul_output_0: 3cb1f105
/model.37/Concat_output_0: 3cb1f105
/model.37/cv2/conv/Conv_output_0: 3d0b9504
/model.37/cv2/act/Sigmoid_output_0: 3c00b8d5
/model.37/cv2/act/Mul_output_0: 3c9026a6
/model.38/cv2.0/cv2.0.0/conv/Conv_output_0: 3d831206
/model.38/cv2.0/cv2.0.0/act/Sigmoid_output_0: 3c00757c
/model.38/cv2.0/cv2.0.0/act/Mul_output_0: 3ce96cd5
/model.38/cv2.0/cv2.0.1/conv/Conv_output_0: 3db65938
/model.38/cv2.0/cv2.0.1/act/Sigmoid_output_0: 3c010a14
/model.38/cv2.0/cv2.0.1/act/Mul_output_0: 3d68c4ea
/model.38/cv2.0/cv2.0.2/Conv_output_0: 3dfd6afd
/model.38/cv3.0/cv3.0.0/conv/Conv_output_0: 3de2f3da
/model.38/cv3.0/cv3.0.0/act/Sigmoid_output_0: 3c0111e4
/model.38/cv3.0/cv3.0.0/act/Mul_output_0: 3d03d2e9
/model.38/cv3.0/cv3.0.1/conv/Conv_output_0: 3e55e439
/model.38/cv3.0/cv3.0.1/act/Sigmoid_output_0: 3c010a14
/model.38/cv3.0/cv3.0.1/act/Mul_output_0: 3d9811b0
/model.38/cv3.0/cv3.0.2/Conv_output_0: 3f102223
/model.38/Concat_output_0: 3ea8c146
/model.38/cv2.1/cv2.1.0/conv/Conv_output_0: 3d7e7a0a
/model.38/cv2.1/cv2.1.0/act/Sigmoid_output_0: 3c010972
/model.38/cv2.1/cv2.1.0/act/Mul_output_0: 3d012ee0
/model.38/cv2.1/cv2.1.1/conv/Conv_output_0: 3dcb05fe
/model.38/cv2.1/cv2.1.1/act/Sigmoid_output_0: 3c031627
/model.38/cv2.1/cv2.1.1/act/Mul_output_0: 3d252ce2
/model.38/cv2.1/cv2.1.2/Conv_output_0: 3dd0d90d
/model.38/cv3.1/cv3.1.0/conv/Conv_output_0: 3d9e8903
/model.38/cv3.1/cv3.1.0/act/Sigmoid_output_0: 3c010fa5
/model.38/cv3.1/cv3.1.0/act/Mul_output_0: 3d1463e2
/model.38/cv3.1/cv3.1.1/conv/Conv_output_0: 3dbfcebe
/model.38/cv3.1/cv3.1.1/act/Sigmoid_output_0: 3c010a14
/model.38/cv3.1/cv3.1.1/act/Mul_output_0: 3d2f5062
/model.38/cv3.1/cv3.1.2/Conv_output_0: 3e985063
/model.38/Concat_1_output_0: 3e5a3404
/model.38/cv2.2/cv2.2.0/conv/Conv_output_0: 3d0cad36
/model.38/cv2.2/cv2.2.0/act/Sigmoid_output_0: 3bfea24b
/model.38/cv2.2/cv2.2.0/act/Mul_output_0: 3cc06bbf
/model.38/cv2.2/cv2.2.1/conv/Conv_output_0: 3cf2c23b
/model.38/cv2.2/cv2.2.1/act/Sigmoid_output_0: 3c0009f4
/model.38/cv2.2/cv2.2.1/act/Mul_output_0: 3ca3aa73
/model.38/cv2.2/cv2.2.2/Conv_output_0: 3c1027d4
/model.38/cv3.2/cv3.2.0/conv/Conv_output_0: 3cf6eaf3
/model.38/cv3.2/cv3.2.0/act/Sigmoid_output_0: 3bf9a8cd
/model.38/cv3.2/cv3.2.0/act/Mul_output_0: 3c3880e1
/model.38/cv3.2/cv3.2.1/conv/Conv_output_0: 3cb31d87
/model.38/cv3.2/cv3.2.1/act/Sigmoid_output_0: 3bee59d3
/model.38/cv3.2/cv3.2.1/act/Mul_output_0: 3c998c2c
/model.38/cv3.2/cv3.2.2/Conv_output_0: 3dc4e3e5
/model.38/Concat_2_output_0: 3dc358c4
/model.38/Reshape_output_0: 3ea8c146
/model.38/Reshape_1_output_0: 3e5a3404
/model.38/Reshape_2_output_0: 3dc358c4
/model.38/Concat_6_output_0: 3e9827f8
(Unnamed Layer* 505) [Constant]_output: 3e810a14
/model.38/Split_output_0: 3d810a14
/model.38/Split_output_1: 3e010a14
/model.38/Split_output_2: 3e810a14
/model.38/Range_output_0: 3f1f4871
(Unnamed Layer* 529) [Shuffle]_output: 3c010a14
(Unnamed Layer* 531) [Shuffle]_output: 3b810a14
/model.38/Add_output_0: 3f204a85
/model.38/Range_1_output_0: 3f1f4871
(Unnamed Layer* 544) [Shuffle]_output: 3c010a14
(Unnamed Layer* 546) [Shuffle]_output: 3b810a14
/model.38/Add_1_output_0: 3f204a85
/model.38/Reshape_5_output_0: 3f204a85
/model.38/Expand_output_0: 3f204a85
/model.38/Reshape_6_output_0: 3f204a85
/model.38/Expand_1_output_0: 3f204a85
/model.38/Unsqueeze_3_output_0: 3f204a85
/model.38/Unsqueeze_4_output_0: 3f204a85
/model.38/Concat_10_output_0: 3f204a85
/model.38/Reshape_7_output_0: 3f204a85
(Unnamed Layer* 597) [Constant]_output: 0
(Unnamed Layer* 598) [Shuffle]_output: 0
/model.38/ConstantOfShape_output_0: 0
(Unnamed Layer* 601) [Shuffle]_output: 3d810a14
/model.38/Add_2_output_0: 3d810a14
/model.38/Range_2_output_0: 3e9d4449
(Unnamed Layer* 620) [Shuffle]_output: 3c010a14
(Unnamed Layer* 622) [Shuffle]_output: 3b810a14
/model.38/Add_3_output_0: 3e9f4871
/model.38/Range_3_output_0: 3e9d4449
(Unnamed Layer* 635) [Shuffle]_output: 3c010a14
(Unnamed Layer* 637) [Shuffle]_output: 3b810a14
/model.38/Add_4_output_0: 3e9f4871
/model.38/Reshape_10_output_0: 3e9f4871
/model.38/Expand_2_output_0: 3e9f4871
/model.38/Reshape_11_output_0: 3e9f4871
/model.38/Expand_3_output_0: 3e9f4871
/model.38/Unsqueeze_6_output_0: 3e9f4871
/model.38/Unsqueeze_7_output_0: 3e9f4871
/model.38/Concat_15_output_0: 3e9f4871
/model.38/Reshape_12_output_0: 3e9f4871
(Unnamed Layer* 688) [Constant]_output: 0
(Unnamed Layer* 689) [Shuffle]_output: 0
/model.38/ConstantOfShape_1_output_0: 0
(Unnamed Layer* 692) [Shuffle]_output: 3e010a14
/model.38/Add_5_output_0: 3e010a14
/model.38/Range_4_output_0: 3e193bf8
(Unnamed Layer* 711) [Shuffle]_output: 3c010a14
(Unnamed Layer* 713) [Shuffle]_output: 3b810a14
/model.38/Add_6_output_0: 3e1d4449
/model.38/Range_5_output_0: 3e193bf8
(Unnamed Layer* 726) [Shuffle]_output: 3c010a14
(Unnamed Layer* 728) [Shuffle]_output: 3b810a14
/model.38/Add_7_output_0: 3e1d4449
/model.38/Reshape_15_output_0: 3e1d4449
/model.38/Expand_4_output_0: 3e1d4449
/model.38/Reshape_16_output_0: 3e1d4449
/model.38/Expand_5_output_0: 3e1d4449
/model.38/Unsqueeze_9_output_0: 3e1d4449
/model.38/Unsqueeze_10_output_0: 3e1d4449
/model.38/Concat_20_output_0: 3e1d4449
/model.38/Reshape_17_output_0: 3e1d4449
(Unnamed Layer* 779) [Constant]_output: 0
(Unnamed Layer* 780) [Shuffle]_output: 0
/model.38/ConstantOfShape_2_output_0: 0
(Unnamed Layer* 783) [Shuffle]_output: 3e810a14
/model.38/Add_8_output_0: 3e810a14
/model.38/Concat_22_output_0: 3f204a85
/model.38/Concat_23_output_0: 3e810a14
/model.38/Transpose_output_0: 3f204a85
/model.38/Transpose_1_output_0: 3e810a14
/model.38/Split_1_output_0: 3dd76998
/model.38/Split_1_output_1: 3ede9be9
/model.38/dfl/Reshape_output_0: 3dd76998
/model.38/dfl/Transpose_output_0: 3dd76998
(Unnamed Layer* 812) [Softmax]_output: 3bd456ff
/model.38/dfl/conv/Conv_output_0: 3da46a5f
/model.38/dfl/Reshape_1_output_0: 3da46a5f
/model.38/Unsqueeze_12_output_0: 3f204a85
/model.38/Slice_output_0: 3da5f1e9
/model.38/Slice_1_output_0: 3da641e2
/model.38/Sub_output_0: 3f1fc546
/model.38/Add_10_output_0: 3f2299bb
/model.38/Add_11_output_0: 3fa08f97
(Unnamed Layer* 895) [Shuffle]_output: 3c810a14
/model.38/Div_1_output_0: 3f208f97
/model.38/Sub_1_output_0: 3df3d07c
/model.38/Concat_24_output_0: 3f208f97
(Unnamed Layer* 902) [Shuffle]_output: 3e810a14
/model.38/Mul_5_output_0: 40a47b96
/model.38/Sigmoid_output_0: 3be0223f
output0: 40a47b96
