TRT-8503-EntropyCalibration2
images: 3bf80000
/Slice_output_0: 3bf80000
/Slice_1_output_0: 3bf80000
/model.0/conv/Conv_output_0: 3dae0277
/model.0/act/Sigmoid_output_0: 3c010a14
/model.0/act/Mul_output_0: 3dae0277
/model.1/conv/Conv_output_0: 3de9cb20
/model.1/act/Sigmoid_output_0: 3c000810
/model.1/act/Mul_output_0: 3d044557
/model.2/cv1/conv/Conv_output_0: 3d22feee
/model.2/cv1/act/Sigmoid_output_0: 3c079f3c
/model.2/cv1/act/Mul_output_0: 3cce7b2f
/model.2/Split_output_0: 3ce1bbc8
/model.2/Split_output_1: 3c5422d9
/model.2/m.0/cv1/conv/Conv_output_0: 3d4146e1
/model.2/m.0/cv1/act/Sigmoid_output_0: 3c0192b4
/model.2/m.0/cv1/act/Mul_output_0: 3d111473
/model.2/m.0/cv2/conv/Conv_output_0: 3d570c09
/model.2/m.0/cv2/act/Sigmoid_output_0: 3c000810
/model.2/m.0/cv2/act/Mul_output_0: 3d6f33ba
/model.2/m.0/Add_output_0: 3d7db8b1
/model.2/Concat_output_0: 3d4722cf
/model.2/cv2/conv/Conv_output_0: 3d5bc95d
/model.2/cv2/act/Sigmoid_output_0: 3c005097
/model.2/cv2/act/Mul_output_0: 3cfa0271
/model.3/conv/Conv_output_0: 3caf9543
/model.3/act/Sigmoid_output_0: 3c0219b8
/model.3/act/Mul_output_0: 3ca0ddd3
/model.4/conv/Conv_output_0: 3dcbb920
/model.4/act/Sigmoid_output_0: 3c010a14
/model.4/act/Mul_output_0: 3d5dea77
/model.5/conv/Conv_output_0: 3d6be2bf
/model.5/act/Sigmoid_output_0: 3c00d9b3
/model.5/act/Mul_output_0: 3d27bd39
/model.6/cv1/conv/Conv_output_0: 3daa93f9
/model.6/cv1/act/Sigmoid_output_0: 3c010a14
/model.6/cv1/act/Mul_output_0: 3d64256d
/model.6/Split_output_0: 3d5fe4a4
/model.6/Split_output_1: 3d3a4f6a
/model.6/m.0/spatial_mixing/Split_output_0: 3c7b7d3a
/model.6/m.0/spatial_mixing/Split_output_1: 3d39c55e
/model.6/m.0/spatial_mixing/partial_conv3/Conv_output_0: 3d1ca600
/model.6/m.0/spatial_mixing/Concat_output_0: 3d39c55e
/model.6/m.0/mlp/mlp.0/conv/Conv_output_0: 3d7fc2af
/model.6/m.0/mlp/mlp.0/act/Sigmoid_output_0: 3c079eea
/model.6/m.0/mlp/mlp.0/act/Mul_output_0: 3cd2d151
/model.6/Concat_output_0: 3d64256d
/model.6/cv2/conv/Conv_output_0: 3d5850d3
/model.6/cv2/act/Sigmoid_output_0: 3c00d99a
/model.6/cv2/act/Mul_output_0: 3ca42687
/model.7/conv/Conv_output_0: 3d2fa8e3
/model.7/act/Sigmoid_output_0: 3c0637e4
/model.7/act/Mul_output_0: 3d22d146
/Concat_output_0: 3d23611f
/model.8/avg_pool/GlobalAveragePool_output_0: 3ce4f144
/model.8/Reshape_output_0: 3ce4f144
(Unnamed Layer* 154) [Constant]_output: 3b6a2a5d
/model.8/fc/fc.0/MatMul_output_0: 3d07a8f7
/model.8/fc/fc.1/Relu_output_0: 3d1f7eaf
(Unnamed Layer* 157) [Constant]_output: 3b98e2ce
/model.8/fc/fc.2/MatMul_output_0: 3c769cc8
/model.8/fc/fc.3/Sigmoid_output_0: 3be60331
/model.8/Reshape_1_output_0: 3be60331
/model.8/Mul_output_0: 3ceebd4b
/model.8/Slice_output_0: 3ca0ddd3
/model.8/Slice_1_output_0: 3cff3b0c
/model.8/Add_output_0: 3da5d59e
/model.8/Expand_output_0: 3da5d59e
/model.8/Expand_3_output_0: 3da5d59e
/model.8/ScatterND_1_output_0: 3d22e560
/model.8/Slice_7_output_0: 3d22d146
/model.8/Slice_8_output_0: 3c920eec
/model.8/Add_3_output_0: 3d3ec8df
/model.8/Expand_6_output_0: 3d3ec8df
/model.8/Expand_9_output_0: 3d3ec8df
/model.8/ScatterND_3_output_0: 3d609eba
/Slice_2_output_0: 3da5d59e
/Slice_3_output_0: 3d3ec8df
/model.9/cv1/conv/Conv_output_0: 3d633b60
/model.9/cv1/act/Sigmoid_output_0: 3c047313
/model.9/cv1/act/Mul_output_0: 3cfff30e
/model.9/Split_output_0: 3cfff30e
/model.9/Split_output_1: 3ce80df8
/model.9/m.0/cv1/conv/Conv_output_0: 3d3d99f7
/model.9/m.0/cv1/act/Sigmoid_output_0: 3c058388
/model.9/m.0/cv1/act/Mul_output_0: 3cd52b11
/model.9/m.0/cv2/conv/Conv_output_0: 3d8505f1
/model.9/m.0/cv2/act/Sigmoid_output_0: 3c03127b
/model.9/m.0/cv2/act/Mul_output_0: 3d26ac67
/model.9/m.0/Add_output_0: 3d6643d6
/model.9/m.1/cv1/conv/Conv_output_0: 3d76fa51
/model.9/m.1/cv1/act/Sigmoid_output_0: 3c010fe6
/model.9/m.1/cv1/act/Mul_output_0: 3cd329ba
/model.9/m.1/cv2/conv/Conv_output_0: 3dfb40fc
/model.9/m.1/cv2/act/Sigmoid_output_0: 3c010a14
/model.9/m.1/cv2/act/Mul_output_0: 3d93351f
/model.9/m.1/Add_output_0: 3e0084f4
/model.9/Concat_output_0: 3d988fd4
/model.9/cv2/conv/Conv_output_0: 3d840975
/model.9/cv2/act/Sigmoid_output_0: 3c00ca5b
/model.9/cv2/act/Mul_output_0: 3cc038d3
/model.10/conv/Conv_output_0: 3d786983
/model.10/act/Sigmoid_output_0: 3c00ca7e
/model.10/act/Mul_output_0: 3d00780e
/model.11/cv1/conv/Conv_output_0: 3d5a73bb
/model.11/cv1/act/Sigmoid_output_0: 3c079b12
/model.11/cv1/act/Mul_output_0: 3d0176be
/model.11/Split_output_0: 3d0053b3
/model.11/Split_output_1: 3d0fc395
/model.11/m.0/spatial_mixing/Split_output_0: 3cfef4bb
/model.11/m.0/spatial_mixing/Split_output_1: 3d24d82f
/model.11/m.0/spatial_mixing/partial_conv3/Conv_output_0: 3d15abaf
/model.11/m.0/spatial_mixing/Concat_output_0: 3d245aaf
/model.11/m.0/mlp/mlp.0/conv/Conv_output_0: 3d4887d2
/model.11/m.0/mlp/mlp.0/act/Sigmoid_output_0: 3c009431
/model.11/m.0/mlp/mlp.0/act/Mul_output_0: 3d0028c8
/model.11/m.1/spatial_mixing/Split_output_0: 3d255ccf
/model.11/m.1/spatial_mixing/Split_output_1: 3d0028c8
/model.11/m.1/spatial_mixing/partial_conv3/Conv_output_0: 3d126e13
/model.11/m.1/spatial_mixing/Concat_output_0: 3d0028c8
/model.11/m.1/mlp/mlp.0/conv/Conv_output_0: 3d6824ed
/model.11/m.1/mlp/mlp.0/act/Sigmoid_output_0: 3c00047f
/model.11/m.1/mlp/mlp.0/act/Mul_output_0: 3ce65873
/model.11/Concat_output_0: 3d00e539
/model.11/cv2/conv/Conv_output_0: 3d26abd4
/model.11/cv2/act/Sigmoid_output_0: 3bffd9c4
/model.11/cv2/act/Mul_output_0: 3ca42510
/model.12/conv/Conv_output_0: 3d3f2cde
/model.12/act/Sigmoid_output_0: 3c011092
/model.12/act/Mul_output_0: 3cbfa24a
/Concat_1_output_0: 3d00780e
/model.13/avg_pool/GlobalAveragePool_output_0: 3c7c3616
/model.13/Reshape_output_0: 3c7c3616
(Unnamed Layer* 933) [Constant]_output: 3a6d8095
/model.13/fc/fc.0/MatMul_output_0: 3c9cadd4
/model.13/fc/fc.1/Relu_output_0: 3cb685e2
(Unnamed Layer* 936) [Constant]_output: 3abb4c6b
/model.13/fc/fc.2/MatMul_output_0: 3c1707e2
/model.13/fc/fc.3/Sigmoid_output_0: 3bdf5985
/model.13/Reshape_1_output_0: 3bdf5985
/model.13/Mul_output_0: 3cbbaf23
/model.13/Slice_output_0: 3d00780e
/model.13/Slice_1_output_0: 3c7bb9b7
/model.13/Add_output_0: 3d5db1f6
/model.13/Expand_output_0: 3d5db1f6
/model.13/Expand_3_output_0: 3d5db1f6
/model.13/ScatterND_1_output_0: 3d282ff5
/model.13/Slice_7_output_0: 3cbfa24a
/model.13/Slice_8_output_0: 3cb10386
/model.13/Add_3_output_0: 3d3f9fee
/model.13/Expand_6_output_0: 3d3f9fee
/model.13/Expand_9_output_0: 3d3f9fee
/model.13/ScatterND_3_output_0: 3d5c05e6
/Slice_4_output_0: 3d5db1f6
/Slice_5_output_0: 3d3f9fee
/model.14/cv1/conv/Conv_output_0: 3d6aa810
/model.14/cv1/act/Sigmoid_output_0: 3c00ce24
/model.14/cv1/act/Mul_output_0: 3d03522d
/model.14/Split_output_0: 3d28ccd3
/model.14/Split_output_1: 3cd4209f
/model.14/m.0/cv1/conv/Conv_output_0: 3d87aab8
/model.14/m.0/cv1/act/Sigmoid_output_0: 3c00f081
/model.14/m.0/cv1/act/Mul_output_0: 3d137d26
/model.14/m.0/cv2/conv/Conv_output_0: 3d863751
/model.14/m.0/cv2/act/Sigmoid_output_0: 3c00e44f
/model.14/m.0/cv2/act/Mul_output_0: 3ce7163f
/model.14/m.0/Add_output_0: 3d512b75
/model.14/m.1/cv1/conv/Conv_output_0: 3d8f05db
/model.14/m.1/cv1/act/Sigmoid_output_0: 3c00e372
/model.14/m.1/cv1/act/Mul_output_0: 3cb17de8
/model.14/m.1/cv2/conv/Conv_output_0: 3d8be14b
/model.14/m.1/cv2/act/Sigmoid_output_0: 3c00f083
/model.14/m.1/cv2/act/Mul_output_0: 3d13942c
/model.14/m.1/Add_output_0: 3d8eed47
/model.14/Concat_output_0: 3d4142f5
/model.14/cv2/conv/Conv_output_0: 3d8eee94
/model.14/cv2/act/Sigmoid_output_0: 3c00f1a2
/model.14/cv2/act/Mul_output_0: 3d298423
/model.15/conv/Conv_output_0: 3d4fd9f2
/model.15/act/Sigmoid_output_0: 3c00ecae
/model.15/act/Mul_output_0: 3d015189
/model.16/cv1/conv/Conv_output_0: 3d5469ad
/model.16/cv1/act/Sigmoid_output_0: 3c0085ba
/model.16/cv1/act/Mul_output_0: 3ce706ed
/model.16/Split_output_0: 3ce706ed
/model.16/Split_output_1: 3ce9be82
/model.16/m.0/spatial_mixing/Split_output_0: 3ce9be82
/model.16/m.0/spatial_mixing/Split_output_1: 3cbfa1bc
/model.16/m.0/spatial_mixing/partial_conv3/Conv_output_0: 3d1e3a28
/model.16/m.0/spatial_mixing/Concat_output_0: 3cbfa1bc
/model.16/m.0/mlp/mlp.0/conv/Conv_output_0: 3d59d7cc
/model.16/m.0/mlp/mlp.0/act/Sigmoid_output_0: 3c013cd5
/model.16/m.0/mlp/mlp.0/act/Mul_output_0: 3ce64d25
/model.16/m.1/spatial_mixing/Split_output_0: 3ce64d25
/model.16/m.1/spatial_mixing/Split_output_1: 3cb1d8bb
/model.16/m.1/spatial_mixing/partial_conv3/Conv_output_0: 3ce670b7
/model.16/m.1/spatial_mixing/Concat_output_0: 3cb1d8bb
/model.16/m.1/mlp/mlp.0/conv/Conv_output_0: 3d5e38a6
/model.16/m.1/mlp/mlp.0/act/Sigmoid_output_0: 3c008e78
/model.16/m.1/mlp/mlp.0/act/Mul_output_0: 3cea3856
/model.16/Concat_output_0: 3ce706ed
/model.16/cv2/conv/Conv_output_0: 3d4771d2
/model.16/cv2/act/Sigmoid_output_0: 3c005fa0
/model.16/cv2/act/Mul_output_0: 3cffa621
/model.17/conv/Conv_output_0: 3d37015e
/model.17/act/Sigmoid_output_0: 3c00a03e
/model.17/act/Mul_output_0: 3ce79541
/Concat_2_output_0: 3d015189
/model.18/avg_pool/GlobalAveragePool_output_0: 3c622862
/model.18/Reshape_output_0: 3c622862
(Unnamed Layer* 1712) [Constant]_output: 3a11ceee
/model.18/fc/fc.0/MatMul_output_0: 3d0aa4ac
/model.18/fc/fc.1/Relu_output_0: 3d2318bc
(Unnamed Layer* 1715) [Constant]_output: 3a55d10e
/model.18/fc/fc.2/MatMul_output_0: 3c23b2c8
/model.18/fc/fc.3/Sigmoid_output_0: 3bd0ef99
/model.18/Reshape_1_output_0: 3bd0ef99
/model.18/Mul_output_0: 3cb1484f
/model.18/Slice_output_0: 3d015189
/model.18/Slice_1_output_0: 3c97cbba
/model.18/Add_output_0: 3d4bd32e
/model.18/Expand_output_0: 3d4bd32e
/model.18/Expand_3_output_0: 3d4bd32e
/model.18/ScatterND_1_output_0: 3d281e4e
/model.18/Slice_7_output_0: 3ce79541
/model.18/Slice_8_output_0: 3cb1484f
/model.18/Add_3_output_0: 3d31b8e2
/model.18/Expand_6_output_0: 3d31b8e2
/model.18/Expand_9_output_0: 3d31b8e2
/model.18/ScatterND_3_output_0: 3d26c40e
/Slice_6_output_0: 3d4bd32e
/Slice_7_output_0: 3d31b8e2
/model.19/cv1/conv/Conv_output_0: 3d4a4f9f
/model.19/cv1/act/Sigmoid_output_0: 3c008902
/model.19/cv1/act/Mul_output_0: 3cc0c833
/model.19/Split_output_0: 3cd35d2f
/model.19/Split_output_1: 3cc0c833
/model.19/m.0/cv1/conv/Conv_output_0: 3d5f80b8
/model.19/m.0/cv1/act/Sigmoid_output_0: 3c00acb4
/model.19/m.0/cv1/act/Mul_output_0: 3cd0cf79
/model.19/m.0/cv2/conv/Conv_output_0: 3d7159e9
/model.19/m.0/cv2/act/Sigmoid_output_0: 3c00e73b
/model.19/m.0/cv2/act/Mul_output_0: 3d11e099
/model.19/m.0/Add_output_0: 3d7c9ec7
/model.19/Concat_output_0: 3d0fb0d6
/model.19/cv2/conv/Conv_output_0: 3d4c6949
/model.19/cv2/act/Sigmoid_output_0: 3c008b47
/model.19/cv2/act/Mul_output_0: 3d0210c2
/model.20/cv1/conv/Conv_output_0: 3d48f685
/model.20/cv1/act/Sigmoid_output_0: 3c009102
/model.20/cv1/act/Mul_output_0: 3d022d1b
/model.20/m/MaxPool_output_0: 3d022d1b
/model.20/m_1/MaxPool_output_0: 3d022d1b
/model.20/m_2/MaxPool_output_0: 3d022d1b
/model.20/Concat_output_0: 3d67ebad
/model.20/cv2/conv/Conv_output_0: 3d71ce63
/model.20/cv2/act/Sigmoid_output_0: 3c009f0c
/model.20/cv2/act/Mul_output_0: 3ce717c1
/model.21/cv1/conv/Conv_output_0: 3d571703
/model.21/cv1/act/Sigmoid_output_0: 3c010962
/model.21/cv1/act/Mul_output_0: 3cd0e6bd
/model.21/Split_output_0: 3cc063c8
/model.21/Split_output_1: 3cd0e6bd
/model.21/m.0/spatial_mixing/Split_output_0: 3cff52e7
/model.21/m.0/spatial_mixing/Split_output_1: 3cd465b5
/model.21/m.0/spatial_mixing/partial_conv3/Conv_output_0: 3d1909e4
/model.21/m.0/spatial_mixing/Concat_output_0: 3d01cc61
/model.21/m.0/mlp/mlp.0/conv/Conv_output_0: 3d3ea682
/model.21/m.0/mlp/mlp.0/act/Sigmoid_output_0: 3c001c62
/model.21/m.0/mlp/mlp.0/act/Mul_output_0: 3cd208df
/model.21/Concat_output_0: 3cd0e6bd
/model.21/cv2/conv/Conv_output_0: 3d40b58d
/model.21/cv2/act/Sigmoid_output_0: 3c00b10c
/model.21/cv2/act/Mul_output_0: 3cc02253
/model.22/cv1/conv/Conv_output_0: 3d49f326
/model.22/cv1/act/Sigmoid_output_0: 3c00b022
/model.22/cv1/act/Mul_output_0: 3d01543b
/model.22/m/MaxPool_output_0: 3d01543b
/model.22/m_1/MaxPool_output_0: 3d01543b
/model.22/m_2/MaxPool_output_0: 3d01543b
/model.22/Concat_output_0: 3d65b6a8
/model.22/cv2/conv/Conv_output_0: 3d623739
/model.22/cv2/act/Sigmoid_output_0: 3c004ff9
/model.22/cv2/act/Mul_output_0: 3cbffb2b
/model.23/Add_output_0: 3d4f3591
/model.24/Add_output_0: 3d8bf0fa
/model.25/Add_output_0: 3d64dacb
/model.26/Resize_output_0: 3d64dacb
/model.27/Concat_output_0: 3d60e8b4
/model.28/cv1/conv/Conv_output_0: 3d7305fb
/model.28/cv1/act/Sigmoid_output_0: 3c00b0e9
/model.28/cv1/act/Mul_output_0: 3d01fdd6
/model.28/Split_output_0: 3d01fdd6
/model.28/Split_output_1: 3cd376b1
/model.28/m.0/cv1/conv/Conv_output_0: 3d65db7b
/model.28/m.0/cv1/act/Sigmoid_output_0: 3c00bfe0
/model.28/m.0/cv1/act/Mul_output_0: 3cb1735e
/model.28/m.0/cv2/conv/Conv_output_0: 3d70329d
/model.28/m.0/cv2/act/Sigmoid_output_0: 3c00cb6d
/model.28/m.0/cv2/act/Mul_output_0: 3d0289c7
/model.28/Concat_output_0: 3d0289c7
/model.28/cv2/conv/Conv_output_0: 3d6af242
/model.28/cv2/act/Sigmoid_output_0: 3c00a21a
/model.28/cv2/act/Mul_output_0: 3d130793
/model.29/Resize_output_0: 3d130793
/model.30/Concat_output_0: 3d2897f7
/model.31/cv1/conv/Conv_output_0: 3d6b103c
/model.31/cv1/act/Sigmoid_output_0: 3c010605
/model.31/cv1/act/Mul_output_0: 3cebd950
/model.31/Split_output_0: 3cebd950
/model.31/Split_output_1: 3d011e0c
/model.31/m.0/cv1/conv/Conv_output_0: 3d371bfc
/model.31/m.0/cv1/act/Sigmoid_output_0: 3c000f3f
/model.31/m.0/cv1/act/Mul_output_0: 3c726f68
/model.31/m.0/cv2/conv/Conv_output_0: 3d8c118f
/model.31/m.0/cv2/act/Sigmoid_output_0: 3c007fd8
/model.31/m.0/cv2/act/Mul_output_0: 3d2515d0
/model.31/Concat_output_0: 3d138fab
/model.31/cv2/conv/Conv_output_0: 3d84eb74
/model.31/cv2/act/Sigmoid_output_0: 3c00aabc
/model.31/cv2/act/Mul_output_0: 3cd44a34
/model.32/conv/Conv_output_0: 3d92623e
/model.32/act/Sigmoid_output_0: 3c0212bd
/model.32/act/Mul_output_0: 3d4412a0
/model.33/Concat_output_0: 3d1340b1
/model.34/cv1/conv/Conv_output_0: 3d6e246a
/model.34/cv1/act/Sigmoid_output_0: 3c00e562
/model.34/cv1/act/Mul_output_0: 3d12f5a0
/model.34/Split_output_0: 3d134146
/model.34/Split_output_1: 3d12f5a0
/model.34/m.0/cv1/conv/Conv_output_0: 3d811fec
/model.34/m.0/cv1/act/Sigmoid_output_0: 3c0110d2
/model.34/m.0/cv1/act/Mul_output_0: 3d13392e
/model.34/m.0/cv2/conv/Conv_output_0: 3d78e588
/model.34/m.0/cv2/act/Sigmoid_output_0: 3c011072
/model.34/m.0/cv2/act/Mul_output_0: 3ce701a7
/model.34/Concat_output_0: 3ce701a7
/model.34/cv2/conv/Conv_output_0: 3d87f219
/model.34/cv2/act/Sigmoid_output_0: 3c01107f
/model.34/cv2/act/Mul_output_0: 3ce7ca51
/model.35/conv/Conv_output_0: 3d23c5ed
/model.35/act/Sigmoid_output_0: 3c00658b
/model.35/act/Mul_output_0: 3cb46068
/model.36/Concat_output_0: 3d242989
/model.37/cv1/conv/Conv_output_0: 3d00fe07
/model.37/cv1/act/Sigmoid_output_0: 3bfd08f6
/model.37/cv1/act/Mul_output_0: 3ca5700d
/model.37/Split_output_0: 3ca529df
/model.37/Split_output_1: 3c9ad77d
/model.37/m.0/cv1/conv/Conv_output_0: 3ce02103
/model.37/m.0/cv1/act/Sigmoid_output_0: 3bf8a830
/model.37/m.0/cv1/act/Mul_output_0: 3c9136b2
/model.37/m.0/cv2/conv/Conv_output_0: 3cefe3b7
/model.37/m.0/cv2/act/Sigmoid_output_0: 3bff150a
/model.37/m.0/cv2/act/Mul_output_0: 3ca5b262
/model.37/Concat_output_0: 3ca5700d
/model.37/cv2/conv/Conv_output_0: 3cec2922
/model.37/cv2/act/Sigmoid_output_0: 3bfccaa1
/model.37/cv2/act/Mul_output_0: 3ca5c6ca
/model.38/cv2.0/cv2.0.0/conv/Conv_output_0: 3d6bcaff
/model.38/cv2.0/cv2.0.0/act/Sigmoid_output_0: 3c006582
/model.38/cv2.0/cv2.0.0/act/Mul_output_0: 3d025699
/model.38/cv2.0/cv2.0.1/conv/Conv_output_0: 3daaf1e8
/model.38/cv2.0/cv2.0.1/act/Sigmoid_output_0: 3c010a14
/model.38/cv2.0/cv2.0.1/act/Mul_output_0: 3d404be7
/model.38/cv2.0/cv2.0.2/Conv_output_0: 3e0a7c8e
/model.38/cv3.0/cv3.0.0/conv/Conv_output_0: 3dd21e58
/model.38/cv3.0/cv3.0.0/act/Sigmoid_output_0: 3c0111b6
/model.38/cv3.0/cv3.0.0/act/Mul_output_0: 3d031200
/model.38/cv3.0/cv3.0.1/conv/Conv_output_0: 3e426a59
/model.38/cv3.0/cv3.0.1/act/Sigmoid_output_0: 3c010a14
/model.38/cv3.0/cv3.0.1/act/Mul_output_0: 3dd9caaf
/model.38/cv3.0/cv3.0.2/Conv_output_0: 3f158bc5
/model.38/Concat_output_0: 3e9d8e23
/model.38/cv2.1/cv2.1.0/conv/Conv_output_0: 3d7e45da
/model.38/cv2.1/cv2.1.0/act/Sigmoid_output_0: 3c00b0f8
/model.38/cv2.1/cv2.1.0/act/Mul_output_0: 3d28fae3
/model.38/cv2.1/cv2.1.1/conv/Conv_output_0: 3db66a5e
/model.38/cv2.1/cv2.1.1/act/Sigmoid_output_0: 3c010a14
/model.38/cv2.1/cv2.1.1/act/Mul_output_0: 3d49149d
/model.38/cv2.1/cv2.1.2/Conv_output_0: 3dc8d073
/model.38/cv3.1/cv3.1.0/conv/Conv_output_0: 3d972430
/model.38/cv3.1/cv3.1.0/act/Sigmoid_output_0: 3c00ec68
/model.38/cv3.1/cv3.1.0/act/Mul_output_0: 3cc11086
/model.38/cv3.1/cv3.1.1/conv/Conv_output_0: 3dce9fce
/model.38/cv3.1/cv3.1.1/act/Sigmoid_output_0: 3c010a14
/model.38/cv3.1/cv3.1.1/act/Mul_output_0: 3d465306
/model.38/cv3.1/cv3.1.2/Conv_output_0: 3e95b432
/model.38/Concat_1_output_0: 3e647fe2
/model.38/cv2.2/cv2.2.0/conv/Conv_output_0: 3cc6fbc9
/model.38/cv2.2/cv2.2.0/act/Sigmoid_output_0: 3bf6945e
/model.38/cv2.2/cv2.2.0/act/Mul_output_0: 3c873a7c
/model.38/cv2.2/cv2.2.1/conv/Conv_output_0: 3cb2576d
/model.38/cv2.2/cv2.2.1/act/Sigmoid_output_0: 3bf48b50
/model.38/cv2.2/cv2.2.1/act/Mul_output_0: 3c903b7b
/model.38/cv2.2/cv2.2.2/Conv_output_0: 3c0d9752
/model.38/cv3.2/cv3.2.0/conv/Conv_output_0: 3cfb80a0
/model.38/cv3.2/cv3.2.0/act/Sigmoid_output_0: 3bf122cd
/model.38/cv3.2/cv3.2.0/act/Mul_output_0: 3c73d825
/model.38/cv3.2/cv3.2.1/conv/Conv_output_0: 3cb6bad1
/model.38/cv3.2/cv3.2.1/act/Sigmoid_output_0: 3beefede
/model.38/cv3.2/cv3.2.1/act/Mul_output_0: 3c9a4d71
/model.38/cv3.2/cv3.2.2/Conv_output_0: 3dc244b2
/model.38/Concat_2_output_0: 3dc244b2
/model.38/Reshape_output_0: 3e9d8e23
/model.38/Reshape_1_output_0: 3e647fe2
/model.38/Reshape_2_output_0: 3dc244b2
/model.38/Concat_6_output_0: 3e5c6f12
(Unnamed Layer* 2638) [Constant]_output: 3e810a14
/model.38/Split_output_0: 3d810a14
/model.38/Split_output_1: 3e010a14
/model.38/Split_output_2: 3e810a14
/model.38/Range_output_0: 3f1f4871
(Unnamed Layer* 2662) [Shuffle]_output: 3c010a14
(Unnamed Layer* 2664) [Shuffle]_output: 3b810a14
/model.38/Add_output_0: 3f204a85
/model.38/Range_1_output_0: 3f1f4871
(Unnamed Layer* 2677) [Shuffle]_output: 3c010a14
(Unnamed Layer* 2679) [Shuffle]_output: 3b810a14
/model.38/Add_1_output_0: 3f204a85
/model.38/Reshape_5_output_0: 3f204a85
/model.38/Expand_output_0: 3f204a85
/model.38/Reshape_6_output_0: 3f204a85
/model.38/Expand_1_output_0: 3f204a85
/model.38/Unsqueeze_3_output_0: 3f204a85
/model.38/Unsqueeze_4_output_0: 3f204a85
/model.38/Concat_10_output_0: 3f204a85
/model.38/Reshape_7_output_0: 3f204a85
(Unnamed Layer* 2730) [Constant]_output: 0
(Unnamed Layer* 2731) [Shuffle]_output: 0
/model.38/ConstantOfShape_output_0: 0
(Unnamed Layer* 2734) [Shuffle]_output: 3d810a14
/model.38/Add_2_output_0: 3d810a14
/model.38/Range_2_output_0: 3e9d4449
(Unnamed Layer* 2753) [Shuffle]_output: 3c010a14
(Unnamed Layer* 2755) [Shuffle]_output: 3b810a14
/model.38/Add_3_output_0: 3e9f4871
/model.38/Range_3_output_0: 3e9d4449
(Unnamed Layer* 2768) [Shuffle]_output: 3c010a14
(Unnamed Layer* 2770) [Shuffle]_output: 3b810a14
/model.38/Add_4_output_0: 3e9f4871
/model.38/Reshape_10_output_0: 3e9f4871
/model.38/Expand_2_output_0: 3e9f4871
/model.38/Reshape_11_output_0: 3e9f4871
/model.38/Expand_3_output_0: 3e9f4871
/model.38/Unsqueeze_6_output_0: 3e9f4871
/model.38/Unsqueeze_7_output_0: 3e9f4871
/model.38/Concat_15_output_0: 3e9f4871
/model.38/Reshape_12_output_0: 3e9f4871
(Unnamed Layer* 2821) [Constant]_output: 0
(Unnamed Layer* 2822) [Shuffle]_output: 0
/model.38/ConstantOfShape_1_output_0: 0
(Unnamed Layer* 2825) [Shuffle]_output: 3e010a14
/model.38/Add_5_output_0: 3e010a14
/model.38/Range_4_output_0: 3e193bf8
(Unnamed Layer* 2844) [Shuffle]_output: 3c010a14
(Unnamed Layer* 2846) [Shuffle]_output: 3b810a14
/model.38/Add_6_output_0: 3e1d4449
/model.38/Range_5_output_0: 3e193bf8
(Unnamed Layer* 2859) [Shuffle]_output: 3c010a14
(Unnamed Layer* 2861) [Shuffle]_output: 3b810a14
/model.38/Add_7_output_0: 3e1d4449
/model.38/Reshape_15_output_0: 3e1d4449
/model.38/Expand_4_output_0: 3e1d4449
/model.38/Reshape_16_output_0: 3e1d4449
/model.38/Expand_5_output_0: 3e1d4449
/model.38/Unsqueeze_9_output_0: 3e1d4449
/model.38/Unsqueeze_10_output_0: 3e1d4449
/model.38/Concat_20_output_0: 3e1d4449
/model.38/Reshape_17_output_0: 3e1d4449
(Unnamed Layer* 2912) [Constant]_output: 0
(Unnamed Layer* 2913) [Shuffle]_output: 0
/model.38/ConstantOfShape_2_output_0: 0
(Unnamed Layer* 2916) [Shuffle]_output: 3e810a14
/model.38/Add_8_output_0: 3e810a14
/model.38/Concat_22_output_0: 3f204a85
/model.38/Concat_23_output_0: 3e810a14
/model.38/Transpose_output_0: 3f204a85
/model.38/Transpose_1_output_0: 3e810a14
/model.38/Split_1_output_0: 3dd78fe4
/model.38/Split_1_output_1: 3ef04717
/model.38/dfl/Reshape_output_0: 3dd78fe4
/model.38/dfl/Transpose_output_0: 3dd78fe4
(Unnamed Layer* 2945) [Softmax]_output: 3bd5668d
/model.38/dfl/conv/Conv_output_0: 3db938ba
/model.38/dfl/Reshape_1_output_0: 3db938ba
/model.38/Unsqueeze_12_output_0: 3f204a85
/model.38/Slice_output_0: 3dc29144
/model.38/Slice_1_output_0: 3d9d17f9
/model.38/Sub_output_0: 3f1fe7f5
/model.38/Add_10_output_0: 3f219c59
/model.38/Add_11_output_0: 3fafccc4
(Unnamed Layer* 3028) [Shuffle]_output: 3c810a14
/model.38/Div_1_output_0: 3f2fccc4
/model.38/Sub_1_output_0: 3e7ef1a2
/model.38/Concat_24_output_0: 3f21fe41
(Unnamed Layer* 3035) [Shuffle]_output: 3e810a14
/model.38/Mul_5_output_0: 40a094c5
/model.38/Sigmoid_output_0: 3be49765
output0: 40a094c5
