TRT-8503-EntropyCalibration2
images: 3bf80000
/Slice_output_0: 3bf80000
/Slice_1_output_0: 3bf80000
/model.0/conv/Conv_output_0: 3daeb9f9
/model.0/act/Sigmoid_output_0: 3c010a14
/model.0/act/Mul_output_0: 3daeb9f9
/model.1/conv/Conv_output_0: 3de97fea
/model.1/act/Sigmoid_output_0: 3c000810
/model.1/act/Mul_output_0: 3cfaaadf
/model.2/cv1/conv/Conv_output_0: 3d441490
/model.2/cv1/act/Sigmoid_output_0: 3c000810
/model.2/cv1/act/Mul_output_0: 3cff7799
/model.2/Split_output_0: 3d015e22
/model.2/Split_output_1: 3c548b49
/model.2/m.0/cv1/conv/Conv_output_0: 3d40c0eb
/model.2/m.0/cv1/act/Sigmoid_output_0: 3c0192c1
/model.2/m.0/cv1/act/Mul_output_0: 3cd17b9b
/model.2/m.0/cv2/conv/Conv_output_0: 3d57bd5f
/model.2/m.0/cv2/act/Sigmoid_output_0: 3c000810
/model.2/m.0/cv2/act/Mul_output_0: 3d0ccef4
/model.2/m.0/Add_output_0: 3d7cef89
/model.2/Concat_output_0: 3d659bb8
/model.2/cv2/conv/Conv_output_0: 3d486d69
/model.2/cv2/act/Sigmoid_output_0: 3c005053
/model.2/cv2/act/Mul_output_0: 3cfc11c4
/model.3/conv/Conv_output_0: 3cafe8ce
/model.3/act/Sigmoid_output_0: 3c021647
/model.3/act/Mul_output_0: 3cbf2fb6
/model.4/conv/Conv_output_0: 3df12b3f
/model.4/act/Sigmoid_output_0: 3c010a14
/model.4/act/Mul_output_0: 3d9340c3
/model.5/conv/Conv_output_0: 3d6b07cf
/model.5/act/Sigmoid_output_0: 3c00d9b3
/model.5/act/Mul_output_0: 3d251431
/model.6/cv1/conv/Conv_output_0: 3d988b1b
/model.6/cv1/act/Sigmoid_output_0: 3c010a14
/model.6/cv1/act/Mul_output_0: 3d606715
/model.6/Split_output_0: 3d611f81
/model.6/Split_output_1: 3d367f6a
/model.6/m.0/spatial_mixing/Split_output_0: 3c7c26d7
/model.6/m.0/spatial_mixing/Split_output_1: 3d367f6a
/model.6/m.0/spatial_mixing/partial_conv3/Conv_output_0: 3d11a487
/model.6/m.0/spatial_mixing/Concat_output_0: 3d3ce44d
/model.6/m.0/mlp/mlp.0/conv/Conv_output_0: 3db4a6d4
/model.6/m.0/mlp/mlp.0/act/Sigmoid_output_0: 3c079ee6
/model.6/m.0/mlp/mlp.0/act/Mul_output_0: 3cd1eb3c
/model.6/Concat_output_0: 3d93dc5f
/model.6/cv2/conv/Conv_output_0: 3d415175
/model.6/cv2/act/Sigmoid_output_0: 3c00c580
/model.6/cv2/act/Mul_output_0: 3ca48d7d
/model.7/conv/Conv_output_0: 3d35c704
/model.7/act/Sigmoid_output_0: 3c06386b
/model.7/act/Mul_output_0: 3d250c4d
/Concat_output_0: 3d250c4d
/model.8/avg_pool/GlobalAveragePool_output_0: 3d028389
/model.8/Reshape_output_0: 3d028389
(Unnamed Layer* 154) [Constant]_output: 3b6a2a5d
/model.8/fc/fc.0/MatMul_output_0: 3d0dde16
/model.8/fc/fc.1/Relu_output_0: 3d26841c
(Unnamed Layer* 157) [Constant]_output: 3b98e2ce
/model.8/fc/fc.2/MatMul_output_0: 3c8abbf0
/model.8/fc/fc.3/Sigmoid_output_0: 3be244f5
/model.8/Reshape_1_output_0: 3be244f5
/model.8/Mul_output_0: 3cf3246a
/model.8/Slice_output_0: 3d018d75
/model.8/Slice_1_output_0: 3c92ab8e
/model.8/Concat_2_output_0: 3cf3246a
/model.8/Add_output_0: 3d7aa01a
/Slice_2_output_0: 3da49355
/Slice_3_output_0: 3d48abe1
/model.9/cv1/conv/Conv_output_0: 3d59b22b
/model.9/cv1/act/Sigmoid_output_0: 3c042f54
/model.9/cv1/act/Mul_output_0: 3d00d257
/model.9/Split_output_0: 3d00d257
/model.9/Split_output_1: 3ce84891
/model.9/m.0/cv1/conv/Conv_output_0: 3d3d01fb
/model.9/m.0/cv1/act/Sigmoid_output_0: 3c056cd0
/model.9/m.0/cv1/act/Mul_output_0: 3d01e0ce
/model.9/m.0/cv2/conv/Conv_output_0: 3d76786c
/model.9/m.0/cv2/act/Sigmoid_output_0: 3c030f10
/model.9/m.0/cv2/act/Mul_output_0: 3d25913e
/model.9/m.0/Add_output_0: 3d64be8c
/model.9/m.1/cv1/conv/Conv_output_0: 3d8850cf
/model.9/m.1/cv1/act/Sigmoid_output_0: 3c010f1e
/model.9/m.1/cv1/act/Mul_output_0: 3cd33aca
/model.9/m.1/cv2/conv/Conv_output_0: 3dfa843a
/model.9/m.1/cv2/act/Sigmoid_output_0: 3c010a14
/model.9/m.1/cv2/act/Mul_output_0: 3dc4906e
/model.9/m.1/Add_output_0: 3dfdfc7c
/model.9/Concat_output_0: 3d6515ee
/model.9/cv2/conv/Conv_output_0: 3d8476f6
/model.9/cv2/act/Sigmoid_output_0: 3c00c54a
/model.9/cv2/act/Mul_output_0: 3d132d8e
/model.10/conv/Conv_output_0: 3d77adce
/model.10/act/Sigmoid_output_0: 3c00cd09
/model.10/act/Mul_output_0: 3d28a201
/model.11/cv1/conv/Conv_output_0: 3d59702e
/model.11/cv1/act/Sigmoid_output_0: 3c079379
/model.11/cv1/act/Mul_output_0: 3d1001bb
/model.11/Split_output_0: 3ce628c8
/model.11/Split_output_1: 3d2361fd
/model.11/m.0/spatial_mixing/Split_output_0: 3cff2288
/model.11/m.0/spatial_mixing/Split_output_1: 3d254267
/model.11/m.0/spatial_mixing/partial_conv3/Conv_output_0: 3d038af0
/model.11/m.0/spatial_mixing/Concat_output_0: 3d254267
/model.11/m.0/mlp/mlp.0/conv/Conv_output_0: 3d474ad1
/model.11/m.0/mlp/mlp.0/act/Sigmoid_output_0: 3c009326
/model.11/m.0/mlp/mlp.0/act/Mul_output_0: 3cd0d16a
/model.11/m.1/spatial_mixing/Split_output_0: 3d24c8b5
/model.11/m.1/spatial_mixing/Split_output_1: 3d00569f
/model.11/m.1/spatial_mixing/partial_conv3/Conv_output_0: 3d11e9ac
/model.11/m.1/spatial_mixing/Concat_output_0: 3d00569f
/model.11/m.1/mlp/mlp.0/conv/Conv_output_0: 3d68ff79
/model.11/m.1/mlp/mlp.0/act/Sigmoid_output_0: 3c05c2e3
/model.11/m.1/mlp/mlp.0/act/Mul_output_0: 3cd3d395
/model.11/Concat_output_0: 3d0f0027
/model.11/cv2/conv/Conv_output_0: 3d272e3a
/model.11/cv2/act/Sigmoid_output_0: 3c0008a0
/model.11/cv2/act/Mul_output_0: 3ce8f243
/model.12/conv/Conv_output_0: 3d3f3656
/model.12/act/Sigmoid_output_0: 3c0114b1
/model.12/act/Mul_output_0: 3cd2cbb5
/Concat_1_output_0: 3d02e916
/model.13/avg_pool/GlobalAveragePool_output_0: 3c417de4
/model.13/Reshape_output_0: 3c417de4
(Unnamed Layer* 389) [Constant]_output: 3a6d8095
/model.13/fc/fc.0/MatMul_output_0: 3c9be365
/model.13/fc/fc.1/Relu_output_0: 3ca44e6f
(Unnamed Layer* 392) [Constant]_output: 3abb4c6b
/model.13/fc/fc.2/MatMul_output_0: 3c1a4ee6
/model.13/fc/fc.3/Sigmoid_output_0: 3bdcae4e
/model.13/Reshape_1_output_0: 3bdcae4e
/model.13/Mul_output_0: 3cbbcda3
/model.13/Slice_output_0: 3c7c8411
/model.13/Slice_1_output_0: 3cd9272a
/model.13/Concat_2_output_0: 3cbbcda3
/model.13/Add_output_0: 3d5a6b79
/Slice_4_output_0: 3d5a6b79
/Slice_5_output_0: 3d425e89
/model.14/cv1/conv/Conv_output_0: 3d6bea18
/model.14/cv1/act/Sigmoid_output_0: 3c00ca2e
/model.14/cv1/act/Mul_output_0: 3cffaa4c
/model.14/Split_output_0: 3cffaa4c
/model.14/Split_output_1: 3c9909f9
/model.14/m.0/cv1/conv/Conv_output_0: 3d907753
/model.14/m.0/cv1/act/Sigmoid_output_0: 3c00eb99
/model.14/m.0/cv1/act/Mul_output_0: 3d025bef
/model.14/m.0/cv2/conv/Conv_output_0: 3d8545e0
/model.14/m.0/cv2/act/Sigmoid_output_0: 3c00e33f
/model.14/m.0/cv2/act/Mul_output_0: 3ce628d2
/model.14/m.0/Add_output_0: 3d5150b3
/model.14/m.1/cv1/conv/Conv_output_0: 3d8b0c31
/model.14/m.1/cv1/act/Sigmoid_output_0: 3c00ccfb
/model.14/m.1/cv1/act/Mul_output_0: 3cd0dcc2
/model.14/m.1/cv2/conv/Conv_output_0: 3d8e324b
/model.14/m.1/cv2/act/Sigmoid_output_0: 3c00eef6
/model.14/m.1/cv2/act/Mul_output_0: 3d11eea8
/model.14/m.1/Add_output_0: 3d8eee3a
/model.14/Concat_output_0: 3d41cec4
/model.14/cv2/conv/Conv_output_0: 3d890d96
/model.14/cv2/act/Sigmoid_output_0: 3c00f12b
/model.14/cv2/act/Mul_output_0: 3d26b07c
/model.15/conv/Conv_output_0: 3d622e9b
/model.15/act/Sigmoid_output_0: 3c00ee44
/model.15/act/Mul_output_0: 3d02cfed
/model.16/cv1/conv/Conv_output_0: 3d549449
/model.16/cv1/act/Sigmoid_output_0: 3c008915
/model.16/cv1/act/Mul_output_0: 3cd32166
/model.16/Split_output_0: 3d00fa30
/model.16/Split_output_1: 3cd29cdd
/model.16/m.0/spatial_mixing/Split_output_0: 3d00f302
/model.16/m.0/spatial_mixing/Split_output_1: 3cd29cdd
/model.16/m.0/spatial_mixing/partial_conv3/Conv_output_0: 3d237dd4
/model.16/m.0/spatial_mixing/Concat_output_0: 3cd29cdd
/model.16/m.0/mlp/mlp.0/conv/Conv_output_0: 3d5b6bff
/model.16/m.0/mlp/mlp.0/act/Sigmoid_output_0: 3c02618e
/model.16/m.0/mlp/mlp.0/act/Mul_output_0: 3cea5b62
/model.16/m.1/spatial_mixing/Split_output_0: 3cea5b62
/model.16/m.1/spatial_mixing/Split_output_1: 3cc0e3a4
/model.16/m.1/spatial_mixing/partial_conv3/Conv_output_0: 3ce4b4c4
/model.16/m.1/spatial_mixing/Concat_output_0: 3cc0e3a4
/model.16/m.1/mlp/mlp.0/conv/Conv_output_0: 3d5dcfcb
/model.16/m.1/mlp/mlp.0/act/Sigmoid_output_0: 3c0085c6
/model.16/m.1/mlp/mlp.0/act/Mul_output_0: 3d025d0b
/model.16/Concat_output_0: 3cea5b62
/model.16/cv2/conv/Conv_output_0: 3d48f704
/model.16/cv2/act/Sigmoid_output_0: 3c025e49
/model.16/cv2/act/Mul_output_0: 3d028e50
/model.17/conv/Conv_output_0: 3d42d77a
/model.17/act/Sigmoid_output_0: 3c00cafe
/model.17/act/Mul_output_0: 3cd452cb
/Concat_2_output_0: 3d02cfed
/model.18/avg_pool/GlobalAveragePool_output_0: 3c6277f6
/model.18/Reshape_output_0: 3c6277f6
(Unnamed Layer* 624) [Constant]_output: 3a11ceee
/model.18/fc/fc.0/MatMul_output_0: 3d088227
/model.18/fc/fc.1/Relu_output_0: 3d0e5b94
(Unnamed Layer* 627) [Constant]_output: 3a55d10e
/model.18/fc/fc.2/MatMul_output_0: 3c2f71f4
/model.18/fc/fc.3/Sigmoid_output_0: 3bce931d
/model.18/Reshape_1_output_0: 3bce931d
/model.18/Mul_output_0: 3ca975fe
/model.18/Slice_output_0: 3c95f1cb
/model.18/Slice_1_output_0: 3cb5b931
/model.18/Concat_2_output_0: 3ca975fe
/model.18/Add_output_0: 3d30523e
/Slice_6_output_0: 3d4bd27e
/Slice_7_output_0: 3d339415
/model.19/cv1/conv/Conv_output_0: 3d5b0a77
/model.19/cv1/act/Sigmoid_output_0: 3c0086ca
/model.19/cv1/act/Mul_output_0: 3cd15ecc
/model.19/Split_output_0: 3ce608e3
/model.19/Split_output_1: 3cd15ecc
/model.19/m.0/cv1/conv/Conv_output_0: 3d6a2178
/model.19/m.0/cv1/act/Sigmoid_output_0: 3c00bc93
/model.19/m.0/cv1/act/Mul_output_0: 3ce749a6
/model.19/m.0/cv2/conv/Conv_output_0: 3d7d0bf0
/model.19/m.0/cv2/act/Sigmoid_output_0: 3c00e451
/model.19/m.0/cv2/act/Mul_output_0: 3d116e33
/model.19/m.0/Add_output_0: 3d7e9b4c
/model.19/Concat_output_0: 3d26f97e
/model.19/cv2/conv/Conv_output_0: 3d5cb50d
/model.19/cv2/act/Sigmoid_output_0: 3c00a28b
/model.19/cv2/act/Mul_output_0: 3ce5b42b
/model.20/cv1/conv/Conv_output_0: 3d569a53
/model.20/cv1/act/Sigmoid_output_0: 3c00c21b
/model.20/cv1/act/Mul_output_0: 3d12bd2d
/model.20/m/MaxPool_output_0: 3d12bd2d
/model.20/m_1/MaxPool_output_0: 3d12bd2d
/model.20/m_2/MaxPool_output_0: 3d12bd2d
/model.20/Concat_output_0: 3d698d70
/model.20/cv2/conv/Conv_output_0: 3d78dcce
/model.20/cv2/act/Sigmoid_output_0: 3c00d30d
/model.20/cv2/act/Mul_output_0: 3cd19899
/model.21/cv1/conv/Conv_output_0: 3d4bbebf
/model.21/cv1/act/Sigmoid_output_0: 3c010b9f
/model.21/cv1/act/Mul_output_0: 3d01d9a2
/model.21/Split_output_0: 3cc126ac
/model.21/Split_output_1: 3d01d9a2
/model.21/m.0/spatial_mixing/Split_output_0: 3d0194e2
/model.21/m.0/spatial_mixing/Split_output_1: 3cbfe3cd
/model.21/m.0/spatial_mixing/partial_conv3/Conv_output_0: 3d17e583
/model.21/m.0/spatial_mixing/Concat_output_0: 3cd26541
/model.21/m.0/mlp/mlp.0/conv/Conv_output_0: 3d4ac905
/model.21/m.0/mlp/mlp.0/act/Sigmoid_output_0: 3c009100
/model.21/m.0/mlp/mlp.0/act/Mul_output_0: 3cc033c6
/model.21/Concat_output_0: 3d01d9a2
/model.21/cv2/conv/Conv_output_0: 3d39c2c8
/model.21/cv2/act/Sigmoid_output_0: 3c003eb4
/model.21/cv2/act/Mul_output_0: 3ceb16e3
/model.22/cv1/conv/Conv_output_0: 3d4a1aef
/model.22/cv1/act/Sigmoid_output_0: 3c00b5dd
/model.22/cv1/act/Mul_output_0: 3d01fb80
/model.22/m/MaxPool_output_0: 3d01fb80
/model.22/m_1/MaxPool_output_0: 3d01fb80
/model.22/m_2/MaxPool_output_0: 3d01fb80
/model.22/Concat_output_0: 3d68e62b
/model.22/cv2/conv/Conv_output_0: 3d60ab62
/model.22/cv2/act/Sigmoid_output_0: 3c00dca0
/model.22/cv2/act/Mul_output_0: 3ce705aa
/model.23/Add_output_0: 3d51043a
/model.24/Add_output_0: 3d8e2404
/model.25/Add_output_0: 3d674660
/model.26/Resize_output_0: 3d674660
/model.27/Concat_output_0: 3d80340d
/model.28/cv1/conv/Conv_output_0: 3d7b0821
/model.28/cv1/act/Sigmoid_output_0: 3c00d6e4
/model.28/cv1/act/Mul_output_0: 3d000695
/model.28/Split_output_0: 3d000695
/model.28/Split_output_1: 3cd50499
/model.28/m.0/cv1/conv/Conv_output_0: 3d78d434
/model.28/m.0/cv1/act/Sigmoid_output_0: 3c00a4b5
/model.28/m.0/cv1/act/Mul_output_0: 3d01cb21
/model.28/m.0/cv2/conv/Conv_output_0: 3d718e28
/model.28/m.0/cv2/act/Sigmoid_output_0: 3c00d629
/model.28/m.0/cv2/act/Mul_output_0: 3d0207a8
/model.28/Concat_output_0: 3d128c08
/model.28/cv2/conv/Conv_output_0: 3d73fecc
/model.28/cv2/act/Sigmoid_output_0: 3c00c18d
/model.28/cv2/act/Mul_output_0: 3d121080
/model.29/Resize_output_0: 3d121080
/model.30/Concat_output_0: 3d01bd28
/model.31/cv1/conv/Conv_output_0: 3d676a90
/model.31/cv1/act/Sigmoid_output_0: 3c0109b9
/model.31/cv1/act/Mul_output_0: 3d01b0c1
/model.31/Split_output_0: 3d01b0c1
/model.31/Split_output_1: 3ce90da9
/model.31/m.0/cv1/conv/Conv_output_0: 3d42734f
/model.31/m.0/cv1/act/Sigmoid_output_0: 3bfe09a9
/model.31/m.0/cv1/act/Mul_output_0: 3c7f9b24
/model.31/m.0/cv2/conv/Conv_output_0: 3d871650
/model.31/m.0/cv2/act/Sigmoid_output_0: 3c008cd4
/model.31/m.0/cv2/act/Mul_output_0: 3d24e3b8
/model.31/Concat_output_0: 3d004759
/model.31/cv2/conv/Conv_output_0: 3d82f367
/model.31/cv2/act/Sigmoid_output_0: 3c007e98
/model.31/cv2/act/Mul_output_0: 3ceb42bd
/model.32/conv/Conv_output_0: 3d9771f4
/model.32/act/Sigmoid_output_0: 3c03156a
/model.32/act/Mul_output_0: 3d262c64
/model.33/Concat_output_0: 3d262c64
/model.34/cv1/conv/Conv_output_0: 3d6a99fe
/model.34/cv1/act/Sigmoid_output_0: 3c00ef68
/model.34/cv1/act/Mul_output_0: 3d14716d
/model.34/Split_output_0: 3d137007
/model.34/Split_output_1: 3d1424e4
/model.34/m.0/cv1/conv/Conv_output_0: 3d8511de
/model.34/m.0/cv1/act/Sigmoid_output_0: 3c0110ad
/model.34/m.0/cv1/act/Mul_output_0: 3cea954a
/model.34/m.0/cv2/conv/Conv_output_0: 3d811bb1
/model.34/m.0/cv2/act/Sigmoid_output_0: 3c0110df
/model.34/m.0/cv2/act/Mul_output_0: 3ce5a8db
/model.34/Concat_output_0: 3ce5a8db
/model.34/cv2/conv/Conv_output_0: 3d8a6be3
/model.34/cv2/act/Sigmoid_output_0: 3c0111ef
/model.34/cv2/act/Mul_output_0: 3d00e3fd
/model.35/conv/Conv_output_0: 3d25f8d0
/model.35/act/Sigmoid_output_0: 3c00996a
/model.35/act/Mul_output_0: 3cc1e14b
/model.36/Concat_output_0: 3d10cb0c
/model.37/cv1/conv/Conv_output_0: 3d09c302
/model.37/cv1/act/Sigmoid_output_0: 3c008b2c
/model.37/cv1/act/Mul_output_0: 3cc287a7
/model.37/Split_output_0: 3ca64888
/model.37/Split_output_1: 3cc287a7
/model.37/m.0/cv1/conv/Conv_output_0: 3cf5cdd1
/model.37/m.0/cv1/act/Sigmoid_output_0: 3bf9d563
/model.37/m.0/cv1/act/Mul_output_0: 3c9aed57
/model.37/m.0/cv2/conv/Conv_output_0: 3cfac527
/model.37/m.0/cv2/act/Sigmoid_output_0: 3bfc79cd
/model.37/m.0/cv2/act/Mul_output_0: 3ca618f5
/model.37/Concat_output_0: 3cc287a7
/model.37/cv2/conv/Conv_output_0: 3cf2d22e
/model.37/cv2/act/Sigmoid_output_0: 3bfc7df5
/model.37/cv2/act/Mul_output_0: 3c905319
/model.38/cv2.0/cv2.0.0/conv/Conv_output_0: 3d5ef01a
/model.38/cv2.0/cv2.0.0/act/Sigmoid_output_0: 3c008a09
/model.38/cv2.0/cv2.0.0/act/Mul_output_0: 3cd3e464
/model.38/cv2.0/cv2.0.1/conv/Conv_output_0: 3db93a6c
/model.38/cv2.0/cv2.0.1/act/Sigmoid_output_0: 3c010a14
/model.38/cv2.0/cv2.0.1/act/Mul_output_0: 3d6d9751
/model.38/cv2.0/cv2.0.2/Conv_output_0: 3e05b809
/model.38/cv3.0/cv3.0.0/conv/Conv_output_0: 3dc5f9b2
/model.38/cv3.0/cv3.0.0/act/Sigmoid_output_0: 3c0110fc
/model.38/cv3.0/cv3.0.0/act/Mul_output_0: 3ce7c870
/model.38/cv3.0/cv3.0.1/conv/Conv_output_0: 3e5114ac
/model.38/cv3.0/cv3.0.1/act/Sigmoid_output_0: 3c010a14
/model.38/cv3.0/cv3.0.1/act/Mul_output_0: 3d856e49
/model.38/cv3.0/cv3.0.2/Conv_output_0: 3f141c71
/model.38/Concat_output_0: 3e9f3902
/model.38/cv2.1/cv2.1.0/conv/Conv_output_0: 3d822501
/model.38/cv2.1/cv2.1.0/act/Sigmoid_output_0: 3c00e73d
/model.38/cv2.1/cv2.1.0/act/Mul_output_0: 3d11e37f
/model.38/cv2.1/cv2.1.1/conv/Conv_output_0: 3dc94b4d
/model.38/cv2.1/cv2.1.1/act/Sigmoid_output_0: 3c0213fd
/model.38/cv2.1/cv2.1.1/act/Mul_output_0: 3d6bb896
/model.38/cv2.1/cv2.1.2/Conv_output_0: 3dd13368
/model.38/cv3.1/cv3.1.0/conv/Conv_output_0: 3da22f33
/model.38/cv3.1/cv3.1.0/act/Sigmoid_output_0: 3c010aa9
/model.38/cv3.1/cv3.1.0/act/Mul_output_0: 3cbfa74a
/model.38/cv3.1/cv3.1.1/conv/Conv_output_0: 3ddae559
/model.38/cv3.1/cv3.1.1/act/Sigmoid_output_0: 3c010a14
/model.38/cv3.1/cv3.1.1/act/Mul_output_0: 3d1c4265
/model.38/cv3.1/cv3.1.2/Conv_output_0: 3ea31790
/model.38/Concat_1_output_0: 3e612004
/model.38/cv2.2/cv2.2.0/conv/Conv_output_0: 3cc8d366
/model.38/cv2.2/cv2.2.0/act/Sigmoid_output_0: 3bf90d1b
/model.38/cv2.2/cv2.2.0/act/Mul_output_0: 3c87b3bd
/model.38/cv2.2/cv2.2.1/conv/Conv_output_0: 3cb85e84
/model.38/cv2.2/cv2.2.1/act/Sigmoid_output_0: 3bf4dfc8
/model.38/cv2.2/cv2.2.1/act/Mul_output_0: 3c876311
/model.38/cv2.2/cv2.2.2/Conv_output_0: 3c0d96ca
/model.38/cv3.2/cv3.2.0/conv/Conv_output_0: 3d03528e
/model.38/cv3.2/cv3.2.0/act/Sigmoid_output_0: 3bf207fa
/model.38/cv3.2/cv3.2.0/act/Mul_output_0: 3c676ad5
/model.38/cv3.2/cv3.2.1/conv/Conv_output_0: 3cbb7954
/model.38/cv3.2/cv3.2.1/act/Sigmoid_output_0: 3bef1064
/model.38/cv3.2/cv3.2.1/act/Mul_output_0: 3c99c24f
/model.38/cv3.2/cv3.2.2/Conv_output_0: 3dc25739
/model.38/Concat_2_output_0: 3dc25739
/model.38/Reshape_output_0: 3e9f3902
/model.38/Reshape_1_output_0: 3e612004
/model.38/Reshape_2_output_0: 3dc25739
/model.38/Concat_6_output_0: 3e93322e
(Unnamed Layer* 1006) [Constant]_output: 3e810a14
/model.38/Split_output_0: 3d810a14
/model.38/Split_output_1: 3e010a14
/model.38/Split_output_2: 3e810a14
/model.38/Range_output_0: 3f1f4871
(Unnamed Layer* 1030) [Shuffle]_output: 3c010a14
(Unnamed Layer* 1032) [Shuffle]_output: 3b810a14
/model.38/Add_output_0: 3f204a85
/model.38/Range_1_output_0: 3f1f4871
(Unnamed Layer* 1045) [Shuffle]_output: 3c010a14
(Unnamed Layer* 1047) [Shuffle]_output: 3b810a14
/model.38/Add_1_output_0: 3f204a85
/model.38/Reshape_5_output_0: 3f204a85
/model.38/Expand_output_0: 3f204a85
/model.38/Reshape_6_output_0: 3f204a85
/model.38/Expand_1_output_0: 3f204a85
/model.38/Unsqueeze_3_output_0: 3f204a85
/model.38/Unsqueeze_4_output_0: 3f204a85
/model.38/Concat_10_output_0: 3f204a85
/model.38/Reshape_7_output_0: 3f204a85
(Unnamed Layer* 1098) [Constant]_output: 0
(Unnamed Layer* 1099) [Shuffle]_output: 0
/model.38/ConstantOfShape_output_0: 0
(Unnamed Layer* 1102) [Shuffle]_output: 3d810a14
/model.38/Add_2_output_0: 3d810a14
/model.38/Range_2_output_0: 3e9d4449
(Unnamed Layer* 1121) [Shuffle]_output: 3c010a14
(Unnamed Layer* 1123) [Shuffle]_output: 3b810a14
/model.38/Add_3_output_0: 3e9f4871
/model.38/Range_3_output_0: 3e9d4449
(Unnamed Layer* 1136) [Shuffle]_output: 3c010a14
(Unnamed Layer* 1138) [Shuffle]_output: 3b810a14
/model.38/Add_4_output_0: 3e9f4871
/model.38/Reshape_10_output_0: 3e9f4871
/model.38/Expand_2_output_0: 3e9f4871
/model.38/Reshape_11_output_0: 3e9f4871
/model.38/Expand_3_output_0: 3e9f4871
/model.38/Unsqueeze_6_output_0: 3e9f4871
/model.38/Unsqueeze_7_output_0: 3e9f4871
/model.38/Concat_15_output_0: 3e9f4871
/model.38/Reshape_12_output_0: 3e9f4871
(Unnamed Layer* 1189) [Constant]_output: 0
(Unnamed Layer* 1190) [Shuffle]_output: 0
/model.38/ConstantOfShape_1_output_0: 0
(Unnamed Layer* 1193) [Shuffle]_output: 3e010a14
/model.38/Add_5_output_0: 3e010a14
/model.38/Range_4_output_0: 3e193bf8
(Unnamed Layer* 1212) [Shuffle]_output: 3c010a14
(Unnamed Layer* 1214) [Shuffle]_output: 3b810a14
/model.38/Add_6_output_0: 3e1d4449
/model.38/Range_5_output_0: 3e193bf8
(Unnamed Layer* 1227) [Shuffle]_output: 3c010a14
(Unnamed Layer* 1229) [Shuffle]_output: 3b810a14
/model.38/Add_7_output_0: 3e1d4449
/model.38/Reshape_15_output_0: 3e1d4449
/model.38/Expand_4_output_0: 3e1d4449
/model.38/Reshape_16_output_0: 3e1d4449
/model.38/Expand_5_output_0: 3e1d4449
/model.38/Unsqueeze_9_output_0: 3e1d4449
/model.38/Unsqueeze_10_output_0: 3e1d4449
/model.38/Concat_20_output_0: 3e1d4449
/model.38/Reshape_17_output_0: 3e1d4449
(Unnamed Layer* 1280) [Constant]_output: 0
(Unnamed Layer* 1281) [Shuffle]_output: 0
/model.38/ConstantOfShape_2_output_0: 0
(Unnamed Layer* 1284) [Shuffle]_output: 3e810a14
/model.38/Add_8_output_0: 3e810a14
/model.38/Concat_22_output_0: 3f204a85
/model.38/Concat_23_output_0: 3e810a14
/model.38/Transpose_output_0: 3f204a85
/model.38/Transpose_1_output_0: 3e810a14
/model.38/Split_1_output_0: 3deeb573
/model.38/Split_1_output_1: 3ef9294a
/model.38/dfl/Reshape_output_0: 3deeb573
/model.38/dfl/Transpose_output_0: 3deeb573
(Unnamed Layer* 1313) [Softmax]_output: 3bd7fc09
/model.38/dfl/conv/Conv_output_0: 3dbb44f5
/model.38/dfl/Reshape_1_output_0: 3dbb44f5
/model.38/Unsqueeze_12_output_0: 3f204a85
/model.38/Slice_output_0: 3dc27ae9
/model.38/Slice_1_output_0: 3dbabd15
/model.38/Sub_output_0: 3f1fd271
/model.38/Add_10_output_0: 3f21b06c
/model.38/Add_11_output_0: 3fa0968b
(Unnamed Layer* 1396) [Shuffle]_output: 3c810a14
/model.38/Div_1_output_0: 3f20968b
/model.38/Sub_1_output_0: 3e23b219
/model.38/Concat_24_output_0: 3f22000b
(Unnamed Layer* 1403) [Shuffle]_output: 3e810a14
/model.38/Mul_5_output_0: 40a2000b
/model.38/Sigmoid_output_0: 3be26d44
output0: 40a2000b
