TRT-8503-EntropyCalibration2
images: 3bf80000
/Slice_output_0: 3bf80000
/Slice_1_output_0: 3bf80000
/model.0/conv/Conv_output_0: 3e02959b
/model.0/act/Sigmoid_output_0: 3c010a14
/model.0/act/Mul_output_0: 3dc0ea06
/model.1/conv/Conv_output_0: 3dc391dc
/model.1/act/Sigmoid_output_0: 3c019322
/model.1/act/Mul_output_0: 3d24adb8
/model.2/cv1/conv/Conv_output_0: 3d0c3b91
/model.2/cv1/act/Sigmoid_output_0: 3c02b566
/model.2/cv1/act/Mul_output_0: 3cbd70ce
/model.2/Split_output_0: 3d0df787
/model.2/Split_output_1: 3c7fa7bc
/model.2/m.0/cv1/conv/Conv_output_0: 3d2e14d4
/model.2/m.0/cv1/act/Sigmoid_output_0: 3c0376ba
/model.2/m.0/cv1/act/Mul_output_0: 3cbf436c
/model.2/m.0/cv2/conv/Conv_output_0: 3daf2018
/model.2/m.0/cv2/act/Sigmoid_output_0: 3c010a14
/model.2/m.0/cv2/act/Mul_output_0: 3d69cb59
/model.2/m.0/Add_output_0: 3d5c1693
/model.2/Concat_output_0: 3d3ea7e8
/model.2/cv2/conv/Conv_output_0: 3d2ec839
/model.2/cv2/act/Sigmoid_output_0: 3bff9d83
/model.2/cv2/act/Mul_output_0: 3c6e5924
/model.3/conv/Conv_output_0: 3cfdfd48
/model.3/act/Sigmoid_output_0: 3c00627b
/model.3/act/Mul_output_0: 3ca4d066
/model.4/conv/Conv_output_0: 3dc53453
/model.4/act/Sigmoid_output_0: 3c010a14
/model.4/act/Mul_output_0: 3d6b35c4
/model.5/conv/Conv_output_0: 3d8306db
/model.5/act/Sigmoid_output_0: 3c010a14
/model.5/act/Mul_output_0: 3d4423f3
/model.6/cv1/conv/Conv_output_0: 3d84bdd1
/model.6/cv1/act/Sigmoid_output_0: 3c010a14
/model.6/cv1/act/Mul_output_0: 3d3f7ffa
/model.6/Split_output_0: 3d3c201e
/model.6/Split_output_1: 3d2132da
/model.6/m.0/spatial_mixing/Split_output_0: 3d3a3cdd
/model.6/m.0/spatial_mixing/Split_output_1: 3d2132da
/model.6/m.0/spatial_mixing/partial_conv3/Conv_output_0: 3d12d5c6
/model.6/m.0/spatial_mixing/Concat_output_0: 3d40a9c4
/model.6/m.0/mlp/mlp.0/conv/Conv_output_0: 3d88c65a
/model.6/m.0/mlp/mlp.0/act/Sigmoid_output_0: 3c002fd6
/model.6/m.0/mlp/mlp.0/act/Mul_output_0: 3cfeed26
/model.6/Concat_output_0: 3d3f7ffa
/model.6/cv2/conv/Conv_output_0: 3d986516
/model.6/cv2/act/Sigmoid_output_0: 3c071148
/model.6/cv2/act/Mul_output_0: 3d12ad29
/model.7/conv/Conv_output_0: 3d326aa4
/model.7/act/Sigmoid_output_0: 3c03346e
/model.7/act/Mul_output_0: 3d26c47a
/Concat_output_0: 3d26c47a
/model.8/avg_pool/GlobalAveragePool_output_0: 3cf8445d
/model.8/Reshape_output_0: 3cf8445d
(Unnamed Layer* 147) [Constant]_output: 3b807a16
/model.8/fc/fc.0/MatMul_output_0: 3cf17080
/model.8/fc/fc.1/Relu_output_0: 3d0d6148
(Unnamed Layer* 150) [Constant]_output: 3b3beb0e
/model.8/fc/fc.2/MatMul_output_0: 3c6c66f2
/model.8/fc/fc.3/Sigmoid_output_0: 3be7f5a7
/model.8/Reshape_1_output_0: 3be7f5a7
/model.8/Mul_output_0: 3d00cdb0
/model.8/Slice_output_0: 3d34f462
/model.8/Slice_1_output_0: 3caa566c
/model.8/Concat_2_output_0: 3d00cdb0
/model.8/Add_output_0: 3d586d9c
/Slice_2_output_0: 3d567c1d
/Slice_3_output_0: 3d3b8697
/model.9/cv1/conv/Conv_output_0: 3d5f5608
/model.9/cv1/act/Sigmoid_output_0: 3c06dd44
/model.9/cv1/act/Mul_output_0: 3d027807
/model.9/Split_output_0: 3d27e5a1
/model.9/Split_output_1: 3cc1b3b0
/model.9/m.0/cv1/conv/Conv_output_0: 3d6c0d04
/model.9/m.0/cv1/act/Sigmoid_output_0: 3c00d59c
/model.9/m.0/cv1/act/Mul_output_0: 3cd4389b
/model.9/m.0/cv2/conv/Conv_output_0: 3d4ea077
/model.9/m.0/cv2/act/Sigmoid_output_0: 3c00c751
/model.9/m.0/cv2/act/Mul_output_0: 3d127820
/model.9/m.0/Add_output_0: 3d64fa4b
/model.9/m.1/cv1/conv/Conv_output_0: 3d794dda
/model.9/m.1/cv1/act/Sigmoid_output_0: 3c00cf4f
/model.9/m.1/cv1/act/Mul_output_0: 3c90ba43
/model.9/m.1/cv2/conv/Conv_output_0: 3da4ace1
/model.9/m.1/cv2/act/Sigmoid_output_0: 3c075ea6
/model.9/m.1/cv2/act/Mul_output_0: 3d6cd5aa
/model.9/m.1/Add_output_0: 3dbaeaf6
/model.9/Concat_output_0: 3d4264ff
/model.9/cv2/conv/Conv_output_0: 3d82c9f2
/model.9/cv2/act/Sigmoid_output_0: 3c0213e8
/model.9/cv2/act/Mul_output_0: 3d29ddce
/model.10/conv/Conv_output_0: 3d86afd6
/model.10/act/Sigmoid_output_0: 3c00ef82
/model.10/act/Mul_output_0: 3d1046a9
/model.11/cv1/conv/Conv_output_0: 3d8653bb
/model.11/cv1/act/Sigmoid_output_0: 3bffca41
/model.11/cv1/act/Mul_output_0: 3d108e5b
/model.11/Split_output_0: 3d0138e5
/model.11/Split_output_1: 3d10cefe
/model.11/m.0/spatial_mixing/Split_output_0: 3cff44ed
/model.11/m.0/spatial_mixing/Split_output_1: 3d110fa2
/model.11/m.0/spatial_mixing/partial_conv3/Conv_output_0: 3ce0b022
/model.11/m.0/spatial_mixing/Concat_output_0: 3d0fcc6f
/model.11/m.0/mlp/mlp.0/conv/Conv_output_0: 3d292063
/model.11/m.0/mlp/mlp.0/act/Sigmoid_output_0: 3c009ed1
/model.11/m.0/mlp/mlp.0/act/Mul_output_0: 3cffe691
/model.11/m.1/spatial_mixing/Split_output_0: 3cd31cea
/model.11/m.1/spatial_mixing/Split_output_1: 3d000319
/model.11/m.1/spatial_mixing/partial_conv3/Conv_output_0: 3cc24994
/model.11/m.1/spatial_mixing/Concat_output_0: 3cff49fd
/model.11/m.1/mlp/mlp.0/conv/Conv_output_0: 3d69aa5f
/model.11/m.1/mlp/mlp.0/act/Sigmoid_output_0: 3c020bfa
/model.11/m.1/mlp/mlp.0/act/Mul_output_0: 3d024236
/model.11/Concat_output_0: 3d024236
/model.11/cv2/conv/Conv_output_0: 3d0cedd3
/model.11/cv2/act/Sigmoid_output_0: 3c0049ff
/model.11/cv2/act/Mul_output_0: 3d0f846e
/model.12/conv/Conv_output_0: 3d42af2d
/model.12/act/Sigmoid_output_0: 3bffc778
/model.12/act/Mul_output_0: 3d01ea58
/Concat_1_output_0: 3cd1e221
/model.13/avg_pool/GlobalAveragePool_output_0: 3c62f6f0
/model.13/Reshape_output_0: 3c62f6f0
(Unnamed Layer* 369) [Constant]_output: 3a9fc97b
/model.13/fc/fc.0/MatMul_output_0: 3c8cd868
/model.13/fc/fc.1/Relu_output_0: 3c951cb9
(Unnamed Layer* 372) [Constant]_output: 3aa688a5
/model.13/fc/fc.2/MatMul_output_0: 3c0eb60e
/model.13/fc/fc.3/Sigmoid_output_0: 3bcde7c1
/model.13/Reshape_1_output_0: 3bcde7c1
/model.13/Mul_output_0: 3cad7d5d
/model.13/Slice_output_0: 3c83dd6d
/model.13/Slice_1_output_0: 3cca5fe3
/model.13/Concat_2_output_0: 3cad7d5d
/model.13/Add_output_0: 3d571cdd
/Slice_4_output_0: 3d55ed3e
/Slice_5_output_0: 3d3e340c
/model.14/cv1/conv/Conv_output_0: 3d89cfd8
/model.14/cv1/act/Sigmoid_output_0: 3c00f9f3
/model.14/cv1/act/Mul_output_0: 3ce7b85e
/model.14/Split_output_0: 3d110b96
/model.14/Split_output_1: 3cc11e1a
/model.14/m.0/cv1/conv/Conv_output_0: 3d8c2d9a
/model.14/m.0/cv1/act/Sigmoid_output_0: 3c00ee22
/model.14/m.0/cv1/act/Mul_output_0: 3d0246d8
/model.14/m.0/cv2/conv/Conv_output_0: 3d84933d
/model.14/m.0/cv2/act/Sigmoid_output_0: 3c00ebd9
/model.14/m.0/cv2/act/Mul_output_0: 3d02f693
/model.14/m.0/Add_output_0: 3d67850b
/model.14/m.1/cv1/conv/Conv_output_0: 3d8b7ff7
/model.14/m.1/cv1/act/Sigmoid_output_0: 3c00e648
/model.14/m.1/cv1/act/Mul_output_0: 3cb18559
/model.14/m.1/cv2/conv/Conv_output_0: 3d96721a
/model.14/m.1/cv2/act/Sigmoid_output_0: 3c00f0ff
/model.14/m.1/cv2/act/Mul_output_0: 3d45f143
/model.14/m.1/Add_output_0: 3d8f7711
/model.14/Concat_output_0: 3d25ad18
/model.14/cv2/conv/Conv_output_0: 3d8d7348
/model.14/cv2/act/Sigmoid_output_0: 3c00f1de
/model.14/cv2/act/Mul_output_0: 3cdb1023
/model.15/conv/Conv_output_0: 3d6747c1
/model.15/act/Sigmoid_output_0: 3c00e876
/model.15/act/Mul_output_0: 3cffc323
/model.16/cv1/conv/Conv_output_0: 3d69f1ac
/model.16/cv1/act/Sigmoid_output_0: 3c005980
/model.16/cv1/act/Mul_output_0: 3d01b02e
/model.16/Split_output_0: 3d01b02e
/model.16/Split_output_1: 3cea2390
/model.16/m.0/spatial_mixing/Split_output_0: 3cea2390
/model.16/m.0/spatial_mixing/Split_output_1: 3cd22318
/model.16/m.0/spatial_mixing/partial_conv3/Conv_output_0: 3cf99576
/model.16/m.0/spatial_mixing/Concat_output_0: 3cd22318
/model.16/m.0/mlp/mlp.0/conv/Conv_output_0: 3d40bdb5
/model.16/m.0/mlp/mlp.0/act/Sigmoid_output_0: 3c000e18
/model.16/m.0/mlp/mlp.0/act/Mul_output_0: 3cd2f6cb
/model.16/m.1/spatial_mixing/Split_output_0: 3d00279b
/model.16/m.1/spatial_mixing/Split_output_1: 3cb1d5a0
/model.16/m.1/spatial_mixing/partial_conv3/Conv_output_0: 3ce9aae6
/model.16/m.1/spatial_mixing/Concat_output_0: 3ce746e7
/model.16/m.1/mlp/mlp.0/conv/Conv_output_0: 3d6980d4
/model.16/m.1/mlp/mlp.0/act/Sigmoid_output_0: 3c00678a
/model.16/m.1/mlp/mlp.0/act/Mul_output_0: 3cd21921
/model.16/Concat_output_0: 3cd4620b
/model.16/cv2/conv/Conv_output_0: 3d4b3078
/model.16/cv2/act/Sigmoid_output_0: 3c013c56
/model.16/cv2/act/Mul_output_0: 3d02a825
/model.17/conv/Conv_output_0: 3d3eb07d
/model.17/act/Sigmoid_output_0: 3c0278ba
/model.17/act/Mul_output_0: 3cd47039
/Concat_2_output_0: 3cffc323
/model.18/avg_pool/GlobalAveragePool_output_0: 3c5e06e6
/model.18/Reshape_output_0: 3c5e06e6
(Unnamed Layer* 591) [Constant]_output: 3a11bb22
/model.18/fc/fc.0/MatMul_output_0: 3d0473ac
/model.18/fc/fc.1/Relu_output_0: 3d0473ac
(Unnamed Layer* 594) [Constant]_output: 3a462375
/model.18/fc/fc.2/MatMul_output_0: 3c3a899f
/model.18/fc/fc.3/Sigmoid_output_0: 3bdcedf9
/model.18/Reshape_1_output_0: 3bdcedf9
/model.18/Mul_output_0: 3c9d1669
/model.18/Slice_output_0: 3c99b30e
/model.18/Slice_1_output_0: 3cb3807e
/model.18/Concat_2_output_0: 3c9d1669
/model.18/Add_output_0: 3d2bb3cf
/Slice_6_output_0: 3d4dda03
/Slice_7_output_0: 3d34897a
/model.19/cv1/conv/Conv_output_0: 3d4a079a
/model.19/cv1/act/Sigmoid_output_0: 3c00939b
/model.19/cv1/act/Mul_output_0: 3cd29833
/model.19/Split_output_0: 3cd29833
/model.19/Split_output_1: 3cd2de6e
/model.19/m.0/cv1/conv/Conv_output_0: 3d677195
/model.19/m.0/cv1/act/Sigmoid_output_0: 3c00aff9
/model.19/m.0/cv1/act/Mul_output_0: 3cbf9e7a
/model.19/m.0/cv2/conv/Conv_output_0: 3d66e669
/model.19/m.0/cv2/act/Sigmoid_output_0: 3c00d98f
/model.19/m.0/cv2/act/Mul_output_0: 3d010a6f
/model.19/m.0/Add_output_0: 3d7ea8cd
/model.19/Concat_output_0: 3d126565
/model.19/cv2/conv/Conv_output_0: 3d4df489
/model.19/cv2/act/Sigmoid_output_0: 3c008491
/model.19/cv2/act/Mul_output_0: 3ce9e51b
/model.20/cv1/conv/Conv_output_0: 3d524b10
/model.20/cv1/act/Sigmoid_output_0: 3c00c12d
/model.20/cv1/act/Mul_output_0: 3d00340c
/model.20/m/MaxPool_output_0: 3d00340c
/model.20/m_1/MaxPool_output_0: 3d00340c
/model.20/m_2/MaxPool_output_0: 3d00340c
/model.20/Concat_output_0: 3d66e391
/model.20/cv2/conv/Conv_output_0: 3d748f56
/model.20/cv2/act/Sigmoid_output_0: 3c00cd07
/model.20/cv2/act/Mul_output_0: 3cd140b0
/model.21/cv1/conv/Conv_output_0: 3d41a381
/model.21/cv1/act/Sigmoid_output_0: 3c00e8b8
/model.21/cv1/act/Mul_output_0: 3cc0ae9e
/model.21/Split_output_0: 3cd3b799
/model.21/Split_output_1: 3cc0ae9e
/model.21/m.0/spatial_mixing/Split_output_0: 3d005365
/model.21/m.0/spatial_mixing/Split_output_1: 3ce9aca2
/model.21/m.0/spatial_mixing/partial_conv3/Conv_output_0: 3d15178c
/model.21/m.0/spatial_mixing/Concat_output_0: 3ce9aca2
/model.21/m.0/mlp/mlp.0/conv/Conv_output_0: 3d48c460
/model.21/m.0/mlp/mlp.0/act/Sigmoid_output_0: 3c008e66
/model.21/m.0/mlp/mlp.0/act/Mul_output_0: 3d019e1d
/model.21/Concat_output_0: 3cc0ae9e
/model.21/cv2/conv/Conv_output_0: 3d3e23db
/model.21/cv2/act/Sigmoid_output_0: 3c0072e5
/model.21/cv2/act/Mul_output_0: 3ce7d50b
/model.22/cv1/conv/Conv_output_0: 3d3fbc43
/model.22/cv1/act/Sigmoid_output_0: 3c008495
/model.22/cv1/act/Mul_output_0: 3d01d444
/model.22/m/MaxPool_output_0: 3d01d444
/model.22/m_1/MaxPool_output_0: 3d01d444
/model.22/m_2/MaxPool_output_0: 3d01d444
/model.22/Concat_output_0: 3d667efc
/model.22/cv2/conv/Conv_output_0: 3d5f8d46
/model.22/cv2/act/Sigmoid_output_0: 3c00586c
/model.22/cv2/act/Mul_output_0: 3ce847ff
/model.23/Add_output_0: 3d7a6d7c
/model.24/Add_output_0: 3d9098b1
/model.25/Add_output_0: 3d7cc8ba
/model.26/Resize_output_0: 3d7cc8ba
/model.27/Concat_output_0: 3d541d82
/model.28/cv1/conv/Conv_output_0: 3d810607
/model.28/cv1/act/Sigmoid_output_0: 3c00c2df
/model.28/cv1/act/Mul_output_0: 3ce5e234
/model.28/Split_output_0: 3ce5e234
/model.28/Split_output_1: 3cc0d30b
/model.28/m.0/cv1/conv/Conv_output_0: 3d6e4390
/model.28/m.0/cv1/act/Sigmoid_output_0: 3c00dd1a
/model.28/m.0/cv1/act/Mul_output_0: 3ce7bc1b
/model.28/m.0/cv2/conv/Conv_output_0: 3d75ff7e
/model.28/m.0/cv2/act/Sigmoid_output_0: 3c00f116
/model.28/m.0/cv2/act/Mul_output_0: 3d250dc6
/model.28/Concat_output_0: 3ce71bd8
/model.28/cv2/conv/Conv_output_0: 3d647cc7
/model.28/cv2/act/Sigmoid_output_0: 3c00ce05
/model.28/cv2/act/Mul_output_0: 3d02d10b
/model.29/Resize_output_0: 3d02d10b
/model.30/Concat_output_0: 3d2a1cc3
/model.31/cv1/conv/Conv_output_0: 3d5038b0
/model.31/cv1/act/Sigmoid_output_0: 3c008135
/model.31/cv1/act/Mul_output_0: 3ce9cf74
/model.31/Split_output_0: 3d1238b9
/model.31/Split_output_1: 3ce9a72f
/model.31/m.0/cv1/conv/Conv_output_0: 3d48a569
/model.31/m.0/cv1/act/Sigmoid_output_0: 3c002954
/model.31/m.0/cv1/act/Mul_output_0: 3cb20196
/model.31/m.0/cv2/conv/Conv_output_0: 3d88e3de
/model.31/m.0/cv2/act/Sigmoid_output_0: 3c00ecfd
/model.31/m.0/cv2/act/Mul_output_0: 3d436c64
/model.31/Concat_output_0: 3d27681d
/model.31/cv2/conv/Conv_output_0: 3da9cede
/model.31/cv2/act/Sigmoid_output_0: 3c00e824
/model.31/cv2/act/Mul_output_0: 3cebc23d
/model.32/conv/Conv_output_0: 3d9f92b6
/model.32/act/Sigmoid_output_0: 3c0213ec
/model.32/act/Mul_output_0: 3d47059e
/model.33/Concat_output_0: 3d2aab91
/model.34/cv1/conv/Conv_output_0: 3d8018d2
/model.34/cv1/act/Sigmoid_output_0: 3c00ed97
/model.34/cv1/act/Mul_output_0: 3cd1ed64
/model.34/Split_output_0: 3d018ae7
/model.34/Split_output_1: 3cd1ed64
/model.34/m.0/cv1/conv/Conv_output_0: 3d823129
/model.34/m.0/cv1/act/Sigmoid_output_0: 3c010a6f
/model.34/m.0/cv1/act/Mul_output_0: 3d030db8
/model.34/m.0/cv2/conv/Conv_output_0: 3d8311a5
/model.34/m.0/cv2/act/Sigmoid_output_0: 3c011116
/model.34/m.0/cv2/act/Mul_output_0: 3ce9e904
/model.34/Concat_output_0: 3ce9e904
/model.34/cv2/conv/Conv_output_0: 3d8257ed
/model.34/cv2/act/Sigmoid_output_0: 3c00ef35
/model.34/cv2/act/Mul_output_0: 3d1348b4
/model.35/conv/Conv_output_0: 3d35fda1
/model.35/act/Sigmoid_output_0: 3c0100f6
/model.35/act/Mul_output_0: 3cb23461
/model.36/Concat_output_0: 3d22d6bd
/model.37/cv1/conv/Conv_output_0: 3d0bc9f3
/model.37/cv1/act/Sigmoid_output_0: 3c000504
/model.37/cv1/act/Mul_output_0: 3cb17f9c
/model.37/Split_output_0: 3ca5181a
/model.37/Split_output_1: 3cb17f9c
/model.37/m.0/cv1/conv/Conv_output_0: 3d07f8ca
/model.37/m.0/cv1/act/Sigmoid_output_0: 3bff1fca
/model.37/m.0/cv1/act/Mul_output_0: 3c99bc71
/model.37/m.0/cv2/conv/Conv_output_0: 3cffded5
/model.37/m.0/cv2/act/Sigmoid_output_0: 3c010448
/model.37/m.0/cv2/act/Mul_output_0: 3c9902d2
/model.37/Concat_output_0: 3cd51cd4
/model.37/cv2/conv/Conv_output_0: 3ce5fec9
/model.37/cv2/act/Sigmoid_output_0: 3c00e82e
/model.37/cv2/act/Mul_output_0: 3c8022df
/model.38/cv2.0/cv2.0.0/conv/Conv_output_0: 3d97cb8e
/model.38/cv2.0/cv2.0.0/act/Sigmoid_output_0: 3c007387
/model.38/cv2.0/cv2.0.0/act/Mul_output_0: 3d00c345
/model.38/cv2.0/cv2.0.1/conv/Conv_output_0: 3d9e5b00
/model.38/cv2.0/cv2.0.1/act/Sigmoid_output_0: 3c011222
/model.38/cv2.0/cv2.0.1/act/Mul_output_0: 3d6f119e
/model.38/cv2.0/cv2.0.2/Conv_output_0: 3e02ef86
/model.38/cv3.0/cv3.0.0/conv/Conv_output_0: 3dc21bd9
/model.38/cv3.0/cv3.0.0/act/Sigmoid_output_0: 3c0111e9
/model.38/cv3.0/cv3.0.0/act/Mul_output_0: 3cb829dd
/model.38/cv3.0/cv3.0.1/conv/Conv_output_0: 3e3e17e1
/model.38/cv3.0/cv3.0.1/act/Sigmoid_output_0: 3c010a14
/model.38/cv3.0/cv3.0.1/act/Mul_output_0: 3d84c39c
/model.38/cv3.0/cv3.0.2/Conv_output_0: 3f17e359
/model.38/Concat_output_0: 3e9d101f
/model.38/cv2.1/cv2.1.0/conv/Conv_output_0: 3d81b2cb
/model.38/cv2.1/cv2.1.0/act/Sigmoid_output_0: 3c00ef99
/model.38/cv2.1/cv2.1.0/act/Mul_output_0: 3d10d60e
/model.38/cv2.1/cv2.1.1/conv/Conv_output_0: 3db779f3
/model.38/cv2.1/cv2.1.1/act/Sigmoid_output_0: 3c010a14
/model.38/cv2.1/cv2.1.1/act/Mul_output_0: 3d41d5c6
/model.38/cv2.1/cv2.1.2/Conv_output_0: 3dc9aa53
/model.38/cv3.1/cv3.1.0/conv/Conv_output_0: 3da903b1
/model.38/cv3.1/cv3.1.0/act/Sigmoid_output_0: 3c011018
/model.38/cv3.1/cv3.1.0/act/Mul_output_0: 3d1283c6
/model.38/cv3.1/cv3.1.1/conv/Conv_output_0: 3dde1cb2
/model.38/cv3.1/cv3.1.1/act/Sigmoid_output_0: 3c021427
/model.38/cv3.1/cv3.1.1/act/Mul_output_0: 3d255c1a
/model.38/cv3.1/cv3.1.2/Conv_output_0: 3e8f9f1c
/model.38/Concat_1_output_0: 3e579ce2
/model.38/cv2.2/cv2.2.0/conv/Conv_output_0: 3d1e66c3
/model.38/cv2.2/cv2.2.0/act/Sigmoid_output_0: 3c0207db
/model.38/cv2.2/cv2.2.0/act/Mul_output_0: 3d03f077
/model.38/cv2.2/cv2.2.1/conv/Conv_output_0: 3d26722f
/model.38/cv2.2/cv2.2.1/act/Sigmoid_output_0: 3c0401cd
/model.38/cv2.2/cv2.2.1/act/Mul_output_0: 3d017986
/model.38/cv2.2/cv2.2.2/Conv_output_0: 3c2fe27f
/model.38/cv3.2/cv3.2.0/conv/Conv_output_0: 3cedddaa
/model.38/cv3.2/cv3.2.0/act/Sigmoid_output_0: 3befc064
/model.38/cv3.2/cv3.2.0/act/Mul_output_0: 3c54e733
/model.38/cv3.2/cv3.2.1/conv/Conv_output_0: 3cb96342
/model.38/cv3.2/cv3.2.1/act/Sigmoid_output_0: 3beeb6ee
/model.38/cv3.2/cv3.2.1/act/Mul_output_0: 3cba4a88
/model.38/cv3.2/cv3.2.2/Conv_output_0: 3dc6976e
/model.38/Concat_2_output_0: 3dc314f1
/model.38/Reshape_output_0: 3e9d101f
/model.38/Reshape_1_output_0: 3e579ce2
/model.38/Reshape_2_output_0: 3dc314f1
/model.38/Concat_6_output_0: 3e9458ec
(Unnamed Layer* 967) [Constant]_output: 3e810a14
/model.38/Split_output_0: 3d810a14
/model.38/Split_output_1: 3e010a14
/model.38/Split_output_2: 3e810a14
/model.38/Range_output_0: 3f1f4871
(Unnamed Layer* 991) [Shuffle]_output: 3c010a14
(Unnamed Layer* 993) [Shuffle]_output: 3b810a14
/model.38/Add_output_0: 3f204a85
/model.38/Range_1_output_0: 3f1f4871
(Unnamed Layer* 1006) [Shuffle]_output: 3c010a14
(Unnamed Layer* 1008) [Shuffle]_output: 3b810a14
/model.38/Add_1_output_0: 3f204a85
/model.38/Reshape_5_output_0: 3f204a85
/model.38/Expand_output_0: 3f204a85
/model.38/Reshape_6_output_0: 3f204a85
/model.38/Expand_1_output_0: 3f204a85
/model.38/Unsqueeze_3_output_0: 3f204a85
/model.38/Unsqueeze_4_output_0: 3f204a85
/model.38/Concat_10_output_0: 3f204a85
/model.38/Reshape_7_output_0: 3f204a85
(Unnamed Layer* 1059) [Constant]_output: 0
(Unnamed Layer* 1060) [Shuffle]_output: 0
/model.38/ConstantOfShape_output_0: 0
(Unnamed Layer* 1063) [Shuffle]_output: 3d810a14
/model.38/Add_2_output_0: 3d810a14
/model.38/Range_2_output_0: 3e9d4449
(Unnamed Layer* 1082) [Shuffle]_output: 3c010a14
(Unnamed Layer* 1084) [Shuffle]_output: 3b810a14
/model.38/Add_3_output_0: 3e9f4871
/model.38/Range_3_output_0: 3e9d4449
(Unnamed Layer* 1097) [Shuffle]_output: 3c010a14
(Unnamed Layer* 1099) [Shuffle]_output: 3b810a14
/model.38/Add_4_output_0: 3e9f4871
/model.38/Reshape_10_output_0: 3e9f4871
/model.38/Expand_2_output_0: 3e9f4871
/model.38/Reshape_11_output_0: 3e9f4871
/model.38/Expand_3_output_0: 3e9f4871
/model.38/Unsqueeze_6_output_0: 3e9f4871
/model.38/Unsqueeze_7_output_0: 3e9f4871
/model.38/Concat_15_output_0: 3e9f4871
/model.38/Reshape_12_output_0: 3e9f4871
(Unnamed Layer* 1150) [Constant]_output: 0
(Unnamed Layer* 1151) [Shuffle]_output: 0
/model.38/ConstantOfShape_1_output_0: 0
(Unnamed Layer* 1154) [Shuffle]_output: 3e010a14
/model.38/Add_5_output_0: 3e010a14
/model.38/Range_4_output_0: 3e193bf8
(Unnamed Layer* 1173) [Shuffle]_output: 3c010a14
(Unnamed Layer* 1175) [Shuffle]_output: 3b810a14
/model.38/Add_6_output_0: 3e1d4449
/model.38/Range_5_output_0: 3e193bf8
(Unnamed Layer* 1188) [Shuffle]_output: 3c010a14
(Unnamed Layer* 1190) [Shuffle]_output: 3b810a14
/model.38/Add_7_output_0: 3e1d4449
/model.38/Reshape_15_output_0: 3e1d4449
/model.38/Expand_4_output_0: 3e1d4449
/model.38/Reshape_16_output_0: 3e1d4449
/model.38/Expand_5_output_0: 3e1d4449
/model.38/Unsqueeze_9_output_0: 3e1d4449
/model.38/Unsqueeze_10_output_0: 3e1d4449
/model.38/Concat_20_output_0: 3e1d4449
/model.38/Reshape_17_output_0: 3e1d4449
(Unnamed Layer* 1241) [Constant]_output: 0
(Unnamed Layer* 1242) [Shuffle]_output: 0
/model.38/ConstantOfShape_2_output_0: 0
(Unnamed Layer* 1245) [Shuffle]_output: 3e810a14
/model.38/Add_8_output_0: 3e810a14
/model.38/Concat_22_output_0: 3f204a85
/model.38/Concat_23_output_0: 3e810a14
/model.38/Transpose_output_0: 3f204a85
/model.38/Transpose_1_output_0: 3e810a14
/model.38/Split_1_output_0: 3dee2a56
/model.38/Split_1_output_1: 3ee03ef9
/model.38/dfl/Reshape_output_0: 3dee2a56
/model.38/dfl/Transpose_output_0: 3dee2a56
(Unnamed Layer* 1274) [Softmax]_output: 3bd5dbcd
/model.38/dfl/conv/Conv_output_0: 3d9d1404
/model.38/dfl/Reshape_1_output_0: 3d9d1404
/model.38/Unsqueeze_12_output_0: 3f204a85
/model.38/Slice_output_0: 3d9d1404
/model.38/Slice_1_output_0: 3d74dc15
/model.38/Sub_output_0: 3f200278
/model.38/Add_10_output_0: 3f218735
/model.38/Add_11_output_0: 3fa09eb9
(Unnamed Layer* 1357) [Shuffle]_output: 3c810a14
/model.38/Div_1_output_0: 3f209eb9
/model.38/Sub_1_output_0: 3df4c6a9
/model.38/Concat_24_output_0: 3f3a332f
(Unnamed Layer* 1364) [Shuffle]_output: 3e810a14
/model.38/Mul_5_output_0: 40a5cc7c
/model.38/Sigmoid_output_0: 3be1bd43
output0: 40a5cc7c
