TRT-8503-EntropyCalibration2
images: 3bf80000
/Slice_output_0: 3bf80000
/Slice_1_output_0: 3bf80000
/model.0/conv/Conv_output_0: 3e2aba85
/model.0/act/Sigmoid_output_0: 3c010a14
/model.0/act/Mul_output_0: 3dc53bba
/model.1/conv/Conv_output_0: 3dc8548e
/model.1/act/Sigmoid_output_0: 3c0068d2
/model.1/act/Mul_output_0: 3cfb015e
/model.2/cv1/conv/Conv_output_0: 3d3f11c7
/model.2/cv1/act/Sigmoid_output_0: 3c02b569
/model.2/cv1/act/Mul_output_0: 3cd24ada
/model.2/Split_output_0: 3d154374
/model.2/Split_output_1: 3c6bead9
/model.2/m.0/cv1/conv/Conv_output_0: 3d476ef0
/model.2/m.0/cv1/act/Sigmoid_output_0: 3c0376c3
/model.2/m.0/cv1/act/Mul_output_0: 3cbf29a9
/model.2/m.0/cv2/conv/Conv_output_0: 3d9d55d3
/model.2/m.0/cv2/act/Sigmoid_output_0: 3c010a14
/model.2/m.0/cv2/act/Mul_output_0: 3d6d5bbf
/model.2/m.0/Add_output_0: 3dde5dc4
/model.2/Concat_output_0: 3d3fd374
/model.2/cv2/conv/Conv_output_0: 3d405497
/model.2/cv2/act/Sigmoid_output_0: 3bff9a7c
/model.2/cv2/act/Mul_output_0: 3c6e3895
/model.3/conv/Conv_output_0: 3ce6c851
/model.3/act/Sigmoid_output_0: 3c005a0f
/model.3/act/Mul_output_0: 3c9bdf81
/model.4/conv/Conv_output_0: 3dad83ac
/model.4/act/Sigmoid_output_0: 3c010a14
/model.4/act/Mul_output_0: 3d65387b
/model.5/conv/Conv_output_0: 3d702296
/model.5/act/Sigmoid_output_0: 3c010a14
/model.5/act/Mul_output_0: 3d44be76
/model.6/cv1/conv/Conv_output_0: 3d80b535
/model.6/cv1/act/Sigmoid_output_0: 3c010a14
/model.6/cv1/act/Mul_output_0: 3d6b0ea7
/model.6/Split_output_0: 3d3acc75
/model.6/Split_output_1: 3d0a3c95
/model.6/m.0/spatial_mixing/Split_output_0: 3d420cfa
/model.6/m.0/spatial_mixing/Split_output_1: 3d0aaaa8
/model.6/m.0/spatial_mixing/partial_conv3/Conv_output_0: 3d018e99
/model.6/m.0/spatial_mixing/Concat_output_0: 3d1fbc41
/model.6/m.0/mlp/mlp.0/conv/Conv_output_0: 3d88355e
/model.6/m.0/mlp/mlp.0/act/Sigmoid_output_0: 3c003012
/model.6/m.0/mlp/mlp.0/act/Mul_output_0: 3cff6d22
/model.6/Concat_output_0: 3d6b0ea7
/model.6/cv2/conv/Conv_output_0: 3d90ca42
/model.6/cv2/act/Sigmoid_output_0: 3c07189d
/model.6/cv2/act/Mul_output_0: 3d00e4d0
/model.7/conv/Conv_output_0: 3d32852f
/model.7/act/Sigmoid_output_0: 3c033472
/model.7/act/Mul_output_0: 3d26dd4d
/Concat_output_0: 3d26dd4d
/model.8/avg_pool/GlobalAveragePool_output_0: 3cf7fe12
/model.8/Reshape_output_0: 3cf7fe12
(Unnamed Layer* 147) [Constant]_output: 3b807a16
/model.8/fc/fc.0/MatMul_output_0: 3ce80eb6
/model.8/fc/fc.1/Relu_output_0: 3d0813df
(Unnamed Layer* 150) [Constant]_output: 3b3beb0e
/model.8/fc/fc.2/MatMul_output_0: 3c77bbfc
/model.8/fc/fc.3/Sigmoid_output_0: 3bee2f5c
/model.8/Reshape_1_output_0: 3bee2f5c
/model.8/Mul_output_0: 3cfd4f43
/model.8/Slice_output_0: 3d2f418b
/model.8/Slice_1_output_0: 3c8b3628
/model.8/Concat_2_output_0: 3cfd4f43
/model.8/Add_output_0: 3d8b151f
/Slice_2_output_0: 3d56c455
/Slice_3_output_0: 3d28325f
/model.9/cv1/conv/Conv_output_0: 3d5f4cca
/model.9/cv1/act/Sigmoid_output_0: 3c06dccf
/model.9/cv1/act/Mul_output_0: 3d13b3c7
/model.9/Split_output_0: 3d14b266
/model.9/Split_output_1: 3cd21cfb
/model.9/m.0/cv1/conv/Conv_output_0: 3d6f730e
/model.9/m.0/cv1/act/Sigmoid_output_0: 3c00baf0
/model.9/m.0/cv1/act/Mul_output_0: 3d020b79
/model.9/m.0/cv2/conv/Conv_output_0: 3d5d0b0e
/model.9/m.0/cv2/act/Sigmoid_output_0: 3c00a56f
/model.9/m.0/cv2/act/Mul_output_0: 3d0dc900
/model.9/m.0/Add_output_0: 3d50ec23
/model.9/m.1/cv1/conv/Conv_output_0: 3d7d75db
/model.9/m.1/cv1/act/Sigmoid_output_0: 3c00c0c6
/model.9/m.1/cv1/act/Mul_output_0: 3cb2ad64
/model.9/m.1/cv2/conv/Conv_output_0: 3da4422b
/model.9/m.1/cv2/act/Sigmoid_output_0: 3c063c37
/model.9/m.1/cv2/act/Mul_output_0: 3d6d7e9d
/model.9/m.1/Add_output_0: 3db33989
/model.9/Concat_output_0: 3d45dd36
/model.9/cv2/conv/Conv_output_0: 3d9205e4
/model.9/cv2/act/Sigmoid_output_0: 3c0213cf
/model.9/cv2/act/Mul_output_0: 3cb21453
/model.10/conv/Conv_output_0: 3d7bbe26
/model.10/act/Sigmoid_output_0: 3c00eee2
/model.10/act/Mul_output_0: 3d1188e2
/model.11/cv1/conv/Conv_output_0: 3d637804
/model.11/cv1/act/Sigmoid_output_0: 3bffbb58
/model.11/cv1/act/Mul_output_0: 3d27dbc3
/model.11/Split_output_0: 3ce615e2
/model.11/Split_output_1: 3d10808e
/model.11/m.0/spatial_mixing/Split_output_0: 3cfda0c2
/model.11/m.0/spatial_mixing/Split_output_1: 3d01a39b
/model.11/m.0/spatial_mixing/partial_conv3/Conv_output_0: 3ce08aff
/model.11/m.0/spatial_mixing/Concat_output_0: 3d1135be
/model.11/m.0/mlp/mlp.0/conv/Conv_output_0: 3d2fb18e
/model.11/m.0/mlp/mlp.0/act/Sigmoid_output_0: 3c00a760
/model.11/m.0/mlp/mlp.0/act/Mul_output_0: 3cd1a726
/model.11/m.1/spatial_mixing/Split_output_0: 3cff4fc6
/model.11/m.1/spatial_mixing/Split_output_1: 3d10c078
/model.11/m.1/spatial_mixing/partial_conv3/Conv_output_0: 3ce81633
/model.11/m.1/spatial_mixing/Concat_output_0: 3d10c078
/model.11/m.1/mlp/mlp.0/conv/Conv_output_0: 3d6594f4
/model.11/m.1/mlp/mlp.0/act/Sigmoid_output_0: 3c0204a8
/model.11/m.1/mlp/mlp.0/act/Mul_output_0: 3d127b47
/model.11/Concat_output_0: 3d127b47
/model.11/cv2/conv/Conv_output_0: 3d0d052c
/model.11/cv2/act/Sigmoid_output_0: 3c006c73
/model.11/cv2/act/Mul_output_0: 3c7f503a
/model.12/conv/Conv_output_0: 3d431768
/model.12/act/Sigmoid_output_0: 3bffd98b
/model.12/act/Mul_output_0: 3cd1fb41
/Concat_1_output_0: 3d1188e2
/model.13/avg_pool/GlobalAveragePool_output_0: 3c806bd8
/model.13/Reshape_output_0: 3c806bd8
(Unnamed Layer* 369) [Constant]_output: 3a9fc97b
/model.13/fc/fc.0/MatMul_output_0: 3c8603a5
/model.13/fc/fc.1/Relu_output_0: 3c9400f4
(Unnamed Layer* 372) [Constant]_output: 3aa688a5
/model.13/fc/fc.2/MatMul_output_0: 3c1949f7
/model.13/fc/fc.3/Sigmoid_output_0: 3bcbc128
/model.13/Reshape_1_output_0: 3bcbc128
/model.13/Mul_output_0: 3cae342b
/model.13/Slice_output_0: 3c55ab70
/model.13/Slice_1_output_0: 3ccad852
/model.13/Concat_2_output_0: 3cae342b
/model.13/Add_output_0: 3d55d908
/Slice_4_output_0: 3d566d7f
/Slice_5_output_0: 3d2aba74
/model.14/cv1/conv/Conv_output_0: 3d66f88e
/model.14/cv1/act/Sigmoid_output_0: 3c00d1a1
/model.14/cv1/act/Mul_output_0: 3d27bccb
/model.14/Split_output_0: 3d26c5a6
/model.14/Split_output_1: 3cc0c697
/model.14/m.0/cv1/conv/Conv_output_0: 3d865f11
/model.14/m.0/cv1/act/Sigmoid_output_0: 3c00ee79
/model.14/m.0/cv1/act/Mul_output_0: 3d29402b
/model.14/m.0/cv2/conv/Conv_output_0: 3d8595fa
/model.14/m.0/cv2/act/Sigmoid_output_0: 3c00e741
/model.14/m.0/cv2/act/Mul_output_0: 3ce91bb4
/model.14/m.0/Add_output_0: 3d4e224f
/model.14/m.1/cv1/conv/Conv_output_0: 3d8f1e33
/model.14/m.1/cv1/act/Sigmoid_output_0: 3c00c9df
/model.14/m.1/cv1/act/Mul_output_0: 3d02e7e3
/model.14/m.1/cv2/conv/Conv_output_0: 3d99f44c
/model.14/m.1/cv2/act/Sigmoid_output_0: 3c00f18b
/model.14/m.1/cv2/act/Mul_output_0: 3d005b45
/model.14/m.1/Add_output_0: 3d8f8dfc
/model.14/Concat_output_0: 3d27bccb
/model.14/cv2/conv/Conv_output_0: 3d87dd54
/model.14/cv2/act/Sigmoid_output_0: 3c00f1d3
/model.14/cv2/act/Mul_output_0: 3d11e6c8
/model.15/conv/Conv_output_0: 3d5ecdfa
/model.15/act/Sigmoid_output_0: 3c00e735
/model.15/act/Mul_output_0: 3ce8fa36
/model.16/cv1/conv/Conv_output_0: 3d69b6f4
/model.16/cv1/act/Sigmoid_output_0: 3bffb0e8
/model.16/cv1/act/Mul_output_0: 3cd43685
/model.16/Split_output_0: 3cd2ae86
/model.16/Split_output_1: 3ce68fed
/model.16/m.0/spatial_mixing/Split_output_0: 3ce68fed
/model.16/m.0/spatial_mixing/Split_output_1: 3ce7f5ed
/model.16/m.0/spatial_mixing/partial_conv3/Conv_output_0: 3cfa095e
/model.16/m.0/spatial_mixing/Concat_output_0: 3ce7f5ed
/model.16/m.0/mlp/mlp.0/conv/Conv_output_0: 3d419092
/model.16/m.0/mlp/mlp.0/act/Sigmoid_output_0: 3c001e57
/model.16/m.0/mlp/mlp.0/act/Mul_output_0: 3cb0f6ab
/model.16/m.1/spatial_mixing/Split_output_0: 3ce5e322
/model.16/m.1/spatial_mixing/Split_output_1: 3cc2c839
/model.16/m.1/spatial_mixing/partial_conv3/Conv_output_0: 3cc15d42
/model.16/m.1/spatial_mixing/Concat_output_0: 3ce931c3
/model.16/m.1/mlp/mlp.0/conv/Conv_output_0: 3d6af2b2
/model.16/m.1/mlp/mlp.0/act/Sigmoid_output_0: 3c006085
/model.16/m.1/mlp/mlp.0/act/Mul_output_0: 3d002f7d
/model.16/Concat_output_0: 3ce5e322
/model.16/cv2/conv/Conv_output_0: 3d4b3e0b
/model.16/cv2/act/Sigmoid_output_0: 3c0045f3
/model.16/cv2/act/Mul_output_0: 3ce8d6e4
/model.17/conv/Conv_output_0: 3d411d4e
/model.17/act/Sigmoid_output_0: 3c006e75
/model.17/act/Mul_output_0: 3cd2b408
/Concat_2_output_0: 3ce8fa36
/model.18/avg_pool/GlobalAveragePool_output_0: 3c676e3d
/model.18/Reshape_output_0: 3c676e3d
(Unnamed Layer* 591) [Constant]_output: 3a11bb22
/model.18/fc/fc.0/MatMul_output_0: 3ceea0f5
/model.18/fc/fc.1/Relu_output_0: 3d016bc7
(Unnamed Layer* 594) [Constant]_output: 3a462375
/model.18/fc/fc.2/MatMul_output_0: 3c3e74f5
/model.18/fc/fc.3/Sigmoid_output_0: 3bdfa37c
/model.18/Reshape_1_output_0: 3bdfa37c
/model.18/Mul_output_0: 3cc1b767
/model.18/Slice_output_0: 3cac0691
/model.18/Slice_1_output_0: 3cb3fc0f
/model.18/Concat_2_output_0: 3cc1b767
/model.18/Add_output_0: 3d4bb410
/Slice_6_output_0: 3d48f2e2
/Slice_7_output_0: 3d347551
/model.19/cv1/conv/Conv_output_0: 3d510a5a
/model.19/cv1/act/Sigmoid_output_0: 3c007001
/model.19/cv1/act/Mul_output_0: 3cbfcfb2
/model.19/Split_output_0: 3cbfcfb2
/model.19/Split_output_1: 3ce9ed75
/model.19/m.0/cv1/conv/Conv_output_0: 3d769c27
/model.19/m.0/cv1/act/Sigmoid_output_0: 3c00ba9d
/model.19/m.0/cv1/act/Mul_output_0: 3cd4ebad
/model.19/m.0/cv2/conv/Conv_output_0: 3d80a8a3
/model.19/m.0/cv2/act/Sigmoid_output_0: 3c00e3f4
/model.19/m.0/cv2/act/Mul_output_0: 3d10eea7
/model.19/m.0/Add_output_0: 3d7db2a5
/model.19/Concat_output_0: 3d2807a7
/model.19/cv2/conv/Conv_output_0: 3d4e5a4c
/model.19/cv2/act/Sigmoid_output_0: 3c00b375
/model.19/cv2/act/Mul_output_0: 3ce7f197
/model.20/cv1/conv/Conv_output_0: 3d5c0975
/model.20/cv1/act/Sigmoid_output_0: 3c00c3ea
/model.20/cv1/act/Mul_output_0: 3d113361
/model.20/m/MaxPool_output_0: 3d113361
/model.20/m_1/MaxPool_output_0: 3d113361
/model.20/m_2/MaxPool_output_0: 3d113361
/model.20/Concat_output_0: 3d6832d7
/model.20/cv2/conv/Conv_output_0: 3d7267d4
/model.20/cv2/act/Sigmoid_output_0: 3c009a34
/model.20/cv2/act/Mul_output_0: 3cc0fc19
/model.21/cv1/conv/Conv_output_0: 3d4f4ab3
/model.21/cv1/act/Sigmoid_output_0: 3c00ca15
/model.21/cv1/act/Mul_output_0: 3cd3961d
/model.21/Split_output_0: 3ce68e1a
/model.21/Split_output_1: 3cd3961d
/model.21/m.0/spatial_mixing/Split_output_0: 3d01417d
/model.21/m.0/spatial_mixing/Split_output_1: 3cd25543
/model.21/m.0/spatial_mixing/partial_conv3/Conv_output_0: 3d1700df
/model.21/m.0/spatial_mixing/Concat_output_0: 3cd25543
/model.21/m.0/mlp/mlp.0/conv/Conv_output_0: 3d4d14a8
/model.21/m.0/mlp/mlp.0/act/Sigmoid_output_0: 3c00a6dc
/model.21/m.0/mlp/mlp.0/act/Mul_output_0: 3cbfc64c
/model.21/Concat_output_0: 3cd3961d
/model.21/cv2/conv/Conv_output_0: 3d398308
/model.21/cv2/act/Sigmoid_output_0: 3c0066ab
/model.21/cv2/act/Mul_output_0: 3cd1703f
/model.22/cv1/conv/Conv_output_0: 3d4626cd
/model.22/cv1/act/Sigmoid_output_0: 3c0072f9
/model.22/cv1/act/Mul_output_0: 3d006c01
/model.22/m/MaxPool_output_0: 3d006c01
/model.22/m_1/MaxPool_output_0: 3d006c01
/model.22/m_2/MaxPool_output_0: 3d006c01
/model.22/Concat_output_0: 3d40070f
/model.22/cv2/conv/Conv_output_0: 3d6335c8
/model.22/cv2/act/Sigmoid_output_0: 3c00a514
/model.22/cv2/act/Mul_output_0: 3cd19916
/model.23/Add_output_0: 3d7a21b4
/model.24/Add_output_0: 3d90d52c
/model.25/Add_output_0: 3d63e8c6
/model.26/Resize_output_0: 3d63e8c6
/model.27/Concat_output_0: 3d90d52c
/model.28/cv1/conv/Conv_output_0: 3d772577
/model.28/cv1/act/Sigmoid_output_0: 3c00ae02
/model.28/cv1/act/Mul_output_0: 3cd1ec3e
/model.28/Split_output_0: 3d0061b5
/model.28/Split_output_1: 3ce7ffd6
/model.28/m.0/cv1/conv/Conv_output_0: 3d79384a
/model.28/m.0/cv1/act/Sigmoid_output_0: 3c00ee16
/model.28/m.0/cv1/act/Mul_output_0: 3d0217ef
/model.28/m.0/cv2/conv/Conv_output_0: 3d7982e8
/model.28/m.0/cv2/act/Sigmoid_output_0: 3c00e9b7
/model.28/m.0/cv2/act/Mul_output_0: 3d022268
/model.28/Concat_output_0: 3d022268
/model.28/cv2/conv/Conv_output_0: 3d67d242
/model.28/cv2/act/Sigmoid_output_0: 3c00eaa8
/model.28/cv2/act/Mul_output_0: 3d004d25
/model.29/Resize_output_0: 3d004d25
/model.30/Concat_output_0: 3d01e85e
/model.31/cv1/conv/Conv_output_0: 3d4bbc94
/model.31/cv1/act/Sigmoid_output_0: 3c00765c
/model.31/cv1/act/Mul_output_0: 3d029f4a
/model.31/Split_output_0: 3d27c86f
/model.31/Split_output_1: 3cd2e7ed
/model.31/m.0/cv1/conv/Conv_output_0: 3d4f2a06
/model.31/m.0/cv1/act/Sigmoid_output_0: 3c000b92
/model.31/m.0/cv1/act/Mul_output_0: 3cc24494
/model.31/m.0/cv2/conv/Conv_output_0: 3d8ad7b8
/model.31/m.0/cv2/act/Sigmoid_output_0: 3c00ed70
/model.31/m.0/cv2/act/Mul_output_0: 3d3dd14b
/model.31/Concat_output_0: 3cff9d88
/model.31/cv2/conv/Conv_output_0: 3daf456f
/model.31/cv2/act/Sigmoid_output_0: 3c00c90f
/model.31/cv2/act/Mul_output_0: 3d015cf9
/model.32/conv/Conv_output_0: 3d9f4b63
/model.32/act/Sigmoid_output_0: 3c0213d4
/model.32/act/Mul_output_0: 3d2619ac
/model.33/Concat_output_0: 3d01116e
/model.34/cv1/conv/Conv_output_0: 3d7c942c
/model.34/cv1/act/Sigmoid_output_0: 3c00ee27
/model.34/cv1/act/Mul_output_0: 3d025a65
/model.34/Split_output_0: 3d02291d
/model.34/Split_output_1: 3d025a65
/model.34/m.0/cv1/conv/Conv_output_0: 3d835f31
/model.34/m.0/cv1/act/Sigmoid_output_0: 3c010f92
/model.34/m.0/cv1/act/Mul_output_0: 3d13edf8
/model.34/m.0/cv2/conv/Conv_output_0: 3d84d40a
/model.34/m.0/cv2/act/Sigmoid_output_0: 3c011137
/model.34/m.0/cv2/act/Mul_output_0: 3d1418b3
/model.34/Concat_output_0: 3d1418b3
/model.34/cv2/conv/Conv_output_0: 3d86851c
/model.34/cv2/act/Sigmoid_output_0: 3c00ee79
/model.34/cv2/act/Mul_output_0: 3d29446a
/model.35/conv/Conv_output_0: 3d39213b
/model.35/act/Sigmoid_output_0: 3c007d8d
/model.35/act/Mul_output_0: 3ce90e96
/model.36/Concat_output_0: 3d40084c
/model.37/cv1/conv/Conv_output_0: 3d0ee881
/model.37/cv1/act/Sigmoid_output_0: 3c006d92
/model.37/cv1/act/Mul_output_0: 3cc304dc
/model.37/Split_output_0: 3cb27e10
/model.37/Split_output_1: 3cc304dc
/model.37/m.0/cv1/conv/Conv_output_0: 3d0e9390
/model.37/m.0/cv1/act/Sigmoid_output_0: 3c01498d
/model.37/m.0/cv1/act/Mul_output_0: 3cb355e6
/model.37/m.0/cv2/conv/Conv_output_0: 3cfe935d
/model.37/m.0/cv2/act/Sigmoid_output_0: 3c007bcb
/model.37/m.0/cv2/act/Mul_output_0: 3c908f7f
/model.37/Concat_output_0: 3cc304dc
/model.37/cv2/conv/Conv_output_0: 3cf1c261
/model.37/cv2/act/Sigmoid_output_0: 3bfce17c
/model.37/cv2/act/Mul_output_0: 3ca55057
/model.38/cv2.0/cv2.0.0/conv/Conv_output_0: 3d94b245
/model.38/cv2.0/cv2.0.0/act/Sigmoid_output_0: 3c0084a5
/model.38/cv2.0/cv2.0.0/act/Mul_output_0: 3d01db64
/model.38/cv2.0/cv2.0.1/conv/Conv_output_0: 3da9d2b0
/model.38/cv2.0/cv2.0.1/act/Sigmoid_output_0: 3c01121c
/model.38/cv2.0/cv2.0.1/act/Mul_output_0: 3d44effb
/model.38/cv2.0/cv2.0.2/Conv_output_0: 3e05a9d2
/model.38/cv3.0/cv3.0.0/conv/Conv_output_0: 3dc789ec
/model.38/cv3.0/cv3.0.0/act/Sigmoid_output_0: 3c0111f8
/model.38/cv3.0/cv3.0.0/act/Mul_output_0: 3d02b1a7
/model.38/cv3.0/cv3.0.1/conv/Conv_output_0: 3e404aef
/model.38/cv3.0/cv3.0.1/act/Sigmoid_output_0: 3c010a14
/model.38/cv3.0/cv3.0.1/act/Mul_output_0: 3da41dc2
/model.38/cv3.0/cv3.0.2/Conv_output_0: 3f13c60a
/model.38/Concat_output_0: 3ea413ef
/model.38/cv2.1/cv2.1.0/conv/Conv_output_0: 3d813772
/model.38/cv2.1/cv2.1.0/act/Sigmoid_output_0: 3c00ee23
/model.38/cv2.1/cv2.1.0/act/Mul_output_0: 3d272f59
/model.38/cv2.1/cv2.1.1/conv/Conv_output_0: 3dcfb3b0
/model.38/cv2.1/cv2.1.1/act/Sigmoid_output_0: 3c053a73
/model.38/cv2.1/cv2.1.1/act/Mul_output_0: 3d6c8165
/model.38/cv2.1/cv2.1.2/Conv_output_0: 3dce72bf
/model.38/cv3.1/cv3.1.0/conv/Conv_output_0: 3da97d6b
/model.38/cv3.1/cv3.1.0/act/Sigmoid_output_0: 3c010ca8
/model.38/cv3.1/cv3.1.0/act/Mul_output_0: 3d009697
/model.38/cv3.1/cv3.1.1/conv/Conv_output_0: 3df0f07d
/model.38/cv3.1/cv3.1.1/act/Sigmoid_output_0: 3c010a14
/model.38/cv3.1/cv3.1.1/act/Mul_output_0: 3d2906e6
/model.38/cv3.1/cv3.1.2/Conv_output_0: 3e8e5fd4
/model.38/Concat_1_output_0: 3e5e0e02
/model.38/cv2.2/cv2.2.0/conv/Conv_output_0: 3d088490
/model.38/cv2.2/cv2.2.0/act/Sigmoid_output_0: 3c0148a2
/model.38/cv2.2/cv2.2.0/act/Mul_output_0: 3c99a2b5
/model.38/cv2.2/cv2.2.1/conv/Conv_output_0: 3d1b52c3
/model.38/cv2.2/cv2.2.1/act/Sigmoid_output_0: 3c0110bf
/model.38/cv2.2/cv2.2.1/act/Mul_output_0: 3ceb1de9
/model.38/cv2.2/cv2.2.2/Conv_output_0: 3c349c29
/model.38/cv3.2/cv3.2.0/conv/Conv_output_0: 3cbbdb7c
/model.38/cv3.2/cv3.2.0/act/Sigmoid_output_0: 3bed3512
/model.38/cv3.2/cv3.2.0/act/Mul_output_0: 3c5cd9ee
/model.38/cv3.2/cv3.2.1/conv/Conv_output_0: 3caf19e0
/model.38/cv3.2/cv3.2.1/act/Sigmoid_output_0: 3beeac4c
/model.38/cv3.2/cv3.2.1/act/Mul_output_0: 3ca54b3c
/model.38/cv3.2/cv3.2.2/Conv_output_0: 3dc69346
/model.38/Concat_2_output_0: 3dc310dc
/model.38/Reshape_output_0: 3ea413ef
/model.38/Reshape_1_output_0: 3e5e0e02
/model.38/Reshape_2_output_0: 3dc310dc
/model.38/Concat_6_output_0: 3e948ccc
(Unnamed Layer* 967) [Constant]_output: 3e810a14
/model.38/Split_output_0: 3d810a14
/model.38/Split_output_1: 3e010a14
/model.38/Split_output_2: 3e810a14
/model.38/Range_output_0: 3f1f4871
(Unnamed Layer* 991) [Shuffle]_output: 3c010a14
(Unnamed Layer* 993) [Shuffle]_output: 3b810a14
/model.38/Add_output_0: 3f204a85
/model.38/Range_1_output_0: 3f1f4871
(Unnamed Layer* 1006) [Shuffle]_output: 3c010a14
(Unnamed Layer* 1008) [Shuffle]_output: 3b810a14
/model.38/Add_1_output_0: 3f204a85
/model.38/Reshape_5_output_0: 3f204a85
/model.38/Expand_output_0: 3f204a85
/model.38/Reshape_6_output_0: 3f204a85
/model.38/Expand_1_output_0: 3f204a85
/model.38/Unsqueeze_3_output_0: 3f204a85
/model.38/Unsqueeze_4_output_0: 3f204a85
/model.38/Concat_10_output_0: 3f204a85
/model.38/Reshape_7_output_0: 3f204a85
(Unnamed Layer* 1059) [Constant]_output: 0
(Unnamed Layer* 1060) [Shuffle]_output: 0
/model.38/ConstantOfShape_output_0: 0
(Unnamed Layer* 1063) [Shuffle]_output: 3d810a14
/model.38/Add_2_output_0: 3d810a14
/model.38/Range_2_output_0: 3e9d4449
(Unnamed Layer* 1082) [Shuffle]_output: 3c010a14
(Unnamed Layer* 1084) [Shuffle]_output: 3b810a14
/model.38/Add_3_output_0: 3e9f4871
/model.38/Range_3_output_0: 3e9d4449
(Unnamed Layer* 1097) [Shuffle]_output: 3c010a14
(Unnamed Layer* 1099) [Shuffle]_output: 3b810a14
/model.38/Add_4_output_0: 3e9f4871
/model.38/Reshape_10_output_0: 3e9f4871
/model.38/Expand_2_output_0: 3e9f4871
/model.38/Reshape_11_output_0: 3e9f4871
/model.38/Expand_3_output_0: 3e9f4871
/model.38/Unsqueeze_6_output_0: 3e9f4871
/model.38/Unsqueeze_7_output_0: 3e9f4871
/model.38/Concat_15_output_0: 3e9f4871
/model.38/Reshape_12_output_0: 3e9f4871
(Unnamed Layer* 1150) [Constant]_output: 0
(Unnamed Layer* 1151) [Shuffle]_output: 0
/model.38/ConstantOfShape_1_output_0: 0
(Unnamed Layer* 1154) [Shuffle]_output: 3e010a14
/model.38/Add_5_output_0: 3e010a14
/model.38/Range_4_output_0: 3e193bf8
(Unnamed Layer* 1173) [Shuffle]_output: 3c010a14
(Unnamed Layer* 1175) [Shuffle]_output: 3b810a14
/model.38/Add_6_output_0: 3e1d4449
/model.38/Range_5_output_0: 3e193bf8
(Unnamed Layer* 1188) [Shuffle]_output: 3c010a14
(Unnamed Layer* 1190) [Shuffle]_output: 3b810a14
/model.38/Add_7_output_0: 3e1d4449
/model.38/Reshape_15_output_0: 3e1d4449
/model.38/Expand_4_output_0: 3e1d4449
/model.38/Reshape_16_output_0: 3e1d4449
/model.38/Expand_5_output_0: 3e1d4449
/model.38/Unsqueeze_9_output_0: 3e1d4449
/model.38/Unsqueeze_10_output_0: 3e1d4449
/model.38/Concat_20_output_0: 3e1d4449
/model.38/Reshape_17_output_0: 3e1d4449
(Unnamed Layer* 1241) [Constant]_output: 0
(Unnamed Layer* 1242) [Shuffle]_output: 0
/model.38/ConstantOfShape_2_output_0: 0
(Unnamed Layer* 1245) [Shuffle]_output: 3e810a14
/model.38/Add_8_output_0: 3e810a14
/model.38/Concat_22_output_0: 3f204a85
/model.38/Concat_23_output_0: 3e810a14
/model.38/Transpose_output_0: 3f204a85
/model.38/Transpose_1_output_0: 3e810a14
/model.38/Split_1_output_0: 3dd7938c
/model.38/Split_1_output_1: 3ed0efa8
/model.38/dfl/Reshape_output_0: 3dd7938c
/model.38/dfl/Transpose_output_0: 3dd7938c
(Unnamed Layer* 1274) [Softmax]_output: 3bd87d70
/model.38/dfl/conv/Conv_output_0: 3d9e18e5
/model.38/dfl/Reshape_1_output_0: 3d9e18e5
/model.38/Unsqueeze_12_output_0: 3f204a85
/model.38/Slice_output_0: 3d9e18e5
/model.38/Slice_1_output_0: 3d74bc97
/model.38/Sub_output_0: 3f1fe1eb
/model.38/Add_10_output_0: 3f21956b
/model.38/Add_11_output_0: 3fa0c337
(Unnamed Layer* 1357) [Shuffle]_output: 3c810a14
/model.38/Div_1_output_0: 3f20c337
/model.38/Sub_1_output_0: 3df46874
/model.38/Concat_24_output_0: 3f313d2c
(Unnamed Layer* 1364) [Shuffle]_output: 3e810a14
/model.38/Mul_5_output_0: 40a5f0dc
/model.38/Sigmoid_output_0: 3be45391
output0: 40a5f0dc
