TRT-8503-EntropyCalibration2
images: 3bf80000
/Slice_output_0: 3bf80000
/Slice_1_output_0: 3bf80000
/model.0/conv/Conv_output_0: 3e1893d9
/model.0/act/Sigmoid_output_0: 3c010a14
/model.0/act/Mul_output_0: 3e00f4aa
/model.1/conv/Conv_output_0: 3e009a8f
/model.1/act/Sigmoid_output_0: 3c0068d2
/model.1/act/Mul_output_0: 3d002b2f
/model.2/cv1/conv/Conv_output_0: 3d6b7811
/model.2/cv1/act/Sigmoid_output_0: 3c02b537
/model.2/cv1/act/Mul_output_0: 3c6b7992
/model.2/Split_output_0: 3d0025f7
/model.2/Split_output_1: 3c6b54a2
/model.2/m.0/cv1/conv/Conv_output_0: 3d62726b
/model.2/m.0/cv1/act/Sigmoid_output_0: 3c0376d5
/model.2/m.0/cv1/act/Mul_output_0: 3cbe8b37
/model.2/m.0/cv2/conv/Conv_output_0: 3d7dc132
/model.2/m.0/cv2/act/Sigmoid_output_0: 3c010a14
/model.2/m.0/cv2/act/Mul_output_0: 3d6a3f3f
/model.2/m.0/Add_output_0: 3d4ad1ac
/model.2/Concat_output_0: 3d3ff003
/model.2/cv2/conv/Conv_output_0: 3d4dad92
/model.2/cv2/act/Sigmoid_output_0: 3bff9b20
/model.2/cv2/act/Mul_output_0: 3ce5de28
/model.3/conv/Conv_output_0: 3ce6abf3
/model.3/act/Sigmoid_output_0: 3bfe0f15
/model.3/act/Mul_output_0: 3cb196e1
/model.4/conv/Conv_output_0: 3dada6c2
/model.4/act/Sigmoid_output_0: 3c010a14
/model.4/act/Mul_output_0: 3d6b259e
/model.5/conv/Conv_output_0: 3d33f919
/model.5/act/Sigmoid_output_0: 3c010a14
/model.5/act/Mul_output_0: 3d112b22
/model.6/cv1/conv/Conv_output_0: 3d86439d
/model.6/cv1/act/Sigmoid_output_0: 3c03f7ef
/model.6/cv1/act/Mul_output_0: 3d60f39c
/model.6/Split_output_0: 3d2178ae
/model.6/Split_output_1: 3d234034
/model.6/m.0/spatial_mixing/Split_output_0: 3d41c833
/model.6/m.0/spatial_mixing/Split_output_1: 3d6b902f
/model.6/m.0/spatial_mixing/partial_conv3/Conv_output_0: 3d0265c7
/model.6/m.0/spatial_mixing/Concat_output_0: 3d402cff
/model.6/m.0/mlp/mlp.0/conv/Conv_output_0: 3d8718ab
/model.6/m.0/mlp/mlp.0/act/Sigmoid_output_0: 3c003042
/model.6/m.0/mlp/mlp.0/act/Mul_output_0: 3cfff22a
/model.6/Concat_output_0: 3d60f39c
/model.6/cv2/conv/Conv_output_0: 3d832453
/model.6/cv2/act/Sigmoid_output_0: 3c070f88
/model.6/cv2/act/Mul_output_0: 3d101178
/model.7/conv/Conv_output_0: 3d3811fe
/model.7/act/Sigmoid_output_0: 3c033492
/model.7/act/Mul_output_0: 3d13a634
/Concat_output_0: 3d135735
/model.8/avg_pool/GlobalAveragePool_output_0: 3cfe45e1
/model.8/Reshape_output_0: 3cfe45e1
(Unnamed Layer* 147) [Constant]_output: 3b807a16
/model.8/fc/fc.0/MatMul_output_0: 3cdffa88
/model.8/fc/fc.1/Relu_output_0: 3d11e99a
(Unnamed Layer* 150) [Constant]_output: 3b3beb0e
/model.8/fc/fc.2/MatMul_output_0: 3c7a1d0e
/model.8/fc/fc.3/Sigmoid_output_0: 3be16450
/model.8/Reshape_1_output_0: 3be16450
/model.8/Mul_output_0: 3d013ab9
/model.8/Slice_output_0: 3d2f0e8b
/model.8/Slice_1_output_0: 3c9aca56
/model.8/Concat_2_output_0: 3d013ab9
/model.8/Add_output_0: 3d589361
/Slice_2_output_0: 3d5793ec
/Slice_3_output_0: 3d42a606
/model.9/cv1/conv/Conv_output_0: 3d5e7090
/model.9/cv1/act/Sigmoid_output_0: 3c06d7ea
/model.9/cv1/act/Mul_output_0: 3d005b35
/model.9/Split_output_0: 3d005b35
/model.9/Split_output_1: 3cd27afa
/model.9/m.0/cv1/conv/Conv_output_0: 3d5f087b
/model.9/m.0/cv1/act/Sigmoid_output_0: 3c008721
/model.9/m.0/cv1/act/Mul_output_0: 3cd19fde
/model.9/m.0/cv2/conv/Conv_output_0: 3d5dd28f
/model.9/m.0/cv2/act/Sigmoid_output_0: 3c00c8a9
/model.9/m.0/cv2/act/Mul_output_0: 3d00a4e2
/model.9/m.0/Add_output_0: 3d520482
/model.9/m.1/cv1/conv/Conv_output_0: 3d7c9c7d
/model.9/m.1/cv1/act/Sigmoid_output_0: 3c00cd56
/model.9/m.1/cv1/act/Mul_output_0: 3cd1e51e
/model.9/m.1/cv2/conv/Conv_output_0: 3da3e65a
/model.9/m.1/cv2/act/Sigmoid_output_0: 3c063c6e
/model.9/m.1/cv2/act/Mul_output_0: 3d6fd596
/model.9/m.1/Add_output_0: 3dba36e2
/model.9/Concat_output_0: 3d711995
/model.9/cv2/conv/Conv_output_0: 3d899092
/model.9/cv2/act/Sigmoid_output_0: 3c0213ac
/model.9/cv2/act/Mul_output_0: 3d01bfeb
/model.10/conv/Conv_output_0: 3d869bd1
/model.10/act/Sigmoid_output_0: 3c00f0ae
/model.10/act/Mul_output_0: 3d1064a1
/model.11/cv1/conv/Conv_output_0: 3d86aea9
/model.11/cv1/act/Sigmoid_output_0: 3bffce4a
/model.11/cv1/act/Mul_output_0: 3d00fae7
/model.11/Split_output_0: 3d0220f5
/model.11/Split_output_1: 3d0f7f9b
/model.11/m.0/spatial_mixing/Split_output_0: 3cfe7fc9
/model.11/m.0/spatial_mixing/Split_output_1: 3d0f7f9b
/model.11/m.0/spatial_mixing/partial_conv3/Conv_output_0: 3cd009b1
/model.11/m.0/spatial_mixing/Concat_output_0: 3d108915
/model.11/m.0/mlp/mlp.0/conv/Conv_output_0: 3d28d688
/model.11/m.0/mlp/mlp.0/act/Sigmoid_output_0: 3c0089be
/model.11/m.0/mlp/mlp.0/act/Mul_output_0: 3d002b22
/model.11/m.1/spatial_mixing/Split_output_0: 3cd241b3
/model.11/m.1/spatial_mixing/Split_output_1: 3cbfd3bf
/model.11/m.1/spatial_mixing/partial_conv3/Conv_output_0: 3cc2b1ce
/model.11/m.1/spatial_mixing/Concat_output_0: 3cbfd3bf
/model.11/m.1/mlp/mlp.0/conv/Conv_output_0: 3d65bae4
/model.11/m.1/mlp/mlp.0/act/Sigmoid_output_0: 3c020d4a
/model.11/m.1/mlp/mlp.0/act/Mul_output_0: 3d0130d1
/model.11/Concat_output_0: 3d0130d1
/model.11/cv2/conv/Conv_output_0: 3d0d4b66
/model.11/cv2/act/Sigmoid_output_0: 3c004652
/model.11/cv2/act/Mul_output_0: 3d10da15
/model.12/conv/Conv_output_0: 3d430a44
/model.12/act/Sigmoid_output_0: 3bffe163
/model.12/act/Mul_output_0: 3cd59eec
/Concat_1_output_0: 3ce6d5f4
/model.13/avg_pool/GlobalAveragePool_output_0: 3c63fdee
/model.13/Reshape_output_0: 3c63fdee
(Unnamed Layer* 369) [Constant]_output: 3a9fc97b
/model.13/fc/fc.0/MatMul_output_0: 3c8c80db
/model.13/fc/fc.1/Relu_output_0: 3c8c80db
(Unnamed Layer* 372) [Constant]_output: 3aa688a5
/model.13/fc/fc.2/MatMul_output_0: 3c216545
/model.13/fc/fc.3/Sigmoid_output_0: 3bd09d4b
/model.13/Reshape_1_output_0: 3bd09d4b
/model.13/Mul_output_0: 3cacacd5
/model.13/Slice_output_0: 3c540419
/model.13/Slice_1_output_0: 3ccba0c3
/model.13/Concat_2_output_0: 3cacacd5
/model.13/Add_output_0: 3d438963
/Slice_4_output_0: 3d5a98f6
/Slice_5_output_0: 3d2e6f6e
/model.14/cv1/conv/Conv_output_0: 3d897e6f
/model.14/cv1/act/Sigmoid_output_0: 3c00f050
/model.14/cv1/act/Mul_output_0: 3ce8d3d7
/model.14/Split_output_0: 3d118e6e
/model.14/Split_output_1: 3cd27504
/model.14/m.0/cv1/conv/Conv_output_0: 3d864ed2
/model.14/m.0/cv1/act/Sigmoid_output_0: 3c00e8ea
/model.14/m.0/cv1/act/Mul_output_0: 3d00a9f3
/model.14/m.0/cv2/conv/Conv_output_0: 3d81ee38
/model.14/m.0/cv2/act/Sigmoid_output_0: 3c00ecdc
/model.14/m.0/cv2/act/Mul_output_0: 3d01d774
/model.14/m.0/Add_output_0: 3d656079
/model.14/m.1/cv1/conv/Conv_output_0: 3d8dce47
/model.14/m.1/cv1/act/Sigmoid_output_0: 3c00e691
/model.14/m.1/cv1/act/Mul_output_0: 3ce7532a
/model.14/m.1/cv2/conv/Conv_output_0: 3d993637
/model.14/m.1/cv2/act/Sigmoid_output_0: 3c00f0a9
/model.14/m.1/cv2/act/Mul_output_0: 3d1020b6
/model.14/m.1/Add_output_0: 3d83e846
/model.14/Concat_output_0: 3d428e6a
/model.14/cv2/conv/Conv_output_0: 3d8d9c43
/model.14/cv2/act/Sigmoid_output_0: 3c00f18f
/model.14/cv2/act/Mul_output_0: 3d00ece5
/model.15/conv/Conv_output_0: 3d5e84ef
/model.15/act/Sigmoid_output_0: 3c00e76e
/model.15/act/Mul_output_0: 3d123c7f
/model.16/cv1/conv/Conv_output_0: 3d486a21
/model.16/cv1/act/Sigmoid_output_0: 3c004f26
/model.16/cv1/act/Mul_output_0: 3cd386c7
/model.16/Split_output_0: 3cd2163e
/model.16/Split_output_1: 3cd386c7
/model.16/m.0/spatial_mixing/Split_output_0: 3cd386c7
/model.16/m.0/spatial_mixing/Split_output_1: 3cea78e3
/model.16/m.0/spatial_mixing/partial_conv3/Conv_output_0: 3cf97c75
/model.16/m.0/spatial_mixing/Concat_output_0: 3cea78e3
/model.16/m.0/mlp/mlp.0/conv/Conv_output_0: 3d416d36
/model.16/m.0/mlp/mlp.0/act/Sigmoid_output_0: 3c002658
/model.16/m.0/mlp/mlp.0/act/Mul_output_0: 3cd182a8
/model.16/m.1/spatial_mixing/Split_output_0: 3cd182a8
/model.16/m.1/spatial_mixing/Split_output_1: 3cc36787
/model.16/m.1/spatial_mixing/partial_conv3/Conv_output_0: 3cc15c28
/model.16/m.1/spatial_mixing/Concat_output_0: 3ce9fa8f
/model.16/m.1/mlp/mlp.0/conv/Conv_output_0: 3d68b331
/model.16/m.1/mlp/mlp.0/act/Sigmoid_output_0: 3c007ab9
/model.16/m.1/mlp/mlp.0/act/Mul_output_0: 3d0277fa
/model.16/Concat_output_0: 3d0277fa
/model.16/cv2/conv/Conv_output_0: 3d4afcfe
/model.16/cv2/act/Sigmoid_output_0: 3c013be1
/model.16/cv2/act/Mul_output_0: 3d024a19
/model.17/conv/Conv_output_0: 3d3f0a6c
/model.17/act/Sigmoid_output_0: 3c008651
/model.17/act/Mul_output_0: 3ce8817f
/Concat_2_output_0: 3ce99f7b
/model.18/avg_pool/GlobalAveragePool_output_0: 3c7dd622
/model.18/Reshape_output_0: 3c7dd622
(Unnamed Layer* 591) [Constant]_output: 3a11bb22
/model.18/fc/fc.0/MatMul_output_0: 3cedf2af
/model.18/fc/fc.1/Relu_output_0: 3cedf2af
(Unnamed Layer* 594) [Constant]_output: 3a462375
/model.18/fc/fc.2/MatMul_output_0: 3c3b35a9
/model.18/fc/fc.3/Sigmoid_output_0: 3bd9ddfd
/model.18/Reshape_1_output_0: 3bd9ddfd
/model.18/Mul_output_0: 3cadbc38
/model.18/Slice_output_0: 3c99d219
/model.18/Slice_1_output_0: 3cb26810
/model.18/Concat_2_output_0: 3cadbc38
/model.18/Add_output_0: 3d2e6e29
/Slice_6_output_0: 3d4d3c93
/Slice_7_output_0: 3d1a5021
/model.19/cv1/conv/Conv_output_0: 3d4af300
/model.19/cv1/act/Sigmoid_output_0: 3c00845d
/model.19/cv1/act/Mul_output_0: 3cea2bb2
/model.19/Split_output_0: 3cea2bb2
/model.19/Split_output_1: 3cd404b8
/model.19/m.0/cv1/conv/Conv_output_0: 3d804e06
/model.19/m.0/cv1/act/Sigmoid_output_0: 3c00c3fa
/model.19/m.0/cv1/act/Mul_output_0: 3d016219
/model.19/m.0/cv2/conv/Conv_output_0: 3d6a743a
/model.19/m.0/cv2/act/Sigmoid_output_0: 3c00e778
/model.19/m.0/cv2/act/Mul_output_0: 3d125022
/model.19/m.0/Add_output_0: 3d8e4d80
/model.19/Concat_output_0: 3d28dc84
/model.19/cv2/conv/Conv_output_0: 3d53eb37
/model.19/cv2/act/Sigmoid_output_0: 3c007091
/model.19/cv2/act/Mul_output_0: 3d020b69
/model.20/cv1/conv/Conv_output_0: 3d4e2311
/model.20/cv1/act/Sigmoid_output_0: 3c00bc19
/model.20/cv1/act/Mul_output_0: 3ce69589
/model.20/m/MaxPool_output_0: 3ce69589
/model.20/m_1/MaxPool_output_0: 3ce69589
/model.20/m_2/MaxPool_output_0: 3ce69589
/model.20/Concat_output_0: 3d663ce7
/model.20/cv2/conv/Conv_output_0: 3d6c69cb
/model.20/cv2/act/Sigmoid_output_0: 3c00a623
/model.20/cv2/act/Mul_output_0: 3cd0d6ec
/model.21/cv1/conv/Conv_output_0: 3d3cb72a
/model.21/cv1/act/Sigmoid_output_0: 3c009d1d
/model.21/cv1/act/Mul_output_0: 3ce87660
/model.21/Split_output_0: 3ce8b4d2
/model.21/Split_output_1: 3ce87660
/model.21/m.0/spatial_mixing/Split_output_0: 3ce87660
/model.21/m.0/spatial_mixing/Split_output_1: 3cd219af
/model.21/m.0/spatial_mixing/partial_conv3/Conv_output_0: 3d15ba43
/model.21/m.0/spatial_mixing/Concat_output_0: 3cd219af
/model.21/m.0/mlp/mlp.0/conv/Conv_output_0: 3d488487
/model.21/m.0/mlp/mlp.0/act/Sigmoid_output_0: 3c005de5
/model.21/m.0/mlp/mlp.0/act/Mul_output_0: 3ce9aba9
/model.21/Concat_output_0: 3ce87660
/model.21/cv2/conv/Conv_output_0: 3d3c295d
/model.21/cv2/act/Sigmoid_output_0: 3c0090c1
/model.21/cv2/act/Mul_output_0: 3cd4c334
/model.22/cv1/conv/Conv_output_0: 3d4591b1
/model.22/cv1/act/Sigmoid_output_0: 3c00b117
/model.22/cv1/act/Mul_output_0: 3d02184d
/model.22/m/MaxPool_output_0: 3d02184d
/model.22/m_1/MaxPool_output_0: 3d02184d
/model.22/m_2/MaxPool_output_0: 3d02184d
/model.22/Concat_output_0: 3d69f3ff
/model.22/cv2/conv/Conv_output_0: 3d6aa602
/model.22/cv2/act/Sigmoid_output_0: 3c005c97
/model.22/cv2/act/Mul_output_0: 3ce955aa
/model.23/Add_output_0: 3d8070ae
/model.24/Add_output_0: 3d8ff2f1
/model.25/Add_output_0: 3d649495
/model.26/Resize_output_0: 3d649495
/model.27/Concat_output_0: 3d81466c
/model.28/cv1/conv/Conv_output_0: 3d7bdbfc
/model.28/cv1/act/Sigmoid_output_0: 3c00c55a
/model.28/cv1/act/Mul_output_0: 3ceb62fe
/model.28/Split_output_0: 3d1345a3
/model.28/Split_output_1: 3d024a2f
/model.28/m.0/cv1/conv/Conv_output_0: 3d73c277
/model.28/m.0/cv1/act/Sigmoid_output_0: 3c00cddf
/model.28/m.0/cv1/act/Mul_output_0: 3d023a82
/model.28/m.0/cv2/conv/Conv_output_0: 3d80e49c
/model.28/m.0/cv2/act/Sigmoid_output_0: 3c00ee8c
/model.28/m.0/cv2/act/Mul_output_0: 3d0fe048
/model.28/Concat_output_0: 3cd0ee8e
/model.28/cv2/conv/Conv_output_0: 3d6efee4
/model.28/cv2/act/Sigmoid_output_0: 3c00eefa
/model.28/cv2/act/Mul_output_0: 3d120827
/model.29/Resize_output_0: 3d120827
/model.30/Concat_output_0: 3d00e4b4
/model.31/cv1/conv/Conv_output_0: 3d4f9876
/model.31/cv1/act/Sigmoid_output_0: 3c0079a8
/model.31/cv1/act/Mul_output_0: 3d01a13a
/model.31/Split_output_0: 3d26cc14
/model.31/Split_output_1: 3ce9c6bb
/model.31/m.0/cv1/conv/Conv_output_0: 3d44c3eb
/model.31/m.0/cv1/act/Sigmoid_output_0: 3c0012e4
/model.31/m.0/cv1/act/Mul_output_0: 3cb16f46
/model.31/m.0/cv2/conv/Conv_output_0: 3d881ebc
/model.31/m.0/cv2/act/Sigmoid_output_0: 3c00e46c
/model.31/m.0/cv2/act/Mul_output_0: 3d41fad7
/model.31/Concat_output_0: 3d1193b7
/model.31/cv2/conv/Conv_output_0: 3da980c6
/model.31/cv2/act/Sigmoid_output_0: 3c00eccb
/model.31/cv2/act/Mul_output_0: 3d01a4f0
/model.32/conv/Conv_output_0: 3d9f7857
/model.32/act/Sigmoid_output_0: 3c0213bc
/model.32/act/Mul_output_0: 3d450c25
/model.33/Concat_output_0: 3d28f956
/model.34/cv1/conv/Conv_output_0: 3d813cc9
/model.34/cv1/act/Sigmoid_output_0: 3c010dca
/model.34/cv1/act/Mul_output_0: 3cd19f66
/model.34/Split_output_0: 3ce7ad19
/model.34/Split_output_1: 3cd19f66
/model.34/m.0/cv1/conv/Conv_output_0: 3d8167da
/model.34/m.0/cv1/act/Sigmoid_output_0: 3c011163
/model.34/m.0/cv1/act/Mul_output_0: 3ce86751
/model.34/m.0/cv2/conv/Conv_output_0: 3d848926
/model.34/m.0/cv2/act/Sigmoid_output_0: 3c01119f
/model.34/m.0/cv2/act/Mul_output_0: 3d00c96d
/model.34/Concat_output_0: 3d00c96d
/model.34/cv2/conv/Conv_output_0: 3d87ac4b
/model.34/cv2/act/Sigmoid_output_0: 3c00f9e0
/model.34/cv2/act/Mul_output_0: 3d12b850
/model.35/conv/Conv_output_0: 3d347336
/model.35/act/Sigmoid_output_0: 3c009f3f
/model.35/act/Mul_output_0: 3cb0ecf2
/model.36/Concat_output_0: 3d240d44
/model.37/cv1/conv/Conv_output_0: 3d0a5f49
/model.37/cv1/act/Sigmoid_output_0: 3bff7813
/model.37/cv1/act/Mul_output_0: 3cd494ae
/model.37/Split_output_0: 3cd494ae
/model.37/Split_output_1: 3cb211df
/model.37/m.0/cv1/conv/Conv_output_0: 3d06abaa
/model.37/m.0/cv1/act/Sigmoid_output_0: 3bfe173d
/model.37/m.0/cv1/act/Mul_output_0: 3ca616fa
/model.37/m.0/cv2/conv/Conv_output_0: 3d02f7ac
/model.37/m.0/cv2/act/Sigmoid_output_0: 3bfd7925
/model.37/m.0/cv2/act/Mul_output_0: 3c9ab585
/model.37/Concat_output_0: 3cd494ae
/model.37/cv2/conv/Conv_output_0: 3ce7b90f
/model.37/cv2/act/Sigmoid_output_0: 3bfbd531
/model.37/cv2/act/Mul_output_0: 3ca5d30c
/model.38/cv2.0/cv2.0.0/conv/Conv_output_0: 3d93956a
/model.38/cv2.0/cv2.0.0/act/Sigmoid_output_0: 3c0082d8
/model.38/cv2.0/cv2.0.0/act/Mul_output_0: 3d01129e
/model.38/cv2.0/cv2.0.1/conv/Conv_output_0: 3da9c7c4
/model.38/cv2.0/cv2.0.1/act/Sigmoid_output_0: 3c01121e
/model.38/cv2.0/cv2.0.1/act/Mul_output_0: 3d709fe4
/model.38/cv2.0/cv2.0.2/Conv_output_0: 3e046c5a
/model.38/cv3.0/cv3.0.0/conv/Conv_output_0: 3dc18fcf
/model.38/cv3.0/cv3.0.0/act/Sigmoid_output_0: 3c0111e4
/model.38/cv3.0/cv3.0.0/act/Mul_output_0: 3d29ac67
/model.38/cv3.0/cv3.0.1/conv/Conv_output_0: 3e69c90f
/model.38/cv3.0/cv3.0.1/act/Sigmoid_output_0: 3c010a14
/model.38/cv3.0/cv3.0.1/act/Mul_output_0: 3d84992a
/model.38/cv3.0/cv3.0.2/Conv_output_0: 3f19d301
/model.38/Concat_output_0: 3eacc503
/model.38/cv2.1/cv2.1.0/conv/Conv_output_0: 3d820c26
/model.38/cv2.1/cv2.1.0/act/Sigmoid_output_0: 3c00efca
/model.38/cv2.1/cv2.1.0/act/Mul_output_0: 3d121a72
/model.38/cv2.1/cv2.1.1/conv/Conv_output_0: 3dc8ab2c
/model.38/cv2.1/cv2.1.1/act/Sigmoid_output_0: 3c010a14
/model.38/cv2.1/cv2.1.1/act/Mul_output_0: 3d44bbe6
/model.38/cv2.1/cv2.1.2/Conv_output_0: 3dce6d47
/model.38/cv3.1/cv3.1.0/conv/Conv_output_0: 3da3db3b
/model.38/cv3.1/cv3.1.0/act/Sigmoid_output_0: 3c010f1e
/model.38/cv3.1/cv3.1.0/act/Mul_output_0: 3d1174d5
/model.38/cv3.1/cv3.1.1/conv/Conv_output_0: 3ddd6261
/model.38/cv3.1/cv3.1.1/act/Sigmoid_output_0: 3c010a14
/model.38/cv3.1/cv3.1.1/act/Mul_output_0: 3d98533d
/model.38/cv3.1/cv3.1.2/Conv_output_0: 3e915c1f
/model.38/Concat_1_output_0: 3e54bbb4
/model.38/cv2.2/cv2.2.0/conv/Conv_output_0: 3d0cb60c
/model.38/cv2.2/cv2.2.0/act/Sigmoid_output_0: 3c00f1dc
/model.38/cv2.2/cv2.2.0/act/Mul_output_0: 3cb2334d
/model.38/cv2.2/cv2.2.1/conv/Conv_output_0: 3d25f26a
/model.38/cv2.2/cv2.2.1/act/Sigmoid_output_0: 3c010576
/model.38/cv2.2/cv2.2.1/act/Mul_output_0: 3ce4c5d3
/model.38/cv2.2/cv2.2.2/Conv_output_0: 3c2612e0
/model.38/cv3.2/cv3.2.0/conv/Conv_output_0: 3cbe5943
/model.38/cv3.2/cv3.2.0/act/Sigmoid_output_0: 3bf0e857
/model.38/cv3.2/cv3.2.0/act/Mul_output_0: 3c5151d4
/model.38/cv3.2/cv3.2.1/conv/Conv_output_0: 3caef70c
/model.38/cv3.2/cv3.2.1/act/Sigmoid_output_0: 3beeba57
/model.38/cv3.2/cv3.2.1/act/Mul_output_0: 3c9bb9d5
/model.38/cv3.2/cv3.2.2/Conv_output_0: 3dc66303
/model.38/Concat_2_output_0: 3dc3439c
/model.38/Reshape_output_0: 3eacc503
/model.38/Reshape_1_output_0: 3e54bbb4
/model.38/Reshape_2_output_0: 3dc3439c
/model.38/Concat_6_output_0: 3e93d819
(Unnamed Layer* 967) [Constant]_output: 3e810a14
/model.38/Split_output_0: 3d810a14
/model.38/Split_output_1: 3e010a14
/model.38/Split_output_2: 3e810a14
/model.38/Range_output_0: 3f1f4871
(Unnamed Layer* 991) [Shuffle]_output: 3c010a14
(Unnamed Layer* 993) [Shuffle]_output: 3b810a14
/model.38/Add_output_0: 3f204a85
/model.38/Range_1_output_0: 3f1f4871
(Unnamed Layer* 1006) [Shuffle]_output: 3c010a14
(Unnamed Layer* 1008) [Shuffle]_output: 3b810a14
/model.38/Add_1_output_0: 3f204a85
/model.38/Reshape_5_output_0: 3f204a85
/model.38/Expand_output_0: 3f204a85
/model.38/Reshape_6_output_0: 3f204a85
/model.38/Expand_1_output_0: 3f204a85
/model.38/Unsqueeze_3_output_0: 3f204a85
/model.38/Unsqueeze_4_output_0: 3f204a85
/model.38/Concat_10_output_0: 3f204a85
/model.38/Reshape_7_output_0: 3f204a85
(Unnamed Layer* 1059) [Constant]_output: 0
(Unnamed Layer* 1060) [Shuffle]_output: 0
/model.38/ConstantOfShape_output_0: 0
(Unnamed Layer* 1063) [Shuffle]_output: 3d810a14
/model.38/Add_2_output_0: 3d810a14
/model.38/Range_2_output_0: 3e9d4449
(Unnamed Layer* 1082) [Shuffle]_output: 3c010a14
(Unnamed Layer* 1084) [Shuffle]_output: 3b810a14
/model.38/Add_3_output_0: 3e9f4871
/model.38/Range_3_output_0: 3e9d4449
(Unnamed Layer* 1097) [Shuffle]_output: 3c010a14
(Unnamed Layer* 1099) [Shuffle]_output: 3b810a14
/model.38/Add_4_output_0: 3e9f4871
/model.38/Reshape_10_output_0: 3e9f4871
/model.38/Expand_2_output_0: 3e9f4871
/model.38/Reshape_11_output_0: 3e9f4871
/model.38/Expand_3_output_0: 3e9f4871
/model.38/Unsqueeze_6_output_0: 3e9f4871
/model.38/Unsqueeze_7_output_0: 3e9f4871
/model.38/Concat_15_output_0: 3e9f4871
/model.38/Reshape_12_output_0: 3e9f4871
(Unnamed Layer* 1150) [Constant]_output: 0
(Unnamed Layer* 1151) [Shuffle]_output: 0
/model.38/ConstantOfShape_1_output_0: 0
(Unnamed Layer* 1154) [Shuffle]_output: 3e010a14
/model.38/Add_5_output_0: 3e010a14
/model.38/Range_4_output_0: 3e193bf8
(Unnamed Layer* 1173) [Shuffle]_output: 3c010a14
(Unnamed Layer* 1175) [Shuffle]_output: 3b810a14
/model.38/Add_6_output_0: 3e1d4449
/model.38/Range_5_output_0: 3e193bf8
(Unnamed Layer* 1188) [Shuffle]_output: 3c010a14
(Unnamed Layer* 1190) [Shuffle]_output: 3b810a14
/model.38/Add_7_output_0: 3e1d4449
/model.38/Reshape_15_output_0: 3e1d4449
/model.38/Expand_4_output_0: 3e1d4449
/model.38/Reshape_16_output_0: 3e1d4449
/model.38/Expand_5_output_0: 3e1d4449
/model.38/Unsqueeze_9_output_0: 3e1d4449
/model.38/Unsqueeze_10_output_0: 3e1d4449
/model.38/Concat_20_output_0: 3e1d4449
/model.38/Reshape_17_output_0: 3e1d4449
(Unnamed Layer* 1241) [Constant]_output: 0
(Unnamed Layer* 1242) [Shuffle]_output: 0
/model.38/ConstantOfShape_2_output_0: 0
(Unnamed Layer* 1245) [Shuffle]_output: 3e810a14
/model.38/Add_8_output_0: 3e810a14
/model.38/Concat_22_output_0: 3f204a85
/model.38/Concat_23_output_0: 3e810a14
/model.38/Transpose_output_0: 3f204a85
/model.38/Transpose_1_output_0: 3e810a14
/model.38/Split_1_output_0: 3df0df09
/model.38/Split_1_output_1: 3ee03a85
/model.38/dfl/Reshape_output_0: 3df0df09
/model.38/dfl/Transpose_output_0: 3df0df09
(Unnamed Layer* 1274) [Softmax]_output: 3bd98155
/model.38/dfl/conv/Conv_output_0: 3d9d2352
/model.38/dfl/Reshape_1_output_0: 3d9d2352
/model.38/Unsqueeze_12_output_0: 3f204a85
/model.38/Slice_output_0: 3da02ca8
/model.38/Slice_1_output_0: 3d74afee
/model.38/Sub_output_0: 3f1ff3e2
/model.38/Add_10_output_0: 3f21b025
/model.38/Add_11_output_0: 3fa0b69f
(Unnamed Layer* 1357) [Shuffle]_output: 3c810a14
/model.38/Div_1_output_0: 3f20b69f
/model.38/Sub_1_output_0: 3df46a75
/model.38/Concat_24_output_0: 3f312f4b
(Unnamed Layer* 1364) [Shuffle]_output: 3e810a14
/model.38/Mul_5_output_0: 40a5e3dd
/model.38/Sigmoid_output_0: 3be61c95
output0: 40a5e3dd
