TRT-8503-EntropyCalibration2
images: 3bf80000
/Slice_output_0: 3bf80000
/Slice_1_output_0: 3bf80000
/model.0/conv/Conv_output_0: 3e024944
/model.0/act/Sigmoid_output_0: 3c010a14
/model.0/act/Mul_output_0: 3d802879
/model.1/conv/Conv_output_0: 3dc71579
/model.1/act/Sigmoid_output_0: 3c0068d2
/model.1/act/Mul_output_0: 3d0f024a
/model.2/cv1/conv/Conv_output_0: 3d39402c
/model.2/cv1/act/Sigmoid_output_0: 3c02b55f
/model.2/cv1/act/Mul_output_0: 3ce4704d
/model.2/Split_output_0: 3d1346fa
/model.2/Split_output_1: 3c4856d4
/model.2/m.0/cv1/conv/Conv_output_0: 3d5224c6
/model.2/m.0/cv1/act/Sigmoid_output_0: 3c0376c8
/model.2/m.0/cv1/act/Mul_output_0: 3c747cc5
/model.2/m.0/cv2/conv/Conv_output_0: 3d50892d
/model.2/m.0/cv2/act/Sigmoid_output_0: 3c010a14
/model.2/m.0/cv2/act/Mul_output_0: 3d6da4d8
/model.2/m.0/Add_output_0: 3d768c1c
/model.2/Concat_output_0: 3d42634e
/model.2/cv2/conv/Conv_output_0: 3d4d58bf
/model.2/cv2/act/Sigmoid_output_0: 3bff9cec
/model.2/cv2/act/Mul_output_0: 3cd23030
/model.3/conv/Conv_output_0: 3d01d04c
/model.3/act/Sigmoid_output_0: 3bfe28e3
/model.3/act/Mul_output_0: 3cc2bb98
/model.4/conv/Conv_output_0: 3da33906
/model.4/act/Sigmoid_output_0: 3c010a14
/model.4/act/Mul_output_0: 3d9935cd
/model.5/conv/Conv_output_0: 3d70a688
/model.5/act/Sigmoid_output_0: 3c010a14
/model.5/act/Mul_output_0: 3d45ac1f
/model.6/cv1/conv/Conv_output_0: 3d851587
/model.6/cv1/act/Sigmoid_output_0: 3c03f7ed
/model.6/cv1/act/Mul_output_0: 3d8ac61c
/model.6/Split_output_0: 3d3fbf51
/model.6/Split_output_1: 3d41beaf
/model.6/m.0/spatial_mixing/Split_output_0: 3d417afa
/model.6/m.0/spatial_mixing/Split_output_1: 3d231890
/model.6/m.0/spatial_mixing/partial_conv3/Conv_output_0: 3cdeb5bf
/model.6/m.0/spatial_mixing/Concat_output_0: 3d3c0d8c
/model.6/m.0/mlp/mlp.0/conv/Conv_output_0: 3d7bd290
/model.6/m.0/mlp/mlp.0/act/Sigmoid_output_0: 3c002fc3
/model.6/m.0/mlp/mlp.0/act/Mul_output_0: 3cd4ac47
/model.6/Concat_output_0: 3d3fbf51
/model.6/cv2/conv/Conv_output_0: 3d912463
/model.6/cv2/act/Sigmoid_output_0: 3c0717c6
/model.6/cv2/act/Mul_output_0: 3d02a806
/model.7/conv/Conv_output_0: 3d3364aa
/model.7/act/Sigmoid_output_0: 3c0333e0
/model.7/act/Mul_output_0: 3d263c6e
/Concat_output_0: 3d263c6e
/model.8/avg_pool/GlobalAveragePool_output_0: 3cf85e27
/model.8/Reshape_output_0: 3cf85e27
(Unnamed Layer* 147) [Constant]_output: 3b807a16
/model.8/fc/fc.0/MatMul_output_0: 3ce84aef
/model.8/fc/fc.1/Relu_output_0: 3d0edf47
(Unnamed Layer* 150) [Constant]_output: 3b3beb0e
/model.8/fc/fc.2/MatMul_output_0: 3c74f5ef
/model.8/fc/fc.3/Sigmoid_output_0: 3bf1abc8
/model.8/Reshape_1_output_0: 3bf1abc8
/model.8/Mul_output_0: 3cfda71b
/model.8/Slice_output_0: 3d32ff5b
/model.8/Slice_1_output_0: 3c8ab5c5
/model.8/Concat_2_output_0: 3cfda71b
/model.8/Add_output_0: 3d569b61
/Slice_2_output_0: 3d57181d
/Slice_3_output_0: 3d3b56d9
/model.9/cv1/conv/Conv_output_0: 3d5fc062
/model.9/cv1/act/Sigmoid_output_0: 3c06bb53
/model.9/cv1/act/Mul_output_0: 3d125db5
/model.9/Split_output_0: 3d125db5
/model.9/Split_output_1: 3d01b5ae
/model.9/m.0/cv1/conv/Conv_output_0: 3d6157e0
/model.9/m.0/cv1/act/Sigmoid_output_0: 3c012f1f
/model.9/m.0/cv1/act/Mul_output_0: 3cea1005
/model.9/m.0/cv2/conv/Conv_output_0: 3d5db0d1
/model.9/m.0/cv2/act/Sigmoid_output_0: 3c00bc7c
/model.9/m.0/cv2/act/Mul_output_0: 3d108039
/model.9/m.0/Add_output_0: 3d6589b3
/model.9/m.1/cv1/conv/Conv_output_0: 3d7a920a
/model.9/m.1/cv1/act/Sigmoid_output_0: 3c00c6ae
/model.9/m.1/cv1/act/Mul_output_0: 3cb2ba83
/model.9/m.1/cv2/conv/Conv_output_0: 3da403ea
/model.9/m.1/cv2/act/Sigmoid_output_0: 3c075e8d
/model.9/m.1/cv2/act/Mul_output_0: 3d6a0736
/model.9/m.1/Add_output_0: 3dbb467d
/model.9/Concat_output_0: 3d6a106a
/model.9/cv2/conv/Conv_output_0: 3d9377db
/model.9/cv2/act/Sigmoid_output_0: 3c0213c9
/model.9/cv2/act/Mul_output_0: 3cb0fee7
/model.10/conv/Conv_output_0: 3d86c5c8
/model.10/act/Sigmoid_output_0: 3c00efd5
/model.10/act/Mul_output_0: 3d126b7c
/model.11/cv1/conv/Conv_output_0: 3d5c298f
/model.11/cv1/act/Sigmoid_output_0: 3bffbd4c
/model.11/cv1/act/Mul_output_0: 3d102553
/model.11/Split_output_0: 3d013726
/model.11/Split_output_1: 3d0fe87b
/model.11/m.0/spatial_mixing/Split_output_0: 3cfe62e6
/model.11/m.0/spatial_mixing/Split_output_1: 3d0fe87b
/model.11/m.0/spatial_mixing/partial_conv3/Conv_output_0: 3ce085c9
/model.11/m.0/spatial_mixing/Concat_output_0: 3d0fe87b
/model.11/m.0/mlp/mlp.0/conv/Conv_output_0: 3d29dc20
/model.11/m.0/mlp/mlp.0/act/Sigmoid_output_0: 3c009a53
/model.11/m.0/mlp/mlp.0/act/Mul_output_0: 3d00ab25
/model.11/m.1/spatial_mixing/Split_output_0: 3cd160be
/model.11/m.1/spatial_mixing/Split_output_1: 3cc0a6b7
/model.11/m.1/spatial_mixing/partial_conv3/Conv_output_0: 3cc2b825
/model.11/m.1/spatial_mixing/Concat_output_0: 3d1089e5
/model.11/m.1/mlp/mlp.0/conv/Conv_output_0: 3d679c38
/model.11/m.1/mlp/mlp.0/act/Sigmoid_output_0: 3c0207e5
/model.11/m.1/mlp/mlp.0/act/Mul_output_0: 3d12bdef
/model.11/Concat_output_0: 3d11fec3
/model.11/cv2/conv/Conv_output_0: 3d0d3d50
/model.11/cv2/act/Sigmoid_output_0: 3c0052eb
/model.11/cv2/act/Mul_output_0: 3d0f9975
/model.12/conv/Conv_output_0: 3d42fcde
/model.12/act/Sigmoid_output_0: 3bffe385
/model.12/act/Mul_output_0: 3cd1dc25
/Concat_1_output_0: 3d126b7c
/model.13/avg_pool/GlobalAveragePool_output_0: 3c52c769
/model.13/Reshape_output_0: 3c52c769
(Unnamed Layer* 369) [Constant]_output: 3a9fc97b
/model.13/fc/fc.0/MatMul_output_0: 3c85018a
/model.13/fc/fc.1/Relu_output_0: 3c8db659
(Unnamed Layer* 372) [Constant]_output: 3aa688a5
/model.13/fc/fc.2/MatMul_output_0: 3c0eb6d9
/model.13/fc/fc.3/Sigmoid_output_0: 3bd0908f
/model.13/Reshape_1_output_0: 3bd0908f
/model.13/Mul_output_0: 3ca90022
/model.13/Slice_output_0: 3c54fb2b
/model.13/Slice_1_output_0: 3ca90022
/model.13/Concat_2_output_0: 3ca90022
/model.13/Add_output_0: 3d3e6d90
/Slice_4_output_0: 3d575006
/Slice_5_output_0: 3d2978d3
/model.14/cv1/conv/Conv_output_0: 3d89ba3a
/model.14/cv1/act/Sigmoid_output_0: 3c00eed0
/model.14/cv1/act/Mul_output_0: 3d112b5a
/model.14/Split_output_0: 3d112b5a
/model.14/Split_output_1: 3cea64bb
/model.14/m.0/cv1/conv/Conv_output_0: 3d86c310
/model.14/m.0/cv1/act/Sigmoid_output_0: 3c00ea7d
/model.14/m.0/cv1/act/Mul_output_0: 3cbfdf52
/model.14/m.0/cv2/conv/Conv_output_0: 3d8476de
/model.14/m.0/cv2/act/Sigmoid_output_0: 3c00d832
/model.14/m.0/cv2/act/Mul_output_0: 3cd1b6c8
/model.14/m.0/Add_output_0: 3d4d7161
/model.14/m.1/cv1/conv/Conv_output_0: 3d8e0b9a
/model.14/m.1/cv1/act/Sigmoid_output_0: 3c00e076
/model.14/m.1/cv1/act/Mul_output_0: 3ce72235
/model.14/m.1/cv2/conv/Conv_output_0: 3d970277
/model.14/m.1/cv2/act/Sigmoid_output_0: 3c00f9f0
/model.14/m.1/cv2/act/Mul_output_0: 3d278f30
/model.14/m.1/Add_output_0: 3d82b748
/model.14/Concat_output_0: 3d41b1b8
/model.14/cv2/conv/Conv_output_0: 3d8ca126
/model.14/cv2/act/Sigmoid_output_0: 3c00f0e8
/model.14/cv2/act/Mul_output_0: 3d133fca
/model.15/conv/Conv_output_0: 3d5fcc5a
/model.15/act/Sigmoid_output_0: 3c00e48a
/model.15/act/Mul_output_0: 3ce8ee78
/model.16/cv1/conv/Conv_output_0: 3d6aa06f
/model.16/cv1/act/Sigmoid_output_0: 3c00647e
/model.16/cv1/act/Mul_output_0: 3ce9f276
/model.16/Split_output_0: 3ce62954
/model.16/Split_output_1: 3ce9f276
/model.16/m.0/spatial_mixing/Split_output_0: 3ce9f276
/model.16/m.0/spatial_mixing/Split_output_1: 3cd10886
/model.16/m.0/spatial_mixing/partial_conv3/Conv_output_0: 3cf91e92
/model.16/m.0/spatial_mixing/Concat_output_0: 3cd10886
/model.16/m.0/mlp/mlp.0/conv/Conv_output_0: 3d41b87a
/model.16/m.0/mlp/mlp.0/act/Sigmoid_output_0: 3c000a9a
/model.16/m.0/mlp/mlp.0/act/Mul_output_0: 3cd48e1b
/model.16/m.1/spatial_mixing/Split_output_0: 3d01e511
/model.16/m.1/spatial_mixing/Split_output_1: 3cc03e3f
/model.16/m.1/spatial_mixing/partial_conv3/Conv_output_0: 3cc13144
/model.16/m.1/spatial_mixing/Concat_output_0: 3cc03e3f
/model.16/m.1/mlp/mlp.0/conv/Conv_output_0: 3d691167
/model.16/m.1/mlp/mlp.0/act/Sigmoid_output_0: 3c0055f2
/model.16/m.1/mlp/mlp.0/act/Mul_output_0: 3ce9d631
/model.16/Concat_output_0: 3ce9d631
/model.16/cv2/conv/Conv_output_0: 3d4b8d04
/model.16/cv2/act/Sigmoid_output_0: 3c013ec3
/model.16/cv2/act/Mul_output_0: 3ce9f7d4
/model.17/conv/Conv_output_0: 3d3e95d6
/model.17/act/Sigmoid_output_0: 3c007f29
/model.17/act/Mul_output_0: 3ce61746
/Concat_2_output_0: 3ce8ee78
/model.18/avg_pool/GlobalAveragePool_output_0: 3c70c3df
/model.18/Reshape_output_0: 3c70c3df
(Unnamed Layer* 591) [Constant]_output: 3a11bb22
/model.18/fc/fc.0/MatMul_output_0: 3cfc0a8a
/model.18/fc/fc.1/Relu_output_0: 3d00f7c7
(Unnamed Layer* 594) [Constant]_output: 3a462375
/model.18/fc/fc.2/MatMul_output_0: 3c3dc24f
/model.18/fc/fc.3/Sigmoid_output_0: 3bdfb535
/model.18/Reshape_1_output_0: 3bdfb535
/model.18/Mul_output_0: 3cc52978
/model.18/Slice_output_0: 3cc52978
/model.18/Slice_1_output_0: 3cb83dfa
/model.18/Concat_2_output_0: 3cc52978
/model.18/Add_output_0: 3d363ef5
/Slice_6_output_0: 3d48903d
/Slice_7_output_0: 3d3610c8
/model.19/cv1/conv/Conv_output_0: 3d4916df
/model.19/cv1/act/Sigmoid_output_0: 3c00d586
/model.19/cv1/act/Mul_output_0: 3cd421ca
/model.19/Split_output_0: 3cd421ca
/model.19/Split_output_1: 3cd44409
/model.19/m.0/cv1/conv/Conv_output_0: 3d832aeb
/model.19/m.0/cv1/act/Sigmoid_output_0: 3c00c094
/model.19/m.0/cv1/act/Mul_output_0: 3cc0180c
/model.19/m.0/cv2/conv/Conv_output_0: 3d776fe6
/model.19/m.0/cv2/act/Sigmoid_output_0: 3c00f713
/model.19/m.0/cv2/act/Mul_output_0: 3d276511
/model.19/m.0/Add_output_0: 3d8df261
/model.19/Concat_output_0: 3d268800
/model.19/cv2/conv/Conv_output_0: 3d58258d
/model.19/cv2/act/Sigmoid_output_0: 3c00bc6b
/model.19/cv2/act/Mul_output_0: 3ceaa5ad
/model.20/cv1/conv/Conv_output_0: 3d580021
/model.20/cv1/act/Sigmoid_output_0: 3c00c29a
/model.20/cv1/act/Mul_output_0: 3d135d94
/model.20/m/MaxPool_output_0: 3d135d94
/model.20/m_1/MaxPool_output_0: 3d135d94
/model.20/m_2/MaxPool_output_0: 3d135d94
/model.20/Concat_output_0: 3d68dac2
/model.20/cv2/conv/Conv_output_0: 3d8081a5
/model.20/cv2/act/Sigmoid_output_0: 3c009269
/model.20/cv2/act/Mul_output_0: 3ce648a2
/model.21/cv1/conv/Conv_output_0: 3d3eddb7
/model.21/cv1/act/Sigmoid_output_0: 3c00b58a
/model.21/cv1/act/Mul_output_0: 3cd4630d
/model.21/Split_output_0: 3ce7c3f6
/model.21/Split_output_1: 3cd4630d
/model.21/m.0/spatial_mixing/Split_output_0: 3d01c46d
/model.21/m.0/spatial_mixing/Split_output_1: 3cd4393f
/model.21/m.0/spatial_mixing/partial_conv3/Conv_output_0: 3d174c52
/model.21/m.0/spatial_mixing/Concat_output_0: 3cd4393f
/model.21/m.0/mlp/mlp.0/conv/Conv_output_0: 3d4c58cd
/model.21/m.0/mlp/mlp.0/act/Sigmoid_output_0: 3c007eae
/model.21/m.0/mlp/mlp.0/act/Mul_output_0: 3cd2a68e
/model.21/Concat_output_0: 3cd4630d
/model.21/cv2/conv/Conv_output_0: 3d3afe8b
/model.21/cv2/act/Sigmoid_output_0: 3c0051e4
/model.21/cv2/act/Mul_output_0: 3ce63308
/model.22/cv1/conv/Conv_output_0: 3d49a90f
/model.22/cv1/act/Sigmoid_output_0: 3c00bb1c
/model.22/cv1/act/Mul_output_0: 3d10fb92
/model.22/m/MaxPool_output_0: 3d10fb92
/model.22/m_1/MaxPool_output_0: 3d10fb92
/model.22/m_2/MaxPool_output_0: 3d10fb92
/model.22/Concat_output_0: 3d63afac
/model.22/cv2/conv/Conv_output_0: 3d5c78de
/model.22/cv2/act/Sigmoid_output_0: 3c009dec
/model.22/cv2/act/Mul_output_0: 3ce69030
/model.23/Add_output_0: 3d804393
/model.24/Add_output_0: 3d8cace8
/model.25/Add_output_0: 3d65fa9e
/model.26/Resize_output_0: 3d65fa9e
/model.27/Concat_output_0: 3d8cace8
/model.28/cv1/conv/Conv_output_0: 3d7d0faa
/model.28/cv1/act/Sigmoid_output_0: 3c00a910
/model.28/cv1/act/Mul_output_0: 3d01d271
/model.28/Split_output_0: 3d01d271
/model.28/Split_output_1: 3cc0786b
/model.28/m.0/cv1/conv/Conv_output_0: 3d74ecca
/model.28/m.0/cv1/act/Sigmoid_output_0: 3c00e2c5
/model.28/m.0/cv1/act/Mul_output_0: 3d134661
/model.28/m.0/cv2/conv/Conv_output_0: 3d84806e
/model.28/m.0/cv2/act/Sigmoid_output_0: 3c00eef6
/model.28/m.0/cv2/act/Mul_output_0: 3d11eff4
/model.28/Concat_output_0: 3d11eff4
/model.28/cv2/conv/Conv_output_0: 3d720611
/model.28/cv2/act/Sigmoid_output_0: 3c00ef86
/model.28/cv2/act/Mul_output_0: 3cd2025c
/model.29/Resize_output_0: 3cd2025c
/model.30/Concat_output_0: 3d285cf1
/model.31/cv1/conv/Conv_output_0: 3d5137f7
/model.31/cv1/act/Sigmoid_output_0: 3c007371
/model.31/cv1/act/Mul_output_0: 3ce712c5
/model.31/Split_output_0: 3ce712c5
/model.31/Split_output_1: 3ce6aac7
/model.31/m.0/cv1/conv/Conv_output_0: 3d4bdb27
/model.31/m.0/cv1/act/Sigmoid_output_0: 3bfffee1
/model.31/m.0/cv1/act/Mul_output_0: 3cb226a3
/model.31/m.0/cv2/conv/Conv_output_0: 3d8b9038
/model.31/m.0/cv2/act/Sigmoid_output_0: 3c00eb30
/model.31/m.0/cv2/act/Mul_output_0: 3d423798
/model.31/Concat_output_0: 3d25216b
/model.31/cv2/conv/Conv_output_0: 3dafe9a6
/model.31/cv2/act/Sigmoid_output_0: 3c00ebaf
/model.31/cv2/act/Mul_output_0: 3d02917c
/model.32/conv/Conv_output_0: 3d9ee0e3
/model.32/act/Sigmoid_output_0: 3c0213e4
/model.32/act/Mul_output_0: 3d28f090
/model.33/Concat_output_0: 3d28f090
/model.34/cv1/conv/Conv_output_0: 3d803c62
/model.34/cv1/act/Sigmoid_output_0: 3c010cc7
/model.34/cv1/act/Mul_output_0: 3d00e883
/model.34/Split_output_0: 3d1374f4
/model.34/Split_output_1: 3d00e883
/model.34/m.0/cv1/conv/Conv_output_0: 3d8ad103
/model.34/m.0/cv1/act/Sigmoid_output_0: 3c010ea2
/model.34/m.0/cv1/act/Mul_output_0: 3d034cad
/model.34/m.0/cv2/conv/Conv_output_0: 3d8e1e46
/model.34/m.0/cv2/act/Sigmoid_output_0: 3c010a01
/model.34/m.0/cv2/act/Mul_output_0: 3d0022f8
/model.34/Concat_output_0: 3d0022f8
/model.34/cv2/conv/Conv_output_0: 3d825c22
/model.34/cv2/act/Sigmoid_output_0: 3c00f0f8
/model.34/cv2/act/Mul_output_0: 3d142589
/model.35/conv/Conv_output_0: 3d353264
/model.35/act/Sigmoid_output_0: 3c00abd8
/model.35/act/Mul_output_0: 3cc0c9d1
/model.36/Concat_output_0: 3d250845
/model.37/cv1/conv/Conv_output_0: 3d120d14
/model.37/cv1/act/Sigmoid_output_0: 3c009063
/model.37/cv1/act/Mul_output_0: 3c997863
/model.37/Split_output_0: 3ca4cb05
/model.37/Split_output_1: 3c997863
/model.37/m.0/cv1/conv/Conv_output_0: 3d081799
/model.37/m.0/cv1/act/Sigmoid_output_0: 3bfeb75e
/model.37/m.0/cv1/act/Mul_output_0: 3cc0ecfb
/model.37/m.0/cv2/conv/Conv_output_0: 3d0175ea
/model.37/m.0/cv2/act/Sigmoid_output_0: 3bff1894
/model.37/m.0/cv2/act/Mul_output_0: 3c917c66
/model.37/Concat_output_0: 3c997863
/model.37/cv2/conv/Conv_output_0: 3cf26e71
/model.37/cv2/act/Sigmoid_output_0: 3bfc5084
/model.37/cv2/act/Mul_output_0: 3c90e0c8
/model.38/cv2.0/cv2.0.0/conv/Conv_output_0: 3d910b76
/model.38/cv2.0/cv2.0.0/act/Sigmoid_output_0: 3c006c0d
/model.38/cv2.0/cv2.0.0/act/Mul_output_0: 3d029369
/model.38/cv2.0/cv2.0.1/conv/Conv_output_0: 3da88d00
/model.38/cv2.0/cv2.0.1/act/Sigmoid_output_0: 3c011221
/model.38/cv2.0/cv2.0.1/act/Mul_output_0: 3d47d316
/model.38/cv2.0/cv2.0.2/Conv_output_0: 3e02016a
/model.38/cv3.0/cv3.0.0/conv/Conv_output_0: 3dc02fbe
/model.38/cv3.0/cv3.0.0/act/Sigmoid_output_0: 3c011210
/model.38/cv3.0/cv3.0.0/act/Mul_output_0: 3cbf588a
/model.38/cv3.0/cv3.0.1/conv/Conv_output_0: 3e5dfa3e
/model.38/cv3.0/cv3.0.1/act/Sigmoid_output_0: 3c010a14
/model.38/cv3.0/cv3.0.1/act/Mul_output_0: 3d962fc9
/model.38/cv3.0/cv3.0.2/Conv_output_0: 3f18ccfd
/model.38/Concat_output_0: 3e9bc5a8
/model.38/cv2.1/cv2.1.0/conv/Conv_output_0: 3d83c7cc
/model.38/cv2.1/cv2.1.0/act/Sigmoid_output_0: 3c00f09f
/model.38/cv2.1/cv2.1.0/act/Mul_output_0: 3d0d25da
/model.38/cv2.1/cv2.1.1/conv/Conv_output_0: 3dcc4d16
/model.38/cv2.1/cv2.1.1/act/Sigmoid_output_0: 3c010a14
/model.38/cv2.1/cv2.1.1/act/Mul_output_0: 3d440da8
/model.38/cv2.1/cv2.1.2/Conv_output_0: 3dc9c5e7
/model.38/cv3.1/cv3.1.0/conv/Conv_output_0: 3daf675d
/model.38/cv3.1/cv3.1.0/act/Sigmoid_output_0: 3c010e63
/model.38/cv3.1/cv3.1.0/act/Mul_output_0: 3d0248ad
/model.38/cv3.1/cv3.1.1/conv/Conv_output_0: 3ddec079
/model.38/cv3.1/cv3.1.1/act/Sigmoid_output_0: 3c010a14
/model.38/cv3.1/cv3.1.1/act/Mul_output_0: 3d127a13
/model.38/cv3.1/cv3.1.2/Conv_output_0: 3e940f99
/model.38/Concat_1_output_0: 3e60f5a2
/model.38/cv2.2/cv2.2.0/conv/Conv_output_0: 3d0db08b
/model.38/cv2.2/cv2.2.0/act/Sigmoid_output_0: 3c01494b
/model.38/cv2.2/cv2.2.0/act/Mul_output_0: 3cd228c4
/model.38/cv2.2/cv2.2.1/conv/Conv_output_0: 3d35992d
/model.38/cv2.2/cv2.2.1/act/Sigmoid_output_0: 3c01a993
/model.38/cv2.2/cv2.2.1/act/Mul_output_0: 3cfeb82f
/model.38/cv2.2/cv2.2.2/Conv_output_0: 3c324e1a
/model.38/cv3.2/cv3.2.0/conv/Conv_output_0: 3ccee281
/model.38/cv3.2/cv3.2.0/act/Sigmoid_output_0: 3bf36571
/model.38/cv3.2/cv3.2.0/act/Mul_output_0: 3c51d791
/model.38/cv3.2/cv3.2.1/conv/Conv_output_0: 3ca878d3
/model.38/cv3.2/cv3.2.1/act/Sigmoid_output_0: 3bee8dca
/model.38/cv3.2/cv3.2.1/act/Mul_output_0: 3c921dba
/model.38/cv3.2/cv3.2.2/Conv_output_0: 3dc688c2
/model.38/Concat_2_output_0: 3dc3fcd6
/model.38/Reshape_output_0: 3e9bc5a8
/model.38/Reshape_1_output_0: 3e60f5a2
/model.38/Reshape_2_output_0: 3dc3fcd6
/model.38/Concat_6_output_0: 3e937cff
(Unnamed Layer* 967) [Constant]_output: 3e810a14
/model.38/Split_output_0: 3d810a14
/model.38/Split_output_1: 3e010a14
/model.38/Split_output_2: 3e810a14
/model.38/Range_output_0: 3f1f4871
(Unnamed Layer* 991) [Shuffle]_output: 3c010a14
(Unnamed Layer* 993) [Shuffle]_output: 3b810a14
/model.38/Add_output_0: 3f204a85
/model.38/Range_1_output_0: 3f1f4871
(Unnamed Layer* 1006) [Shuffle]_output: 3c010a14
(Unnamed Layer* 1008) [Shuffle]_output: 3b810a14
/model.38/Add_1_output_0: 3f204a85
/model.38/Reshape_5_output_0: 3f204a85
/model.38/Expand_output_0: 3f204a85
/model.38/Reshape_6_output_0: 3f204a85
/model.38/Expand_1_output_0: 3f204a85
/model.38/Unsqueeze_3_output_0: 3f204a85
/model.38/Unsqueeze_4_output_0: 3f204a85
/model.38/Concat_10_output_0: 3f204a85
/model.38/Reshape_7_output_0: 3f204a85
(Unnamed Layer* 1059) [Constant]_output: 0
(Unnamed Layer* 1060) [Shuffle]_output: 0
/model.38/ConstantOfShape_output_0: 0
(Unnamed Layer* 1063) [Shuffle]_output: 3d810a14
/model.38/Add_2_output_0: 3d810a14
/model.38/Range_2_output_0: 3e9d4449
(Unnamed Layer* 1082) [Shuffle]_output: 3c010a14
(Unnamed Layer* 1084) [Shuffle]_output: 3b810a14
/model.38/Add_3_output_0: 3e9f4871
/model.38/Range_3_output_0: 3e9d4449
(Unnamed Layer* 1097) [Shuffle]_output: 3c010a14
(Unnamed Layer* 1099) [Shuffle]_output: 3b810a14
/model.38/Add_4_output_0: 3e9f4871
/model.38/Reshape_10_output_0: 3e9f4871
/model.38/Expand_2_output_0: 3e9f4871
/model.38/Reshape_11_output_0: 3e9f4871
/model.38/Expand_3_output_0: 3e9f4871
/model.38/Unsqueeze_6_output_0: 3e9f4871
/model.38/Unsqueeze_7_output_0: 3e9f4871
/model.38/Concat_15_output_0: 3e9f4871
/model.38/Reshape_12_output_0: 3e9f4871
(Unnamed Layer* 1150) [Constant]_output: 0
(Unnamed Layer* 1151) [Shuffle]_output: 0
/model.38/ConstantOfShape_1_output_0: 0
(Unnamed Layer* 1154) [Shuffle]_output: 3e010a14
/model.38/Add_5_output_0: 3e010a14
/model.38/Range_4_output_0: 3e193bf8
(Unnamed Layer* 1173) [Shuffle]_output: 3c010a14
(Unnamed Layer* 1175) [Shuffle]_output: 3b810a14
/model.38/Add_6_output_0: 3e1d4449
/model.38/Range_5_output_0: 3e193bf8
(Unnamed Layer* 1188) [Shuffle]_output: 3c010a14
(Unnamed Layer* 1190) [Shuffle]_output: 3b810a14
/model.38/Add_7_output_0: 3e1d4449
/model.38/Reshape_15_output_0: 3e1d4449
/model.38/Expand_4_output_0: 3e1d4449
/model.38/Reshape_16_output_0: 3e1d4449
/model.38/Expand_5_output_0: 3e1d4449
/model.38/Unsqueeze_9_output_0: 3e1d4449
/model.38/Unsqueeze_10_output_0: 3e1d4449
/model.38/Concat_20_output_0: 3e1d4449
/model.38/Reshape_17_output_0: 3e1d4449
(Unnamed Layer* 1241) [Constant]_output: 0
(Unnamed Layer* 1242) [Shuffle]_output: 0
/model.38/ConstantOfShape_2_output_0: 0
(Unnamed Layer* 1245) [Shuffle]_output: 3e810a14
/model.38/Add_8_output_0: 3e810a14
/model.38/Concat_22_output_0: 3f204a85
/model.38/Concat_23_output_0: 3e810a14
/model.38/Transpose_output_0: 3f204a85
/model.38/Transpose_1_output_0: 3e810a14
/model.38/Split_1_output_0: 3def8a53
/model.38/Split_1_output_1: 3ed847b5
/model.38/dfl/Reshape_output_0: 3def8a53
/model.38/dfl/Transpose_output_0: 3def8a53
(Unnamed Layer* 1274) [Softmax]_output: 3bd8831a
/model.38/dfl/conv/Conv_output_0: 3d9eecde
/model.38/dfl/Reshape_1_output_0: 3d9eecde
/model.38/Unsqueeze_12_output_0: 3f204a85
/model.38/Slice_output_0: 3d9fea39
/model.38/Slice_1_output_0: 3d74e16b
/model.38/Sub_output_0: 3f1fded2
/model.38/Add_10_output_0: 3f2191bf
/model.38/Add_11_output_0: 3fa0c149
(Unnamed Layer* 1357) [Shuffle]_output: 3c810a14
/model.38/Div_1_output_0: 3f20c149
/model.38/Sub_1_output_0: 3df4c0a0
/model.38/Concat_24_output_0: 3f298ac2
(Unnamed Layer* 1364) [Shuffle]_output: 3e810a14
/model.38/Mul_5_output_0: 40a5eede
/model.38/Sigmoid_output_0: 3be1c1e6
output0: 40a5eede
