TRT-8503-EntropyCalibration2
images: 3bf80000
/Slice_output_0: 3bf80000
/Slice_1_output_0: 3bf80000
/model.0/conv/Conv_output_0: 3e17456d
/model.0/act/Sigmoid_output_0: 3c010a14
/model.0/act/Mul_output_0: 3e1f3842
/model.1/conv/Conv_output_0: 3dc88b85
/model.1/act/Sigmoid_output_0: 3c0068d2
/model.1/act/Mul_output_0: 3d19a7c1
/model.2/cv1/conv/Conv_output_0: 3d6dabb5
/model.2/cv1/act/Sigmoid_output_0: 3c02b56a
/model.2/cv1/act/Mul_output_0: 3d0b9aa0
/model.2/Split_output_0: 3d0c9b48
/model.2/Split_output_1: 3c6b798c
/model.2/m.0/cv1/conv/Conv_output_0: 3d62e2d4
/model.2/m.0/cv1/act/Sigmoid_output_0: 3c0376c9
/model.2/m.0/cv1/act/Mul_output_0: 3c9e8705
/model.2/m.0/cv2/conv/Conv_output_0: 3d68af78
/model.2/m.0/cv2/act/Sigmoid_output_0: 3c010a14
/model.2/m.0/cv2/act/Mul_output_0: 3d68590e
/model.2/m.0/Add_output_0: 3d9a4b16
/model.2/Concat_output_0: 3d388e41
/model.2/cv2/conv/Conv_output_0: 3d4dbdde
/model.2/cv2/act/Sigmoid_output_0: 3bff9aac
/model.2/cv2/act/Mul_output_0: 3cd293b4
/model.3/conv/Conv_output_0: 3cdaf364
/model.3/act/Sigmoid_output_0: 3c00645c
/model.3/act/Mul_output_0: 3cb43330
/model.4/conv/Conv_output_0: 3dba32d3
/model.4/act/Sigmoid_output_0: 3c010a14
/model.4/act/Mul_output_0: 3d649a3e
/model.5/conv/Conv_output_0: 3d7008d6
/model.5/act/Sigmoid_output_0: 3c010a14
/model.5/act/Mul_output_0: 3d0e1858
/model.6/cv1/conv/Conv_output_0: 3d82daf0
/model.6/cv1/act/Sigmoid_output_0: 3c010a14
/model.6/cv1/act/Mul_output_0: 3d6b1aed
/model.6/Split_output_0: 3d262e8d
/model.6/Split_output_1: 3d59ec9f
/model.6/m.0/spatial_mixing/Split_output_0: 3d419c97
/model.6/m.0/spatial_mixing/Split_output_1: 3d0a8afe
/model.6/m.0/spatial_mixing/partial_conv3/Conv_output_0: 3d0511c2
/model.6/m.0/spatial_mixing/Concat_output_0: 3d1f0329
/model.6/m.0/mlp/mlp.0/conv/Conv_output_0: 3d948592
/model.6/m.0/mlp/mlp.0/act/Sigmoid_output_0: 3c003056
/model.6/m.0/mlp/mlp.0/act/Mul_output_0: 3d0e003f
/model.6/Concat_output_0: 3d283959
/model.6/cv2/conv/Conv_output_0: 3d70577d
/model.6/cv2/act/Sigmoid_output_0: 3c0716f5
/model.6/cv2/act/Mul_output_0: 3d00e70a
/model.7/conv/Conv_output_0: 3d2d7595
/model.7/act/Sigmoid_output_0: 3c033452
/model.7/act/Mul_output_0: 3d24ebb0
/Concat_output_0: 3d24ebb0
/model.8/avg_pool/GlobalAveragePool_output_0: 3cf3c24a
/model.8/Reshape_output_0: 3cf3c24a
(Unnamed Layer* 147) [Constant]_output: 3b807a16
/model.8/fc/fc.0/MatMul_output_0: 3cec0bd0
/model.8/fc/fc.1/Relu_output_0: 3d0a9a45
(Unnamed Layer* 150) [Constant]_output: 3b3beb0e
/model.8/fc/fc.2/MatMul_output_0: 3c6d9862
/model.8/fc/fc.3/Sigmoid_output_0: 3bdfd9f5
/model.8/Reshape_1_output_0: 3bdfd9f5
/model.8/Mul_output_0: 3cf83db0
/model.8/Slice_output_0: 3d313e60
/model.8/Slice_1_output_0: 3c9d0cf8
/model.8/Concat_2_output_0: 3cf83db0
/model.8/Add_output_0: 3d57a938
/Slice_2_output_0: 3d574ecb
/Slice_3_output_0: 3d538cc8
/model.9/cv1/conv/Conv_output_0: 3d5dba93
/model.9/cv1/act/Sigmoid_output_0: 3c06dc61
/model.9/cv1/act/Mul_output_0: 3d148191
/model.9/Split_output_0: 3d299b6b
/model.9/Split_output_1: 3cd1bdba
/model.9/m.0/cv1/conv/Conv_output_0: 3d6c80e1
/model.9/m.0/cv1/act/Sigmoid_output_0: 3c049f6b
/model.9/m.0/cv1/act/Mul_output_0: 3cd22eb4
/model.9/m.0/cv2/conv/Conv_output_0: 3d5da35a
/model.9/m.0/cv2/act/Sigmoid_output_0: 3c00a7c9
/model.9/m.0/cv2/act/Mul_output_0: 3cff1e54
/model.9/m.0/Add_output_0: 3d50d0a9
/model.9/m.1/cv1/conv/Conv_output_0: 3d7c3e42
/model.9/m.1/cv1/act/Sigmoid_output_0: 3c00c786
/model.9/m.1/cv1/act/Mul_output_0: 3c99785b
/model.9/m.1/cv2/conv/Conv_output_0: 3da431be
/model.9/m.1/cv2/act/Sigmoid_output_0: 3c063c6b
/model.9/m.1/cv2/act/Mul_output_0: 3d6c51d7
/model.9/m.1/Add_output_0: 3db3259a
/model.9/Concat_output_0: 3d6b6518
/model.9/cv2/conv/Conv_output_0: 3d919a02
/model.9/cv2/act/Sigmoid_output_0: 3c0213b9
/model.9/cv2/act/Mul_output_0: 3d02fa4b
/model.10/conv/Conv_output_0: 3d70aee8
/model.10/act/Sigmoid_output_0: 3c00eb8f
/model.10/act/Mul_output_0: 3d2773bf
/model.11/cv1/conv/Conv_output_0: 3d86a168
/model.11/cv1/act/Sigmoid_output_0: 3bffc549
/model.11/cv1/act/Mul_output_0: 3d108701
/model.11/Split_output_0: 3ce8f73e
/model.11/Split_output_1: 3d11a8a3
/model.11/m.0/spatial_mixing/Split_output_0: 3cfee4ef
/model.11/m.0/spatial_mixing/Split_output_1: 3d11a8a3
/model.11/m.0/spatial_mixing/partial_conv3/Conv_output_0: 3cdf3e48
/model.11/m.0/spatial_mixing/Concat_output_0: 3d0148f1
/model.11/m.0/mlp/mlp.0/conv/Conv_output_0: 3d296f50
/model.11/m.0/mlp/mlp.0/act/Sigmoid_output_0: 3c00ac2b
/model.11/m.0/mlp/mlp.0/act/Mul_output_0: 3d001165
/model.11/m.1/spatial_mixing/Split_output_0: 3cd37bef
/model.11/m.1/spatial_mixing/Split_output_1: 3d10b3f3
/model.11/m.1/spatial_mixing/partial_conv3/Conv_output_0: 3cc31359
/model.11/m.1/spatial_mixing/Concat_output_0: 3d107d5a
/model.11/m.1/mlp/mlp.0/conv/Conv_output_0: 3d686898
/model.11/m.1/mlp/mlp.0/act/Sigmoid_output_0: 3c020c7e
/model.11/m.1/mlp/mlp.0/act/Mul_output_0: 3d1290e7
/model.11/Concat_output_0: 3d10fba2
/model.11/cv2/conv/Conv_output_0: 3d0cfb08
/model.11/cv2/act/Sigmoid_output_0: 3c005205
/model.11/cv2/act/Mul_output_0: 3d0f6964
/model.12/conv/Conv_output_0: 3d42c2a4
/model.12/act/Sigmoid_output_0: 3bffdf30
/model.12/act/Mul_output_0: 3cd49e5d
/Concat_1_output_0: 3d02453e
/model.13/avg_pool/GlobalAveragePool_output_0: 3c5679f3
/model.13/Reshape_output_0: 3c5679f3
(Unnamed Layer* 369) [Constant]_output: 3a9fc97b
/model.13/fc/fc.0/MatMul_output_0: 3c942813
/model.13/fc/fc.1/Relu_output_0: 3c9ecf43
(Unnamed Layer* 372) [Constant]_output: 3aa688a5
/model.13/fc/fc.2/MatMul_output_0: 3c0e3ac2
/model.13/fc/fc.3/Sigmoid_output_0: 3bce14e1
/model.13/Reshape_1_output_0: 3bce14e1
/model.13/Mul_output_0: 3c96737a
/model.13/Slice_output_0: 3c6d707b
/model.13/Slice_1_output_0: 3cc941b5
/model.13/Concat_2_output_0: 3c96737a
/model.13/Add_output_0: 3d57e0b7
/Slice_4_output_0: 3d5826e5
/Slice_5_output_0: 3d2ce015
/model.14/cv1/conv/Conv_output_0: 3d7168c2
/model.14/cv1/act/Sigmoid_output_0: 3c00f17f
/model.14/cv1/act/Mul_output_0: 3d29f623
/model.14/Split_output_0: 3d29f623
/model.14/Split_output_1: 3cd41d2c
/model.14/m.0/cv1/conv/Conv_output_0: 3d86f0f4
/model.14/m.0/cv1/act/Sigmoid_output_0: 3c00eda8
/model.14/m.0/cv1/act/Mul_output_0: 3cd256c8
/model.14/m.0/cv2/conv/Conv_output_0: 3d7c2ef2
/model.14/m.0/cv2/act/Sigmoid_output_0: 3c00eb49
/model.14/m.0/cv2/act/Mul_output_0: 3d01a58c
/model.14/m.0/Add_output_0: 3d6543a7
/model.14/m.1/cv1/conv/Conv_output_0: 3d8ebc19
/model.14/m.1/cv1/act/Sigmoid_output_0: 3c00ebf3
/model.14/m.1/cv1/act/Mul_output_0: 3d0336e7
/model.14/m.1/cv2/conv/Conv_output_0: 3d9e00e6
/model.14/m.1/cv2/act/Sigmoid_output_0: 3c00f0cb
/model.14/m.1/cv2/act/Mul_output_0: 3d11bd9a
/model.14/m.1/Add_output_0: 3d8d50f3
/model.14/Concat_output_0: 3d429fe9
/model.14/cv2/conv/Conv_output_0: 3d8fc7a7
/model.14/cv2/act/Sigmoid_output_0: 3c00f1a6
/model.14/cv2/act/Mul_output_0: 3d2a49fe
/model.15/conv/Conv_output_0: 3d5bb7bb
/model.15/act/Sigmoid_output_0: 3c00e383
/model.15/act/Mul_output_0: 3ce6b4e6
/model.16/cv1/conv/Conv_output_0: 3d695259
/model.16/cv1/act/Sigmoid_output_0: 3c004f1f
/model.16/cv1/act/Mul_output_0: 3cbf7afc
/model.16/Split_output_0: 3ce6837b
/model.16/Split_output_1: 3cbf7afc
/model.16/m.0/spatial_mixing/Split_output_0: 3cbf7afc
/model.16/m.0/spatial_mixing/Split_output_1: 3cd37952
/model.16/m.0/spatial_mixing/partial_conv3/Conv_output_0: 3cfb0b9e
/model.16/m.0/spatial_mixing/Concat_output_0: 3d0140fc
/model.16/m.0/mlp/mlp.0/conv/Conv_output_0: 3d406b8b
/model.16/m.0/mlp/mlp.0/act/Sigmoid_output_0: 3c001142
/model.16/m.0/mlp/mlp.0/act/Mul_output_0: 3cc0b317
/model.16/m.1/spatial_mixing/Split_output_0: 3d010c99
/model.16/m.1/spatial_mixing/Split_output_1: 3cc0b317
/model.16/m.1/spatial_mixing/partial_conv3/Conv_output_0: 3cc250fa
/model.16/m.1/spatial_mixing/Concat_output_0: 3cc0b317
/model.16/m.1/mlp/mlp.0/conv/Conv_output_0: 3d69902f
/model.16/m.1/mlp/mlp.0/act/Sigmoid_output_0: 3c0067e9
/model.16/m.1/mlp/mlp.0/act/Mul_output_0: 3cd26148
/model.16/Concat_output_0: 3cd26148
/model.16/cv2/conv/Conv_output_0: 3d4ac29f
/model.16/cv2/act/Sigmoid_output_0: 3c01296e
/model.16/cv2/act/Mul_output_0: 3cc14317
/model.17/conv/Conv_output_0: 3d3fb5dd
/model.17/act/Sigmoid_output_0: 3c02ba02
/model.17/act/Mul_output_0: 3d025843
/Concat_2_output_0: 3ce6b4e6
/model.18/avg_pool/GlobalAveragePool_output_0: 3c729a9a
/model.18/Reshape_output_0: 3c729a9a
(Unnamed Layer* 591) [Constant]_output: 3a11bb22
/model.18/fc/fc.0/MatMul_output_0: 3cfaebbf
/model.18/fc/fc.1/Relu_output_0: 3cec93c1
(Unnamed Layer* 594) [Constant]_output: 3a462375
/model.18/fc/fc.2/MatMul_output_0: 3c3a58ba
/model.18/fc/fc.3/Sigmoid_output_0: 3bd452f9
/model.18/Reshape_1_output_0: 3bd452f9
/model.18/Mul_output_0: 3cc1749a
/model.18/Slice_output_0: 3caba9b5
/model.18/Slice_1_output_0: 3cb01ba5
/model.18/Concat_2_output_0: 3cc1749a
/model.18/Add_output_0: 3d372e46
/Slice_6_output_0: 3d49c332
/Slice_7_output_0: 3d243f75
/model.19/cv1/conv/Conv_output_0: 3d47b41c
/model.19/cv1/act/Sigmoid_output_0: 3c008d27
/model.19/cv1/act/Mul_output_0: 3cd15f80
/model.19/Split_output_0: 3cd15f80
/model.19/Split_output_1: 3cb1ccc9
/model.19/m.0/cv1/conv/Conv_output_0: 3d64ef20
/model.19/m.0/cv1/act/Sigmoid_output_0: 3c00c21d
/model.19/m.0/cv1/act/Mul_output_0: 3d009748
/model.19/m.0/cv2/conv/Conv_output_0: 3d709669
/model.19/m.0/cv2/act/Sigmoid_output_0: 3c00cd24
/model.19/m.0/cv2/act/Mul_output_0: 3d291a54
/model.19/m.0/Add_output_0: 3d7e5906
/model.19/Concat_output_0: 3d274d1c
/model.19/cv2/conv/Conv_output_0: 3d575452
/model.19/cv2/act/Sigmoid_output_0: 3c00b22e
/model.19/cv2/act/Mul_output_0: 3ce72f46
/model.20/cv1/conv/Conv_output_0: 3d515c45
/model.20/cv1/act/Sigmoid_output_0: 3c00d525
/model.20/cv1/act/Mul_output_0: 3d015d52
/model.20/m/MaxPool_output_0: 3d015d52
/model.20/m_1/MaxPool_output_0: 3d015d52
/model.20/m_2/MaxPool_output_0: 3d015d52
/model.20/Concat_output_0: 3d65932d
/model.20/cv2/conv/Conv_output_0: 3d7e3b1d
/model.20/cv2/act/Sigmoid_output_0: 3c0099e5
/model.20/cv2/act/Mul_output_0: 3cb10129
/model.21/cv1/conv/Conv_output_0: 3d42f1e3
/model.21/cv1/act/Sigmoid_output_0: 3c00bc4c
/model.21/cv1/act/Mul_output_0: 3cea9730
/model.21/Split_output_0: 3cea9730
/model.21/Split_output_1: 3cd2e5f3
/model.21/m.0/spatial_mixing/Split_output_0: 3d00d78b
/model.21/m.0/spatial_mixing/Split_output_1: 3cd3e25f
/model.21/m.0/spatial_mixing/partial_conv3/Conv_output_0: 3d1c0ede
/model.21/m.0/spatial_mixing/Concat_output_0: 3cd3e25f
/model.21/m.0/mlp/mlp.0/conv/Conv_output_0: 3d4d577f
/model.21/m.0/mlp/mlp.0/act/Sigmoid_output_0: 3c009eb1
/model.21/m.0/mlp/mlp.0/act/Mul_output_0: 3ce65397
/model.21/Concat_output_0: 3cea9730
/model.21/cv2/conv/Conv_output_0: 3d3d893a
/model.21/cv2/act/Sigmoid_output_0: 3c007ade
/model.21/cv2/act/Mul_output_0: 3cea14ee
/model.22/cv1/conv/Conv_output_0: 3d46400d
/model.22/cv1/act/Sigmoid_output_0: 3c00b1bc
/model.22/cv1/act/Mul_output_0: 3d107fd0
/model.22/m/MaxPool_output_0: 3d107fd0
/model.22/m_1/MaxPool_output_0: 3d107fd0
/model.22/m_2/MaxPool_output_0: 3d107fd0
/model.22/Concat_output_0: 3d66d378
/model.22/cv2/conv/Conv_output_0: 3d6b5665
/model.22/cv2/act/Sigmoid_output_0: 3c0080de
/model.22/cv2/act/Mul_output_0: 3cd1a6e8
/model.23/Add_output_0: 3d8ca3f9
/model.24/Add_output_0: 3d8be5eb
/model.25/Add_output_0: 3d65173e
/model.26/Resize_output_0: 3d65173e
/model.27/Concat_output_0: 3d8be5eb
/model.28/cv1/conv/Conv_output_0: 3d7c00aa
/model.28/cv1/act/Sigmoid_output_0: 3c00bed8
/model.28/cv1/act/Mul_output_0: 3ceae3c6
/model.28/Split_output_0: 3d12d5e2
/model.28/Split_output_1: 3ce77145
/model.28/m.0/cv1/conv/Conv_output_0: 3d6b2e9f
/model.28/m.0/cv1/act/Sigmoid_output_0: 3c00dbd6
/model.28/m.0/cv1/act/Mul_output_0: 3d02d035
/model.28/m.0/cv2/conv/Conv_output_0: 3d7ee22f
/model.28/m.0/cv2/act/Sigmoid_output_0: 3c00f0fb
/model.28/m.0/cv2/act/Mul_output_0: 3d145c68
/model.28/Concat_output_0: 3d145c68
/model.28/cv2/conv/Conv_output_0: 3d771fab
/model.28/cv2/act/Sigmoid_output_0: 3c00ec9b
/model.28/cv2/act/Mul_output_0: 3d011c5a
/model.29/Resize_output_0: 3d011c5a
/model.30/Concat_output_0: 3d0159cd
/model.31/cv1/conv/Conv_output_0: 3d4d5eea
/model.31/cv1/act/Sigmoid_output_0: 3c00826b
/model.31/cv1/act/Mul_output_0: 3ce5ec0f
/model.31/Split_output_0: 3ce5ec0f
/model.31/Split_output_1: 3cbffb79
/model.31/m.0/cv1/conv/Conv_output_0: 3d45f684
/model.31/m.0/cv1/act/Sigmoid_output_0: 3c000a03
/model.31/m.0/cv1/act/Mul_output_0: 3cc18dce
/model.31/m.0/cv2/conv/Conv_output_0: 3d8c6c68
/model.31/m.0/cv2/act/Sigmoid_output_0: 3c00ea76
/model.31/m.0/cv2/act/Mul_output_0: 3d3fec59
/model.31/Concat_output_0: 3cffcf38
/model.31/cv2/conv/Conv_output_0: 3db3f9c9
/model.31/cv2/act/Sigmoid_output_0: 3c010b6d
/model.31/cv2/act/Mul_output_0: 3d016a43
/model.32/conv/Conv_output_0: 3d9dc6d8
/model.32/act/Sigmoid_output_0: 3c0315a7
/model.32/act/Mul_output_0: 3d25e2a9
/model.33/Concat_output_0: 3d00e7db
/model.34/cv1/conv/Conv_output_0: 3d81a7ef
/model.34/cv1/act/Sigmoid_output_0: 3c00ecec
/model.34/cv1/act/Mul_output_0: 3d0208d8
/model.34/Split_output_0: 3d12d2e9
/model.34/Split_output_1: 3d0208d8
/model.34/m.0/cv1/conv/Conv_output_0: 3d82a8da
/model.34/m.0/cv1/act/Sigmoid_output_0: 3c010cf2
/model.34/m.0/cv1/act/Mul_output_0: 3cc2451f
/model.34/m.0/cv2/conv/Conv_output_0: 3d85b38f
/model.34/m.0/cv2/act/Sigmoid_output_0: 3c011157
/model.34/m.0/cv2/act/Mul_output_0: 3ce71ba5
/model.34/Concat_output_0: 3ce71ba5
/model.34/cv2/conv/Conv_output_0: 3d81d9bf
/model.34/cv2/act/Sigmoid_output_0: 3c00ee1f
/model.34/cv2/act/Mul_output_0: 3d27653e
/model.35/conv/Conv_output_0: 3d306c04
/model.35/act/Sigmoid_output_0: 3c008b7c
/model.35/act/Mul_output_0: 3cc05a54
/model.36/Concat_output_0: 3d24a8d4
/model.37/cv1/conv/Conv_output_0: 3d0cd9af
/model.37/cv1/act/Sigmoid_output_0: 3c002689
/model.37/cv1/act/Mul_output_0: 3cb1b17a
/model.37/Split_output_0: 3ca572b8
/model.37/Split_output_1: 3cb1b17a
/model.37/m.0/cv1/conv/Conv_output_0: 3d0c2444
/model.37/m.0/cv1/act/Sigmoid_output_0: 3bfe8184
/model.37/m.0/cv1/act/Mul_output_0: 3c9a7a9b
/model.37/m.0/cv2/conv/Conv_output_0: 3d12a63d
/model.37/m.0/cv2/act/Sigmoid_output_0: 3c005e59
/model.37/m.0/cv2/act/Mul_output_0: 3c909163
/model.37/Concat_output_0: 3cd558b2
/model.37/cv2/conv/Conv_output_0: 3cef9d48
/model.37/cv2/act/Sigmoid_output_0: 3c0042a3
/model.37/cv2/act/Mul_output_0: 3ca5c027
/model.38/cv2.0/cv2.0.0/conv/Conv_output_0: 3d96d0de
/model.38/cv2.0/cv2.0.0/act/Sigmoid_output_0: 3c00644b
/model.38/cv2.0/cv2.0.0/act/Mul_output_0: 3d01cada
/model.38/cv2.0/cv2.0.1/conv/Conv_output_0: 3da7935f
/model.38/cv2.0/cv2.0.1/act/Sigmoid_output_0: 3c01121a
/model.38/cv2.0/cv2.0.1/act/Mul_output_0: 3d3fd9d6
/model.38/cv2.0/cv2.0.2/Conv_output_0: 3e0235ad
/model.38/cv3.0/cv3.0.0/conv/Conv_output_0: 3dbe195c
/model.38/cv3.0/cv3.0.0/act/Sigmoid_output_0: 3c0111e8
/model.38/cv3.0/cv3.0.0/act/Mul_output_0: 3cb808ee
/model.38/cv3.0/cv3.0.1/conv/Conv_output_0: 3e743acf
/model.38/cv3.0/cv3.0.1/act/Sigmoid_output_0: 3c010a14
/model.38/cv3.0/cv3.0.1/act/Mul_output_0: 3d84be0c
/model.38/cv3.0/cv3.0.2/Conv_output_0: 3f14d180
/model.38/Concat_output_0: 3e9a41eb
/model.38/cv2.1/cv2.1.0/conv/Conv_output_0: 3d815a62
/model.38/cv2.1/cv2.1.0/act/Sigmoid_output_0: 3c00f157
/model.38/cv2.1/cv2.1.0/act/Mul_output_0: 3d24c933
/model.38/cv2.1/cv2.1.1/conv/Conv_output_0: 3dbdeb31
/model.38/cv2.1/cv2.1.1/act/Sigmoid_output_0: 3c010a14
/model.38/cv2.1/cv2.1.1/act/Mul_output_0: 3d6fd9e2
/model.38/cv2.1/cv2.1.2/Conv_output_0: 3dcc83d7
/model.38/cv3.1/cv3.1.0/conv/Conv_output_0: 3da28ac4
/model.38/cv3.1/cv3.1.0/act/Sigmoid_output_0: 3c010782
/model.38/cv3.1/cv3.1.0/act/Mul_output_0: 3ce9257b
/model.38/cv3.1/cv3.1.1/conv/Conv_output_0: 3de67505
/model.38/cv3.1/cv3.1.1/act/Sigmoid_output_0: 3c021425
/model.38/cv3.1/cv3.1.1/act/Mul_output_0: 3d251ba2
/model.38/cv3.1/cv3.1.2/Conv_output_0: 3e94384f
/model.38/Concat_1_output_0: 3e508ecf
/model.38/cv2.2/cv2.2.0/conv/Conv_output_0: 3d29fa66
/model.38/cv2.2/cv2.2.0/act/Sigmoid_output_0: 3c01ffb2
/model.38/cv2.2/cv2.2.0/act/Mul_output_0: 3cc71c00
/model.38/cv2.2/cv2.2.1/conv/Conv_output_0: 3d3b60f1
/model.38/cv2.2/cv2.2.1/act/Sigmoid_output_0: 3c01ecf7
/model.38/cv2.2/cv2.2.1/act/Mul_output_0: 3d15fa79
/model.38/cv2.2/cv2.2.2/Conv_output_0: 3c2ff413
/model.38/cv3.2/cv3.2.0/conv/Conv_output_0: 3cff9cbd
/model.38/cv3.2/cv3.2.0/act/Sigmoid_output_0: 3c014792
/model.38/cv3.2/cv3.2.0/act/Mul_output_0: 3c9295b5
/model.38/cv3.2/cv3.2.1/conv/Conv_output_0: 3ca7acec
/model.38/cv3.2/cv3.2.1/act/Sigmoid_output_0: 3beea7bb
/model.38/cv3.2/cv3.2.1/act/Mul_output_0: 3ca6bc66
/model.38/cv3.2/cv3.2.2/Conv_output_0: 3dc666be
/model.38/Concat_2_output_0: 3dc37882
/model.38/Reshape_output_0: 3e9a41eb
/model.38/Reshape_1_output_0: 3e508ecf
/model.38/Reshape_2_output_0: 3dc37882
/model.38/Concat_6_output_0: 3e915744
(Unnamed Layer* 967) [Constant]_output: 3e810a14
/model.38/Split_output_0: 3d810a14
/model.38/Split_output_1: 3e010a14
/model.38/Split_output_2: 3e810a14
/model.38/Range_output_0: 3f1f4871
(Unnamed Layer* 991) [Shuffle]_output: 3c010a14
(Unnamed Layer* 993) [Shuffle]_output: 3b810a14
/model.38/Add_output_0: 3f204a85
/model.38/Range_1_output_0: 3f1f4871
(Unnamed Layer* 1006) [Shuffle]_output: 3c010a14
(Unnamed Layer* 1008) [Shuffle]_output: 3b810a14
/model.38/Add_1_output_0: 3f204a85
/model.38/Reshape_5_output_0: 3f204a85
/model.38/Expand_output_0: 3f204a85
/model.38/Reshape_6_output_0: 3f204a85
/model.38/Expand_1_output_0: 3f204a85
/model.38/Unsqueeze_3_output_0: 3f204a85
/model.38/Unsqueeze_4_output_0: 3f204a85
/model.38/Concat_10_output_0: 3f204a85
/model.38/Reshape_7_output_0: 3f204a85
(Unnamed Layer* 1059) [Constant]_output: 0
(Unnamed Layer* 1060) [Shuffle]_output: 0
/model.38/ConstantOfShape_output_0: 0
(Unnamed Layer* 1063) [Shuffle]_output: 3d810a14
/model.38/Add_2_output_0: 3d810a14
/model.38/Range_2_output_0: 3e9d4449
(Unnamed Layer* 1082) [Shuffle]_output: 3c010a14
(Unnamed Layer* 1084) [Shuffle]_output: 3b810a14
/model.38/Add_3_output_0: 3e9f4871
/model.38/Range_3_output_0: 3e9d4449
(Unnamed Layer* 1097) [Shuffle]_output: 3c010a14
(Unnamed Layer* 1099) [Shuffle]_output: 3b810a14
/model.38/Add_4_output_0: 3e9f4871
/model.38/Reshape_10_output_0: 3e9f4871
/model.38/Expand_2_output_0: 3e9f4871
/model.38/Reshape_11_output_0: 3e9f4871
/model.38/Expand_3_output_0: 3e9f4871
/model.38/Unsqueeze_6_output_0: 3e9f4871
/model.38/Unsqueeze_7_output_0: 3e9f4871
/model.38/Concat_15_output_0: 3e9f4871
/model.38/Reshape_12_output_0: 3e9f4871
(Unnamed Layer* 1150) [Constant]_output: 0
(Unnamed Layer* 1151) [Shuffle]_output: 0
/model.38/ConstantOfShape_1_output_0: 0
(Unnamed Layer* 1154) [Shuffle]_output: 3e010a14
/model.38/Add_5_output_0: 3e010a14
/model.38/Range_4_output_0: 3e193bf8
(Unnamed Layer* 1173) [Shuffle]_output: 3c010a14
(Unnamed Layer* 1175) [Shuffle]_output: 3b810a14
/model.38/Add_6_output_0: 3e1d4449
/model.38/Range_5_output_0: 3e193bf8
(Unnamed Layer* 1188) [Shuffle]_output: 3c010a14
(Unnamed Layer* 1190) [Shuffle]_output: 3b810a14
/model.38/Add_7_output_0: 3e1d4449
/model.38/Reshape_15_output_0: 3e1d4449
/model.38/Expand_4_output_0: 3e1d4449
/model.38/Reshape_16_output_0: 3e1d4449
/model.38/Expand_5_output_0: 3e1d4449
/model.38/Unsqueeze_9_output_0: 3e1d4449
/model.38/Unsqueeze_10_output_0: 3e1d4449
/model.38/Concat_20_output_0: 3e1d4449
/model.38/Reshape_17_output_0: 3e1d4449
(Unnamed Layer* 1241) [Constant]_output: 0
(Unnamed Layer* 1242) [Shuffle]_output: 0
/model.38/ConstantOfShape_2_output_0: 0
(Unnamed Layer* 1245) [Shuffle]_output: 3e810a14
/model.38/Add_8_output_0: 3e810a14
/model.38/Concat_22_output_0: 3f204a85
/model.38/Concat_23_output_0: 3e810a14
/model.38/Transpose_output_0: 3f204a85
/model.38/Transpose_1_output_0: 3e810a14
/model.38/Split_1_output_0: 3dd95b4d
/model.38/Split_1_output_1: 3edf7351
/model.38/dfl/Reshape_output_0: 3dd95b4d
/model.38/dfl/Transpose_output_0: 3dd95b4d
(Unnamed Layer* 1274) [Softmax]_output: 3bd6acf1
/model.38/dfl/conv/Conv_output_0: 3d9e0a78
/model.38/dfl/Reshape_1_output_0: 3d9e0a78
/model.38/Unsqueeze_12_output_0: 3f204a85
/model.38/Slice_output_0: 3da0246c
/model.38/Slice_1_output_0: 3d754781
/model.38/Sub_output_0: 3f1fe3fd
/model.38/Add_10_output_0: 3f2190ca
/model.38/Add_11_output_0: 3fa0be72
(Unnamed Layer* 1357) [Shuffle]_output: 3c810a14
/model.38/Div_1_output_0: 3f20be72
/model.38/Sub_1_output_0: 3df46f59
/model.38/Concat_24_output_0: 3f2a0043
(Unnamed Layer* 1364) [Shuffle]_output: 3e810a14
/model.38/Mul_5_output_0: 40a5ebf0
/model.38/Sigmoid_output_0: 3be382ae
output0: 40a0be72
