TRT-8503-EntropyCalibration2
images: 3bf80000
/Slice_output_0: 3bf80000
/Slice_1_output_0: 3bf80000
/model.0/conv/Conv_output_0: 3e02cd24
/model.0/act/Sigmoid_output_0: 3c010a14
/model.0/act/Mul_output_0: 3dc22f28
/model.1/conv/Conv_output_0: 3e01ac1b
/model.1/act/Sigmoid_output_0: 3c0068d2
/model.1/act/Mul_output_0: 3d0147ef
/model.2/cv1/conv/Conv_output_0: 3d3fc9b0
/model.2/cv1/act/Sigmoid_output_0: 3c02b566
/model.2/cv1/act/Mul_output_0: 3cbd66ad
/model.2/Split_output_0: 3d0deff1
/model.2/Split_output_1: 3c6b4feb
/model.2/m.0/cv1/conv/Conv_output_0: 3d172e35
/model.2/m.0/cv1/act/Sigmoid_output_0: 3c0376d7
/model.2/m.0/cv1/act/Mul_output_0: 3cbf7b97
/model.2/m.0/cv2/conv/Conv_output_0: 3db20f85
/model.2/m.0/cv2/act/Sigmoid_output_0: 3c010a14
/model.2/m.0/cv2/act/Mul_output_0: 3d39ff7b
/model.2/m.0/Add_output_0: 3d5b7003
/model.2/Concat_output_0: 3d69c8bc
/model.2/cv2/conv/Conv_output_0: 3d2e0795
/model.2/cv2/act/Sigmoid_output_0: 3bff9cde
/model.2/cv2/act/Mul_output_0: 3c6efff0
/model.3/conv/Conv_output_0: 3ce6e637
/model.3/act/Sigmoid_output_0: 3c005f73
/model.3/act/Mul_output_0: 3cb1d26c
/model.4/conv/Conv_output_0: 3d9d3e9c
/model.4/act/Sigmoid_output_0: 3c010a14
/model.4/act/Mul_output_0: 3d6b22dc
/model.5/conv/Conv_output_0: 3d9cdbb2
/model.5/act/Sigmoid_output_0: 3c010a14
/model.5/act/Mul_output_0: 3d456d0b
/model.6/cv1/conv/Conv_output_0: 3d82daac
/model.6/cv1/act/Sigmoid_output_0: 3c03f7ef
/model.6/cv1/act/Mul_output_0: 3d8a3ef4
/model.6/Split_output_0: 3d3c6fe5
/model.6/Split_output_1: 3d422675
/model.6/m.0/spatial_mixing/Split_output_0: 3d3a6c94
/model.6/m.0/spatial_mixing/Split_output_1: 3d422675
/model.6/m.0/spatial_mixing/partial_conv3/Conv_output_0: 3d0e9390
/model.6/m.0/spatial_mixing/Concat_output_0: 3d3f8d8b
/model.6/m.0/mlp/mlp.0/conv/Conv_output_0: 3d96471c
/model.6/m.0/mlp/mlp.0/act/Sigmoid_output_0: 3c00284a
/model.6/m.0/mlp/mlp.0/act/Mul_output_0: 3d003b96
/model.6/Concat_output_0: 3d63af30
/model.6/cv2/conv/Conv_output_0: 3d98c9b2
/model.6/cv2/act/Sigmoid_output_0: 3c07156f
/model.6/cv2/act/Mul_output_0: 3d01b5d2
/model.7/conv/Conv_output_0: 3d3236eb
/model.7/act/Sigmoid_output_0: 3c033469
/model.7/act/Mul_output_0: 3d269419
/Concat_output_0: 3d12ffc1
/model.8/avg_pool/GlobalAveragePool_output_0: 3cf792c4
/model.8/Reshape_output_0: 3cf792c4
(Unnamed Layer* 147) [Constant]_output: 3b807a16
/model.8/fc/fc.0/MatMul_output_0: 3ce9c122
/model.8/fc/fc.1/Relu_output_0: 3d09ecd6
(Unnamed Layer* 150) [Constant]_output: 3b3beb0e
/model.8/fc/fc.2/MatMul_output_0: 3c7a773f
/model.8/fc/fc.3/Sigmoid_output_0: 3bde8f5c
/model.8/Reshape_1_output_0: 3bde8f5c
/model.8/Mul_output_0: 3cfc4874
/model.8/Slice_output_0: 3d3079f1
/model.8/Slice_1_output_0: 3c99ca50
/model.8/Concat_2_output_0: 3cfc4874
/model.8/Add_output_0: 3d57bbf0
/Slice_2_output_0: 3d56e9d1
/Slice_3_output_0: 3d2ef88e
/model.9/cv1/conv/Conv_output_0: 3d5de4e5
/model.9/cv1/act/Sigmoid_output_0: 3c06d819
/model.9/cv1/act/Mul_output_0: 3d00d602
/model.9/Split_output_0: 3d00d602
/model.9/Split_output_1: 3ce8f110
/model.9/m.0/cv1/conv/Conv_output_0: 3d7739e6
/model.9/m.0/cv1/act/Sigmoid_output_0: 3c00e03f
/model.9/m.0/cv1/act/Mul_output_0: 3cb1a2b8
/model.9/m.0/cv2/conv/Conv_output_0: 3d5135fb
/model.9/m.0/cv2/act/Sigmoid_output_0: 3c00c116
/model.9/m.0/cv2/act/Mul_output_0: 3d1184da
/model.9/m.0/Add_output_0: 3d6700ab
/model.9/m.1/cv1/conv/Conv_output_0: 3d7a1ef2
/model.9/m.1/cv1/act/Sigmoid_output_0: 3c00cd62
/model.9/m.1/cv1/act/Mul_output_0: 3cd22f54
/model.9/m.1/cv2/conv/Conv_output_0: 3da39ade
/model.9/m.1/cv2/act/Sigmoid_output_0: 3c075e94
/model.9/m.1/cv2/act/Mul_output_0: 3d6d7df9
/model.9/m.1/Add_output_0: 3dbaf9bd
/model.9/Concat_output_0: 3d413295
/model.9/cv2/conv/Conv_output_0: 3d9269a8
/model.9/cv2/act/Sigmoid_output_0: 3c0213f3
/model.9/cv2/act/Mul_output_0: 3d00c834
/model.10/conv/Conv_output_0: 3d868734
/model.10/act/Sigmoid_output_0: 3c00ed1b
/model.10/act/Mul_output_0: 3d27e034
/model.11/cv1/conv/Conv_output_0: 3d86baa3
/model.11/cv1/act/Sigmoid_output_0: 3bffbefa
/model.11/cv1/act/Mul_output_0: 3d111a9d
/model.11/Split_output_0: 3d02165d
/model.11/Split_output_1: 3d111a9d
/model.11/m.0/spatial_mixing/Split_output_0: 3cfec05c
/model.11/m.0/spatial_mixing/Split_output_1: 3d111a9d
/model.11/m.0/spatial_mixing/partial_conv3/Conv_output_0: 3cdeaf26
/model.11/m.0/spatial_mixing/Concat_output_0: 3d10dd5e
/model.11/m.0/mlp/mlp.0/conv/Conv_output_0: 3d290b6b
/model.11/m.0/mlp/mlp.0/act/Sigmoid_output_0: 3c008f60
/model.11/m.0/mlp/mlp.0/act/Mul_output_0: 3ce5abaa
/model.11/m.1/spatial_mixing/Split_output_0: 3cd3b7ea
/model.11/m.1/spatial_mixing/Split_output_1: 3d128e38
/model.11/m.1/spatial_mixing/partial_conv3/Conv_output_0: 3cc19f71
/model.11/m.1/spatial_mixing/Concat_output_0: 3d0fd347
/model.11/m.1/mlp/mlp.0/conv/Conv_output_0: 3d668f7b
/model.11/m.1/mlp/mlp.0/act/Sigmoid_output_0: 3c020e04
/model.11/m.1/mlp/mlp.0/act/Mul_output_0: 3d024f79
/model.11/Concat_output_0: 3d283302
/model.11/cv2/conv/Conv_output_0: 3d0cc4f5
/model.11/cv2/act/Sigmoid_output_0: 3c006512
/model.11/cv2/act/Mul_output_0: 3d0fbda4
/model.12/conv/Conv_output_0: 3d432ee6
/model.12/act/Sigmoid_output_0: 3bfffce2
/model.12/act/Mul_output_0: 3ceb324f
/Concat_1_output_0: 3d12bc1f
/model.13/avg_pool/GlobalAveragePool_output_0: 3c7acfb8
/model.13/Reshape_output_0: 3c7acfb8
(Unnamed Layer* 369) [Constant]_output: 3a9fc97b
/model.13/fc/fc.0/MatMul_output_0: 3c8c6d7c
/model.13/fc/fc.1/Relu_output_0: 3ca231bc
(Unnamed Layer* 372) [Constant]_output: 3aa688a5
/model.13/fc/fc.2/MatMul_output_0: 3c0abc5a
/model.13/fc/fc.3/Sigmoid_output_0: 3bcbd383
/model.13/Reshape_1_output_0: 3bcbd383
/model.13/Mul_output_0: 3c95d285
/model.13/Slice_output_0: 3c814c08
/model.13/Slice_1_output_0: 3cc7b52c
/model.13/Concat_2_output_0: 3c95d285
/model.13/Add_output_0: 3d41f074
/Slice_4_output_0: 3d58037e
/Slice_5_output_0: 3d207b39
/model.14/cv1/conv/Conv_output_0: 3d70a8f6
/model.14/cv1/act/Sigmoid_output_0: 3c00f173
/model.14/cv1/act/Mul_output_0: 3d02ac2d
/model.14/Split_output_0: 3d2828be
/model.14/Split_output_1: 3cd55aa0
/model.14/m.0/cv1/conv/Conv_output_0: 3d8587f0
/model.14/m.0/cv1/act/Sigmoid_output_0: 3c00ecda
/model.14/m.0/cv1/act/Mul_output_0: 3d01d372
/model.14/m.0/cv2/conv/Conv_output_0: 3d84d3fd
/model.14/m.0/cv2/act/Sigmoid_output_0: 3c00eff3
/model.14/m.0/cv2/act/Mul_output_0: 3d134e3a
/model.14/m.0/Add_output_0: 3d6441c2
/model.14/m.1/cv1/conv/Conv_output_0: 3d8f085d
/model.14/m.1/cv1/act/Sigmoid_output_0: 3c00e394
/model.14/m.1/cv1/act/Mul_output_0: 3cb1b4df
/model.14/m.1/cv2/conv/Conv_output_0: 3d967e62
/model.14/m.1/cv2/act/Sigmoid_output_0: 3c00f18c
/model.14/m.1/cv2/act/Mul_output_0: 3d008746
/model.14/m.1/Add_output_0: 3d8de075
/model.14/Concat_output_0: 3d26add9
/model.14/cv2/conv/Conv_output_0: 3d8ef0aa
/model.14/cv2/act/Sigmoid_output_0: 3c00f1a1
/model.14/cv2/act/Mul_output_0: 3d294e6e
/model.15/conv/Conv_output_0: 3d5c64d0
/model.15/act/Sigmoid_output_0: 3c00e5e7
/model.15/act/Mul_output_0: 3ce5aa39
/model.16/cv1/conv/Conv_output_0: 3d69140f
/model.16/cv1/act/Sigmoid_output_0: 3c00563a
/model.16/cv1/act/Mul_output_0: 3cea0377
/model.16/Split_output_0: 3d1208e8
/model.16/Split_output_1: 3cc0e95e
/model.16/m.0/spatial_mixing/Split_output_0: 3cc0e95e
/model.16/m.0/spatial_mixing/Split_output_1: 3cd2ec5b
/model.16/m.0/spatial_mixing/partial_conv3/Conv_output_0: 3cf8910b
/model.16/m.0/spatial_mixing/Concat_output_0: 3cd2ec5b
/model.16/m.0/mlp/mlp.0/conv/Conv_output_0: 3d407913
/model.16/m.0/mlp/mlp.0/act/Sigmoid_output_0: 3c00467a
/model.16/m.0/mlp/mlp.0/act/Mul_output_0: 3cbfd6f2
/model.16/m.1/spatial_mixing/Split_output_0: 3ce617c2
/model.16/m.1/spatial_mixing/Split_output_1: 3cd1701b
/model.16/m.1/spatial_mixing/partial_conv3/Conv_output_0: 3ccfbf71
/model.16/m.1/spatial_mixing/Concat_output_0: 3cd1701b
/model.16/m.1/mlp/mlp.0/conv/Conv_output_0: 3d67f270
/model.16/m.1/mlp/mlp.0/act/Sigmoid_output_0: 3c007d21
/model.16/m.1/mlp/mlp.0/act/Mul_output_0: 3ce8dadd
/model.16/Concat_output_0: 3ce8dadd
/model.16/cv2/conv/Conv_output_0: 3d4b8ec5
/model.16/cv2/act/Sigmoid_output_0: 3c0133c8
/model.16/cv2/act/Mul_output_0: 3cd1a8a1
/model.17/conv/Conv_output_0: 3d516381
/model.17/act/Sigmoid_output_0: 3c00f690
/model.17/act/Mul_output_0: 3ce7daa2
/Concat_2_output_0: 3ce5aa39
/model.18/avg_pool/GlobalAveragePool_output_0: 3c7e6388
/model.18/Reshape_output_0: 3c7e6388
(Unnamed Layer* 591) [Constant]_output: 3a11bb22
/model.18/fc/fc.0/MatMul_output_0: 3d01c569
/model.18/fc/fc.1/Relu_output_0: 3d07146a
(Unnamed Layer* 594) [Constant]_output: 3a462375
/model.18/fc/fc.2/MatMul_output_0: 3c3ce300
/model.18/fc/fc.3/Sigmoid_output_0: 3bd9de53
/model.18/Reshape_1_output_0: 3bd9de53
/model.18/Mul_output_0: 3cabdfdc
/model.18/Slice_output_0: 3cad1f80
/model.18/Slice_1_output_0: 3cb54ec8
/model.18/Concat_2_output_0: 3cabdfdc
/model.18/Add_output_0: 3d38b7d7
/Slice_6_output_0: 3d397b1c
/Slice_7_output_0: 3d329638
/model.19/cv1/conv/Conv_output_0: 3d49e424
/model.19/cv1/act/Sigmoid_output_0: 3c008b76
/model.19/cv1/act/Mul_output_0: 3cd2c8cc
/model.19/Split_output_0: 3cd2de4c
/model.19/Split_output_1: 3cb285f7
/model.19/m.0/cv1/conv/Conv_output_0: 3d691448
/model.19/m.0/cv1/act/Sigmoid_output_0: 3c00a814
/model.19/m.0/cv1/act/Mul_output_0: 3cd3a4a0
/model.19/m.0/cv2/conv/Conv_output_0: 3d76e4d4
/model.19/m.0/cv2/act/Sigmoid_output_0: 3c00d12c
/model.19/m.0/cv2/act/Mul_output_0: 3d020409
/model.19/m.0/Add_output_0: 3d7fe082
/model.19/Concat_output_0: 3d12cdfd
/model.19/cv2/conv/Conv_output_0: 3d54679a
/model.19/cv2/act/Sigmoid_output_0: 3c004a82
/model.19/cv2/act/Mul_output_0: 3ce914a2
/model.20/cv1/conv/Conv_output_0: 3d56ab97
/model.20/cv1/act/Sigmoid_output_0: 3c00cc39
/model.20/cv1/act/Mul_output_0: 3d010e46
/model.20/m/MaxPool_output_0: 3d010e46
/model.20/m_1/MaxPool_output_0: 3d010e46
/model.20/m_2/MaxPool_output_0: 3d010e46
/model.20/Concat_output_0: 3d658b14
/model.20/cv2/conv/Conv_output_0: 3d72f1ce
/model.20/cv2/act/Sigmoid_output_0: 3c008f46
/model.20/cv2/act/Mul_output_0: 3cd1fd5c
/model.21/cv1/conv/Conv_output_0: 3d45259b
/model.21/cv1/act/Sigmoid_output_0: 3c0098c8
/model.21/cv1/act/Mul_output_0: 3cd2eefa
/model.21/Split_output_0: 3ce95084
/model.21/Split_output_1: 3cd2eefa
/model.21/m.0/spatial_mixing/Split_output_0: 3d00cd99
/model.21/m.0/spatial_mixing/Split_output_1: 3ce90d03
/model.21/m.0/spatial_mixing/partial_conv3/Conv_output_0: 3d0f1254
/model.21/m.0/spatial_mixing/Concat_output_0: 3ce90d03
/model.21/m.0/mlp/mlp.0/conv/Conv_output_0: 3d4e8508
/model.21/m.0/mlp/mlp.0/act/Sigmoid_output_0: 3c007193
/model.21/m.0/mlp/mlp.0/act/Mul_output_0: 3ce78969
/model.21/Concat_output_0: 3cd2eefa
/model.21/cv2/conv/Conv_output_0: 3d3b130b
/model.21/cv2/act/Sigmoid_output_0: 3c008ea3
/model.21/cv2/act/Mul_output_0: 3cea5144
/model.22/cv1/conv/Conv_output_0: 3d4fa398
/model.22/cv1/act/Sigmoid_output_0: 3c0094c0
/model.22/cv1/act/Mul_output_0: 3d013fc8
/model.22/m/MaxPool_output_0: 3d013fc8
/model.22/m_1/MaxPool_output_0: 3d013fc8
/model.22/m_2/MaxPool_output_0: 3d013fc8
/model.22/Concat_output_0: 3d68b7e7
/model.22/cv2/conv/Conv_output_0: 3d68e530
/model.22/cv2/act/Sigmoid_output_0: 3c00ad86
/model.22/cv2/act/Mul_output_0: 3cd1036a
/model.23/Add_output_0: 3d8cc2df
/model.24/Add_output_0: 3d8ef0e4
/model.25/Add_output_0: 3d645025
/model.26/Resize_output_0: 3d645025
/model.27/Concat_output_0: 3d8c8f93
/model.28/cv1/conv/Conv_output_0: 3d8279d8
/model.28/cv1/act/Sigmoid_output_0: 3c00d3ca
/model.28/cv1/act/Mul_output_0: 3cd255be
/model.28/Split_output_0: 3d008378
/model.28/Split_output_1: 3cd0db43
/model.28/m.0/cv1/conv/Conv_output_0: 3d77702a
/model.28/m.0/cv1/act/Sigmoid_output_0: 3c00e77b
/model.28/m.0/cv1/act/Mul_output_0: 3ce9c7b2
/model.28/m.0/cv2/conv/Conv_output_0: 3d7899e0
/model.28/m.0/cv2/act/Sigmoid_output_0: 3c00ec77
/model.28/m.0/cv2/act/Mul_output_0: 3d00bc5f
/model.28/Concat_output_0: 3d00bc5f
/model.28/cv2/conv/Conv_output_0: 3d68203f
/model.28/cv2/act/Sigmoid_output_0: 3c00efe3
/model.28/cv2/act/Mul_output_0: 3d12d8a7
/model.29/Resize_output_0: 3d12d8a7
/model.30/Concat_output_0: 3cff2ea7
/model.31/cv1/conv/Conv_output_0: 3d4efaa4
/model.31/cv1/act/Sigmoid_output_0: 3c007b9b
/model.31/cv1/act/Mul_output_0: 3ce689a1
/model.31/Split_output_0: 3ce689a1
/model.31/Split_output_1: 3cd25433
/model.31/m.0/cv1/conv/Conv_output_0: 3d4848de
/model.31/m.0/cv1/act/Sigmoid_output_0: 3c001192
/model.31/m.0/cv1/act/Mul_output_0: 3c994de2
/model.31/m.0/cv2/conv/Conv_output_0: 3d8aacc5
/model.31/m.0/cv2/act/Sigmoid_output_0: 3c00e5d6
/model.31/m.0/cv2/act/Mul_output_0: 3d44bd90
/model.31/Concat_output_0: 3d2894d0
/model.31/cv2/conv/Conv_output_0: 3daa90da
/model.31/cv2/act/Sigmoid_output_0: 3c00ab92
/model.31/cv2/act/Mul_output_0: 3cbfbf91
/model.32/conv/Conv_output_0: 3d9b9df9
/model.32/act/Sigmoid_output_0: 3c031598
/model.32/act/Mul_output_0: 3d2428b0
/model.33/Concat_output_0: 3cff20d2
/model.34/cv1/conv/Conv_output_0: 3d7c1b69
/model.34/cv1/act/Sigmoid_output_0: 3c00ee90
/model.34/cv1/act/Mul_output_0: 3cd10777
/model.34/Split_output_0: 3d01df9e
/model.34/Split_output_1: 3cd07307
/model.34/m.0/cv1/conv/Conv_output_0: 3d858dd8
/model.34/m.0/cv1/act/Sigmoid_output_0: 3c010b9d
/model.34/m.0/cv1/act/Mul_output_0: 3d01d5db
/model.34/m.0/cv2/conv/Conv_output_0: 3d888dcb
/model.34/m.0/cv2/act/Sigmoid_output_0: 3c010ded
/model.34/m.0/cv2/act/Mul_output_0: 3cd27da2
/model.34/Concat_output_0: 3cd10777
/model.34/cv2/conv/Conv_output_0: 3d870ee8
/model.34/cv2/act/Sigmoid_output_0: 3c00eb1d
/model.34/cv2/act/Mul_output_0: 3d0144ae
/model.35/conv/Conv_output_0: 3d2e14a8
/model.35/act/Sigmoid_output_0: 3c00be4c
/model.35/act/Mul_output_0: 3cb22ae7
/model.36/Concat_output_0: 3d240dcd
/model.37/cv1/conv/Conv_output_0: 3d0bd3b8
/model.37/cv1/act/Sigmoid_output_0: 3bff1c54
/model.37/cv1/act/Mul_output_0: 3cc07697
/model.37/Split_output_0: 3ca5855a
/model.37/Split_output_1: 3cc07697
/model.37/m.0/cv1/conv/Conv_output_0: 3d062188
/model.37/m.0/cv1/act/Sigmoid_output_0: 3bfe2ece
/model.37/m.0/cv1/act/Mul_output_0: 3ca4b179
/model.37/m.0/cv2/conv/Conv_output_0: 3d18b1da
/model.37/m.0/cv2/act/Sigmoid_output_0: 3c004ce8
/model.37/m.0/cv2/act/Mul_output_0: 3c9b3a4d
/model.37/Concat_output_0: 3c99c9a5
/model.37/cv2/conv/Conv_output_0: 3cf2f33c
/model.37/cv2/act/Sigmoid_output_0: 3c00d44c
/model.37/cv2/act/Mul_output_0: 3ca4d081
/model.38/cv2.0/cv2.0.0/conv/Conv_output_0: 3d932f77
/model.38/cv2.0/cv2.0.0/act/Sigmoid_output_0: 3c006cb0
/model.38/cv2.0/cv2.0.0/act/Mul_output_0: 3cd129c1
/model.38/cv2.0/cv2.0.1/conv/Conv_output_0: 3da709af
/model.38/cv2.0/cv2.0.1/act/Sigmoid_output_0: 3c01121c
/model.38/cv2.0/cv2.0.1/act/Mul_output_0: 3d42f7c5
/model.38/cv2.0/cv2.0.2/Conv_output_0: 3e04d6ba
/model.38/cv3.0/cv3.0.0/conv/Conv_output_0: 3dc77366
/model.38/cv3.0/cv3.0.0/act/Sigmoid_output_0: 3c0111f4
/model.38/cv3.0/cv3.0.0/act/Mul_output_0: 3d01e709
/model.38/cv3.0/cv3.0.1/conv/Conv_output_0: 3e52635d
/model.38/cv3.0/cv3.0.1/act/Sigmoid_output_0: 3c010a14
/model.38/cv3.0/cv3.0.1/act/Mul_output_0: 3d940e10
/model.38/cv3.0/cv3.0.2/Conv_output_0: 3f14c319
/model.38/Concat_output_0: 3ea4685b
/model.38/cv2.1/cv2.1.0/conv/Conv_output_0: 3d7d3719
/model.38/cv2.1/cv2.1.0/act/Sigmoid_output_0: 3c00eda1
/model.38/cv2.1/cv2.1.0/act/Mul_output_0: 3d252b09
/model.38/cv2.1/cv2.1.1/conv/Conv_output_0: 3dc31ef5
/model.38/cv2.1/cv2.1.1/act/Sigmoid_output_0: 3c031623
/model.38/cv2.1/cv2.1.1/act/Mul_output_0: 3d41b78b
/model.38/cv2.1/cv2.1.2/Conv_output_0: 3dcf81ca
/model.38/cv3.1/cv3.1.0/conv/Conv_output_0: 3da79389
/model.38/cv3.1/cv3.1.0/act/Sigmoid_output_0: 3c010e1c
/model.38/cv3.1/cv3.1.0/act/Mul_output_0: 3d01379d
/model.38/cv3.1/cv3.1.1/conv/Conv_output_0: 3df5ee75
/model.38/cv3.1/cv3.1.1/act/Sigmoid_output_0: 3c021424
/model.38/cv3.1/cv3.1.1/act/Mul_output_0: 3d2884f2
/model.38/cv3.1/cv3.1.2/Conv_output_0: 3e9764a3
/model.38/Concat_1_output_0: 3e5c8b6c
/model.38/cv2.2/cv2.2.0/conv/Conv_output_0: 3d1f20e9
/model.38/cv2.2/cv2.2.0/act/Sigmoid_output_0: 3c01fab4
/model.38/cv2.2/cv2.2.0/act/Mul_output_0: 3d12f04e
/model.38/cv2.2/cv2.2.1/conv/Conv_output_0: 3d367f4f
/model.38/cv2.2/cv2.2.1/act/Sigmoid_output_0: 3c01fa54
/model.38/cv2.2/cv2.2.1/act/Mul_output_0: 3cd520e4
/model.38/cv2.2/cv2.2.2/Conv_output_0: 3c28ed5f
/model.38/cv3.2/cv3.2.0/conv/Conv_output_0: 3d086ecc
/model.38/cv3.2/cv3.2.0/act/Sigmoid_output_0: 3c013776
/model.38/cv3.2/cv3.2.0/act/Mul_output_0: 3c740315
/model.38/cv3.2/cv3.2.1/conv/Conv_output_0: 3ca9602f
/model.38/cv3.2/cv3.2.1/act/Sigmoid_output_0: 3beeac54
/model.38/cv3.2/cv3.2.1/act/Mul_output_0: 3c9dd58e
/model.38/cv3.2/cv3.2.2/Conv_output_0: 3dc699f7
/model.38/Concat_2_output_0: 3dc3176f
/model.38/Reshape_output_0: 3ea4685b
/model.38/Reshape_1_output_0: 3e5c8b6c
/model.38/Reshape_2_output_0: 3dc3176f
/model.38/Concat_6_output_0: 3e9480b6
(Unnamed Layer* 967) [Constant]_output: 3e810a14
/model.38/Split_output_0: 3d810a14
/model.38/Split_output_1: 3e010a14
/model.38/Split_output_2: 3e810a14
/model.38/Range_output_0: 3f1f4871
(Unnamed Layer* 991) [Shuffle]_output: 3c010a14
(Unnamed Layer* 993) [Shuffle]_output: 3b810a14
/model.38/Add_output_0: 3f204a85
/model.38/Range_1_output_0: 3f1f4871
(Unnamed Layer* 1006) [Shuffle]_output: 3c010a14
(Unnamed Layer* 1008) [Shuffle]_output: 3b810a14
/model.38/Add_1_output_0: 3f204a85
/model.38/Reshape_5_output_0: 3f204a85
/model.38/Expand_output_0: 3f204a85
/model.38/Reshape_6_output_0: 3f204a85
/model.38/Expand_1_output_0: 3f204a85
/model.38/Unsqueeze_3_output_0: 3f204a85
/model.38/Unsqueeze_4_output_0: 3f204a85
/model.38/Concat_10_output_0: 3f204a85
/model.38/Reshape_7_output_0: 3f204a85
(Unnamed Layer* 1059) [Constant]_output: 0
(Unnamed Layer* 1060) [Shuffle]_output: 0
/model.38/ConstantOfShape_output_0: 0
(Unnamed Layer* 1063) [Shuffle]_output: 3d810a14
/model.38/Add_2_output_0: 3d810a14
/model.38/Range_2_output_0: 3e9d4449
(Unnamed Layer* 1082) [Shuffle]_output: 3c010a14
(Unnamed Layer* 1084) [Shuffle]_output: 3b810a14
/model.38/Add_3_output_0: 3e9f4871
/model.38/Range_3_output_0: 3e9d4449
(Unnamed Layer* 1097) [Shuffle]_output: 3c010a14
(Unnamed Layer* 1099) [Shuffle]_output: 3b810a14
/model.38/Add_4_output_0: 3e9f4871
/model.38/Reshape_10_output_0: 3e9f4871
/model.38/Expand_2_output_0: 3e9f4871
/model.38/Reshape_11_output_0: 3e9f4871
/model.38/Expand_3_output_0: 3e9f4871
/model.38/Unsqueeze_6_output_0: 3e9f4871
/model.38/Unsqueeze_7_output_0: 3e9f4871
/model.38/Concat_15_output_0: 3e9f4871
/model.38/Reshape_12_output_0: 3e9f4871
(Unnamed Layer* 1150) [Constant]_output: 0
(Unnamed Layer* 1151) [Shuffle]_output: 0
/model.38/ConstantOfShape_1_output_0: 0
(Unnamed Layer* 1154) [Shuffle]_output: 3e010a14
/model.38/Add_5_output_0: 3e010a14
/model.38/Range_4_output_0: 3e193bf8
(Unnamed Layer* 1173) [Shuffle]_output: 3c010a14
(Unnamed Layer* 1175) [Shuffle]_output: 3b810a14
/model.38/Add_6_output_0: 3e1d4449
/model.38/Range_5_output_0: 3e193bf8
(Unnamed Layer* 1188) [Shuffle]_output: 3c010a14
(Unnamed Layer* 1190) [Shuffle]_output: 3b810a14
/model.38/Add_7_output_0: 3e1d4449
/model.38/Reshape_15_output_0: 3e1d4449
/model.38/Expand_4_output_0: 3e1d4449
/model.38/Reshape_16_output_0: 3e1d4449
/model.38/Expand_5_output_0: 3e1d4449
/model.38/Unsqueeze_9_output_0: 3e1d4449
/model.38/Unsqueeze_10_output_0: 3e1d4449
/model.38/Concat_20_output_0: 3e1d4449
/model.38/Reshape_17_output_0: 3e1d4449
(Unnamed Layer* 1241) [Constant]_output: 0
(Unnamed Layer* 1242) [Shuffle]_output: 0
/model.38/ConstantOfShape_2_output_0: 0
(Unnamed Layer* 1245) [Shuffle]_output: 3e810a14
/model.38/Add_8_output_0: 3e810a14
/model.38/Concat_22_output_0: 3f204a85
/model.38/Concat_23_output_0: 3e810a14
/model.38/Transpose_output_0: 3f204a85
/model.38/Transpose_1_output_0: 3e810a14
/model.38/Split_1_output_0: 3dd63f17
/model.38/Split_1_output_1: 3ef1db77
/model.38/dfl/Reshape_output_0: 3dd63f17
/model.38/dfl/Transpose_output_0: 3dd63f17
(Unnamed Layer* 1274) [Softmax]_output: 3bd95ae8
/model.38/dfl/conv/Conv_output_0: 3d9d2e00
/model.38/dfl/Reshape_1_output_0: 3d9d2e00
/model.38/Unsqueeze_12_output_0: 3f204a85
/model.38/Slice_output_0: 3da03bbe
/model.38/Slice_1_output_0: 3d74fca3
/model.38/Sub_output_0: 3f1ff634
/model.38/Add_10_output_0: 3f219843
/model.38/Add_11_output_0: 3fa0b45f
(Unnamed Layer* 1357) [Shuffle]_output: 3c810a14
/model.38/Div_1_output_0: 3f20b45f
/model.38/Sub_1_output_0: 3df4a279
/model.38/Concat_24_output_0: 3f312ccf
(Unnamed Layer* 1364) [Shuffle]_output: 3e810a14
/model.38/Mul_5_output_0: 40a5e189
/model.38/Sigmoid_output_0: 3be17fc6
output0: 40a5e189
