TRT-8503-EntropyCalibration2
images: 3bf80000
/Slice_output_0: 3bf80000
/Slice_1_output_0: 3bf80000
/model.0/conv/Conv_output_0: 3e02ad6f
/model.0/act/Sigmoid_output_0: 3c010a14
/model.0/act/Mul_output_0: 3d7f304e
/model.1/conv/Conv_output_0: 3dc398e0
/model.1/act/Sigmoid_output_0: 3c0068d2
/model.1/act/Mul_output_0: 3cfde716
/model.2/cv1/conv/Conv_output_0: 3d6eb970
/model.2/cv1/act/Sigmoid_output_0: 3c02b566
/model.2/cv1/act/Mul_output_0: 3cd0e443
/model.2/Split_output_0: 3d0cfd96
/model.2/Split_output_1: 3c484a94
/model.2/m.0/cv1/conv/Conv_output_0: 3d64462c
/model.2/m.0/cv1/act/Sigmoid_output_0: 3c0376d7
/model.2/m.0/cv1/act/Mul_output_0: 3cb2d308
/model.2/m.0/cv2/conv/Conv_output_0: 3d67116c
/model.2/m.0/cv2/act/Sigmoid_output_0: 3c010a14
/model.2/m.0/cv2/act/Mul_output_0: 3d218c50
/model.2/m.0/Add_output_0: 3d8e62df
/model.2/Concat_output_0: 3d3efac5
/model.2/cv2/conv/Conv_output_0: 3d2ece96
/model.2/cv2/act/Sigmoid_output_0: 3bff9e9f
/model.2/cv2/act/Mul_output_0: 3ce51e43
/model.3/conv/Conv_output_0: 3ce6b0ac
/model.3/act/Sigmoid_output_0: 3c006666
/model.3/act/Mul_output_0: 3cb3b2f3
/model.4/conv/Conv_output_0: 3dba7b84
/model.4/act/Sigmoid_output_0: 3c010a14
/model.4/act/Mul_output_0: 3d6b099c
/model.5/conv/Conv_output_0: 3d82bdfc
/model.5/act/Sigmoid_output_0: 3c010a14
/model.5/act/Mul_output_0: 3d2b8285
/model.6/cv1/conv/Conv_output_0: 3d8abcbb
/model.6/cv1/act/Sigmoid_output_0: 3c03f7ef
/model.6/cv1/act/Mul_output_0: 3d6e1539
/model.6/Split_output_0: 3d11b9a6
/model.6/Split_output_1: 3d6e1539
/model.6/m.0/spatial_mixing/Split_output_0: 3d10cae5
/model.6/m.0/spatial_mixing/Split_output_1: 3d151478
/model.6/m.0/spatial_mixing/partial_conv3/Conv_output_0: 3d02b216
/model.6/m.0/spatial_mixing/Concat_output_0: 3d111fd0
/model.6/m.0/mlp/mlp.0/conv/Conv_output_0: 3d95e281
/model.6/m.0/mlp/mlp.0/act/Sigmoid_output_0: 3c002fd1
/model.6/m.0/mlp/mlp.0/act/Mul_output_0: 3cfe9989
/model.6/Concat_output_0: 3d6e1539
/model.6/cv2/conv/Conv_output_0: 3d894cd7
/model.6/cv2/act/Sigmoid_output_0: 3c07157a
/model.6/cv2/act/Mul_output_0: 3d11f637
/model.7/conv/Conv_output_0: 3d3dc939
/model.7/act/Sigmoid_output_0: 3c03347f
/model.7/act/Mul_output_0: 3d130e79
/Concat_output_0: 3d12bfcc
/model.8/avg_pool/GlobalAveragePool_output_0: 3cfe757d
/model.8/Reshape_output_0: 3cfe757d
(Unnamed Layer* 147) [Constant]_output: 3b807a16
/model.8/fc/fc.0/MatMul_output_0: 3ce90054
/model.8/fc/fc.1/Relu_output_0: 3d06cc6e
(Unnamed Layer* 150) [Constant]_output: 3b3beb0e
/model.8/fc/fc.2/MatMul_output_0: 3c82317d
/model.8/fc/fc.3/Sigmoid_output_0: 3be38cd8
/model.8/Reshape_1_output_0: 3be38cd8
/model.8/Mul_output_0: 3cfc669c
/model.8/Slice_output_0: 3d360a92
/model.8/Slice_1_output_0: 3c9a4eec
/model.8/Concat_2_output_0: 3cfc669c
/model.8/Add_output_0: 3d577f7a
/Slice_2_output_0: 3d560bd2
/Slice_3_output_0: 3d458df1
/model.9/cv1/conv/Conv_output_0: 3d5f612c
/model.9/cv1/act/Sigmoid_output_0: 3c06da2a
/model.9/cv1/act/Mul_output_0: 3d27d7b7
/model.9/Split_output_0: 3d2949d0
/model.9/Split_output_1: 3cbed312
/model.9/m.0/cv1/conv/Conv_output_0: 3d6fbbf9
/model.9/m.0/cv1/act/Sigmoid_output_0: 3c00c3a8
/model.9/m.0/cv1/act/Mul_output_0: 3d013e5d
/model.9/m.0/cv2/conv/Conv_output_0: 3d5c95d7
/model.9/m.0/cv2/act/Sigmoid_output_0: 3c00c5fb
/model.9/m.0/cv2/act/Mul_output_0: 3d103fbb
/model.9/m.0/Add_output_0: 3d67709b
/model.9/m.1/cv1/conv/Conv_output_0: 3d7cf181
/model.9/m.1/cv1/act/Sigmoid_output_0: 3c00cdf9
/model.9/m.1/cv1/act/Mul_output_0: 3cd5a63a
/model.9/m.1/cv2/conv/Conv_output_0: 3da418d8
/model.9/m.1/cv2/act/Sigmoid_output_0: 3c075e9f
/model.9/m.1/cv2/act/Mul_output_0: 3d68f4e0
/model.9/m.1/Add_output_0: 3dbaca28
/model.9/Concat_output_0: 3d41243f
/model.9/cv2/conv/Conv_output_0: 3d92ee76
/model.9/cv2/act/Sigmoid_output_0: 3c0213c5
/model.9/cv2/act/Mul_output_0: 3d29bbdd
/model.10/conv/Conv_output_0: 3d86bf1b
/model.10/act/Sigmoid_output_0: 3c00ed84
/model.10/act/Mul_output_0: 3d001266
/model.11/cv1/conv/Conv_output_0: 3d85c50d
/model.11/cv1/act/Sigmoid_output_0: 3bffbdb5
/model.11/cv1/act/Mul_output_0: 3d106050
/model.11/Split_output_0: 3d110e6a
/model.11/Split_output_1: 3d10da31
/model.11/m.0/spatial_mixing/Split_output_0: 3cffacc1
/model.11/m.0/spatial_mixing/Split_output_1: 3d10da31
/model.11/m.0/spatial_mixing/partial_conv3/Conv_output_0: 3ce052be
/model.11/m.0/spatial_mixing/Concat_output_0: 3d10da31
/model.11/m.0/mlp/mlp.0/conv/Conv_output_0: 3d292c6e
/model.11/m.0/mlp/mlp.0/act/Sigmoid_output_0: 3c00b4fb
/model.11/m.0/mlp/mlp.0/act/Mul_output_0: 3d004c41
/model.11/m.1/spatial_mixing/Split_output_0: 3cd2e8e3
/model.11/m.1/spatial_mixing/Split_output_1: 3d113655
/model.11/m.1/spatial_mixing/partial_conv3/Conv_output_0: 3cc34b23
/model.11/m.1/spatial_mixing/Concat_output_0: 3d113655
/model.11/m.1/mlp/mlp.0/conv/Conv_output_0: 3d52b728
/model.11/m.1/mlp/mlp.0/act/Sigmoid_output_0: 3c020d6c
/model.11/m.1/mlp/mlp.0/act/Mul_output_0: 3cc2292b
/model.11/Concat_output_0: 3d017c34
/model.11/cv2/conv/Conv_output_0: 3d0cffc7
/model.11/cv2/act/Sigmoid_output_0: 3c00683e
/model.11/cv2/act/Mul_output_0: 3c80307a
/model.12/conv/Conv_output_0: 3d4322e9
/model.12/act/Sigmoid_output_0: 3bffdb64
/model.12/act/Mul_output_0: 3cea4fba
/Concat_1_output_0: 3cd1784d
/model.13/avg_pool/GlobalAveragePool_output_0: 3c6787f6
/model.13/Reshape_output_0: 3c6787f6
(Unnamed Layer* 369) [Constant]_output: 3a9fc97b
/model.13/fc/fc.0/MatMul_output_0: 3c8abdd8
/model.13/fc/fc.1/Relu_output_0: 3c8abdd8
(Unnamed Layer* 372) [Constant]_output: 3aa688a5
/model.13/fc/fc.2/MatMul_output_0: 3c0ebc13
/model.13/fc/fc.3/Sigmoid_output_0: 3bc91352
/model.13/Reshape_1_output_0: 3bc91352
/model.13/Mul_output_0: 3c97c62c
/model.13/Slice_output_0: 3c6df7d4
/model.13/Slice_1_output_0: 3cc8e928
/model.13/Concat_2_output_0: 3c97c62c
/model.13/Add_output_0: 3d5a6ff1
/Slice_4_output_0: 3d5ba820
/Slice_5_output_0: 3d2b83e7
/model.14/cv1/conv/Conv_output_0: 3d720818
/model.14/cv1/act/Sigmoid_output_0: 3c00f1aa
/model.14/cv1/act/Mul_output_0: 3cffca5d
/model.14/Split_output_0: 3cffca5d
/model.14/Split_output_1: 3cc1faa4
/model.14/m.0/cv1/conv/Conv_output_0: 3d8cada2
/model.14/m.0/cv1/act/Sigmoid_output_0: 3c00e910
/model.14/m.0/cv1/act/Mul_output_0: 3d1135d0
/model.14/m.0/cv2/conv/Conv_output_0: 3d8327f7
/model.14/m.0/cv2/act/Sigmoid_output_0: 3c00e9d7
/model.14/m.0/cv2/act/Mul_output_0: 3d025f37
/model.14/m.0/Add_output_0: 3d50a3df
/model.14/m.1/cv1/conv/Conv_output_0: 3d8f3537
/model.14/m.1/cv1/act/Sigmoid_output_0: 3c00c0f4
/model.14/m.1/cv1/act/Mul_output_0: 3ce8715f
/model.14/m.1/cv2/conv/Conv_output_0: 3d9374ae
/model.14/m.1/cv2/act/Sigmoid_output_0: 3c00f149
/model.14/m.1/cv2/act/Mul_output_0: 3d296e02
/model.14/m.1/Add_output_0: 3d8e5ff6
/model.14/Concat_output_0: 3d243905
/model.14/cv2/conv/Conv_output_0: 3d8c70fc
/model.14/cv2/act/Sigmoid_output_0: 3c00f135
/model.14/cv2/act/Mul_output_0: 3d2780e9
/model.15/conv/Conv_output_0: 3d59c435
/model.15/act/Sigmoid_output_0: 3c00f05c
/model.15/act/Mul_output_0: 3ce9a2d5
/model.16/cv1/conv/Conv_output_0: 3d692534
/model.16/cv1/act/Sigmoid_output_0: 3c005b4b
/model.16/cv1/act/Mul_output_0: 3ce889af
/model.16/Split_output_0: 3cd344f8
/model.16/Split_output_1: 3ce889af
/model.16/m.0/spatial_mixing/Split_output_0: 3ce889af
/model.16/m.0/spatial_mixing/Split_output_1: 3d01ab08
/model.16/m.0/spatial_mixing/partial_conv3/Conv_output_0: 3cf96bfe
/model.16/m.0/spatial_mixing/Concat_output_0: 3d01ab08
/model.16/m.0/mlp/mlp.0/conv/Conv_output_0: 3d69073d
/model.16/m.0/mlp/mlp.0/act/Sigmoid_output_0: 3c007182
/model.16/m.0/mlp/mlp.0/act/Mul_output_0: 3cc08aab
/model.16/m.1/spatial_mixing/Split_output_0: 3ce702c2
/model.16/m.1/spatial_mixing/Split_output_1: 3cd331a6
/model.16/m.1/spatial_mixing/partial_conv3/Conv_output_0: 3cc22fb0
/model.16/m.1/spatial_mixing/Concat_output_0: 3cd38ce6
/model.16/m.1/mlp/mlp.0/conv/Conv_output_0: 3d6ab90b
/model.16/m.1/mlp/mlp.0/act/Sigmoid_output_0: 3c007f2b
/model.16/m.1/mlp/mlp.0/act/Mul_output_0: 3ce61b73
/model.16/Concat_output_0: 3ce61b73
/model.16/cv2/conv/Conv_output_0: 3d4ad91b
/model.16/cv2/act/Sigmoid_output_0: 3c013206
/model.16/cv2/act/Mul_output_0: 3d022018
/model.17/conv/Conv_output_0: 3d402815
/model.17/act/Sigmoid_output_0: 3c00977a
/model.17/act/Mul_output_0: 3cea90cd
/Concat_2_output_0: 3ce9a2d5
/model.18/avg_pool/GlobalAveragePool_output_0: 3c6cbcfc
/model.18/Reshape_output_0: 3c6cbcfc
(Unnamed Layer* 591) [Constant]_output: 3a11bb22
/model.18/fc/fc.0/MatMul_output_0: 3cf2c045
/model.18/fc/fc.1/Relu_output_0: 3cf2c045
(Unnamed Layer* 594) [Constant]_output: 3a462375
/model.18/fc/fc.2/MatMul_output_0: 3c3df628
/model.18/fc/fc.3/Sigmoid_output_0: 3bdcccab
/model.18/Reshape_1_output_0: 3bdcccab
/model.18/Mul_output_0: 3cbd83bf
/model.18/Slice_output_0: 3cad4b24
/model.18/Slice_1_output_0: 3cb42eef
/model.18/Concat_2_output_0: 3cbd83bf
/model.18/Add_output_0: 3d374dd0
/Slice_6_output_0: 3d4ae41b
/Slice_7_output_0: 3d29aaa7
/model.19/cv1/conv/Conv_output_0: 3d4773d3
/model.19/cv1/act/Sigmoid_output_0: 3c008a09
/model.19/cv1/act/Mul_output_0: 3cd3e3fe
/model.19/Split_output_0: 3cd3e3fe
/model.19/Split_output_1: 3cc2bf09
/model.19/m.0/cv1/conv/Conv_output_0: 3d6a4cac
/model.19/m.0/cv1/act/Sigmoid_output_0: 3c0087e3
/model.19/m.0/cv1/act/Mul_output_0: 3cd23302
/model.19/m.0/cv2/conv/Conv_output_0: 3d75c6fd
/model.19/m.0/cv2/act/Sigmoid_output_0: 3c00cfed
/model.19/m.0/cv2/act/Mul_output_0: 3d014f0e
/model.19/m.0/Add_output_0: 3d806e0b
/model.19/Concat_output_0: 3d005d88
/model.19/cv2/conv/Conv_output_0: 3d557cf7
/model.19/cv2/act/Sigmoid_output_0: 3c008896
/model.19/cv2/act/Mul_output_0: 3d0172a2
/model.20/cv1/conv/Conv_output_0: 3d585fd5
/model.20/cv1/act/Sigmoid_output_0: 3c00c7a8
/model.20/cv1/act/Mul_output_0: 3d001bb4
/model.20/m/MaxPool_output_0: 3d001bb4
/model.20/m_1/MaxPool_output_0: 3d001bb4
/model.20/m_2/MaxPool_output_0: 3d001bb4
/model.20/Concat_output_0: 3d6657ea
/model.20/cv2/conv/Conv_output_0: 3d802cc2
/model.20/cv2/act/Sigmoid_output_0: 3c00b1cf
/model.20/cv2/act/Mul_output_0: 3cc0811e
/model.21/cv1/conv/Conv_output_0: 3d3d8b7f
/model.21/cv1/act/Sigmoid_output_0: 3c00b422
/model.21/cv1/act/Mul_output_0: 3cd2e865
/model.21/Split_output_0: 3cd21c92
/model.21/Split_output_1: 3cd2e865
/model.21/m.0/spatial_mixing/Split_output_0: 3d00dd12
/model.21/m.0/spatial_mixing/Split_output_1: 3cd10a11
/model.21/m.0/spatial_mixing/partial_conv3/Conv_output_0: 3d1b6661
/model.21/m.0/spatial_mixing/Concat_output_0: 3cd10a11
/model.21/m.0/mlp/mlp.0/conv/Conv_output_0: 3d4bf617
/model.21/m.0/mlp/mlp.0/act/Sigmoid_output_0: 3c005205
/model.21/m.0/mlp/mlp.0/act/Mul_output_0: 3ce6b553
/model.21/Concat_output_0: 3cd2e865
/model.21/cv2/conv/Conv_output_0: 3d35dbf7
/model.21/cv2/act/Sigmoid_output_0: 3c009a18
/model.21/cv2/act/Mul_output_0: 3cd11f65
/model.22/cv1/conv/Conv_output_0: 3d47aaf5
/model.22/cv1/act/Sigmoid_output_0: 3c00a489
/model.22/cv1/act/Mul_output_0: 3d01b726
/model.22/m/MaxPool_output_0: 3d01b726
/model.22/m_1/MaxPool_output_0: 3d01b726
/model.22/m_2/MaxPool_output_0: 3d01b726
/model.22/Concat_output_0: 3d68fd76
/model.22/cv2/conv/Conv_output_0: 3d692c5d
/model.22/cv2/act/Sigmoid_output_0: 3c00b0e0
/model.22/cv2/act/Mul_output_0: 3cd3ca62
/model.23/Add_output_0: 3d8cd46f
/model.24/Add_output_0: 3d9164df
/model.25/Add_output_0: 3d61a9fb
/model.26/Resize_output_0: 3d61a9fb
/model.27/Concat_output_0: 3d68ab84
/model.28/cv1/conv/Conv_output_0: 3d801cf0
/model.28/cv1/act/Sigmoid_output_0: 3c00c8fe
/model.28/cv1/act/Mul_output_0: 3d01ca4d
/model.28/Split_output_0: 3d01ca4d
/model.28/Split_output_1: 3d028701
/model.28/m.0/cv1/conv/Conv_output_0: 3d74fe8f
/model.28/m.0/cv1/act/Sigmoid_output_0: 3c00ccd1
/model.28/m.0/cv1/act/Mul_output_0: 3d0277f4
/model.28/m.0/cv2/conv/Conv_output_0: 3d78b9a1
/model.28/m.0/cv2/act/Sigmoid_output_0: 3c00f096
/model.28/m.0/cv2/act/Mul_output_0: 3d146606
/model.28/Concat_output_0: 3d01ca4d
/model.28/cv2/conv/Conv_output_0: 3d67155a
/model.28/cv2/act/Sigmoid_output_0: 3c00f14d
/model.28/cv2/act/Mul_output_0: 3d29d33f
/model.29/Resize_output_0: 3d29d33f
/model.30/Concat_output_0: 3d2a8076
/model.31/cv1/conv/Conv_output_0: 3d4e0257
/model.31/cv1/act/Sigmoid_output_0: 3c007bb7
/model.31/cv1/act/Mul_output_0: 3ce6b33d
/model.31/Split_output_0: 3ce6b33d
/model.31/Split_output_1: 3cc042b8
/model.31/m.0/cv1/conv/Conv_output_0: 3d4ccffd
/model.31/m.0/cv1/act/Sigmoid_output_0: 3c0002ed
/model.31/m.0/cv1/act/Mul_output_0: 3ce96b7c
/model.31/m.0/cv2/conv/Conv_output_0: 3d876edb
/model.31/m.0/cv2/act/Sigmoid_output_0: 3c00eb98
/model.31/m.0/cv2/act/Mul_output_0: 3d439860
/model.31/Concat_output_0: 3d278e88
/model.31/cv2/conv/Conv_output_0: 3da7235c
/model.31/cv2/act/Sigmoid_output_0: 3c010886
/model.31/cv2/act/Mul_output_0: 3cbf906e
/model.32/conv/Conv_output_0: 3da1c161
/model.32/act/Sigmoid_output_0: 3c0417ed
/model.32/act/Mul_output_0: 3d459619
/model.33/Concat_output_0: 3d297067
/model.34/cv1/conv/Conv_output_0: 3d81f802
/model.34/cv1/act/Sigmoid_output_0: 3c010cb2
/model.34/cv1/act/Mul_output_0: 3d00b10c
/model.34/Split_output_0: 3d284ac1
/model.34/Split_output_1: 3cc13e32
/model.34/m.0/cv1/conv/Conv_output_0: 3d83c23d
/model.34/m.0/cv1/act/Sigmoid_output_0: 3c010e45
/model.34/m.0/cv1/act/Mul_output_0: 3cd4540b
/model.34/m.0/cv2/conv/Conv_output_0: 3d888012
/model.34/m.0/cv2/act/Sigmoid_output_0: 3c010a0d
/model.34/m.0/cv2/act/Mul_output_0: 3d01095f
/model.34/Concat_output_0: 3d01095f
/model.34/cv2/conv/Conv_output_0: 3d7e4011
/model.34/cv2/act/Sigmoid_output_0: 3c00f021
/model.34/cv2/act/Mul_output_0: 3ce619f7
/model.35/conv/Conv_output_0: 3d2dd0ac
/model.35/act/Sigmoid_output_0: 3c00d40d
/model.35/act/Mul_output_0: 3cd2275d
/model.36/Concat_output_0: 3d264d62
/model.37/cv1/conv/Conv_output_0: 3d140029
/model.37/cv1/act/Sigmoid_output_0: 3c0037ae
/model.37/cv1/act/Mul_output_0: 3cb0f472
/model.37/Split_output_0: 3cb0f472
/model.37/Split_output_1: 3cb31f4b
/model.37/m.0/cv1/conv/Conv_output_0: 3d0cf3d2
/model.37/m.0/cv1/act/Sigmoid_output_0: 3bffdfee
/model.37/m.0/cv1/act/Mul_output_0: 3c996479
/model.37/m.0/cv2/conv/Conv_output_0: 3cf8fa16
/model.37/m.0/cv2/act/Sigmoid_output_0: 3bfd71a9
/model.37/m.0/cv2/act/Mul_output_0: 3c7282fc
/model.37/Concat_output_0: 3c8fe965
/model.37/cv2/conv/Conv_output_0: 3ce52685
/model.37/cv2/act/Sigmoid_output_0: 3bfe800a
/model.37/cv2/act/Mul_output_0: 3c9a2605
/model.38/cv2.0/cv2.0.0/conv/Conv_output_0: 3d96ffdb
/model.38/cv2.0/cv2.0.0/act/Sigmoid_output_0: 3c00826d
/model.38/cv2.0/cv2.0.0/act/Mul_output_0: 3d00e553
/model.38/cv2.0/cv2.0.1/conv/Conv_output_0: 3da1ac0b
/model.38/cv2.0/cv2.0.1/act/Sigmoid_output_0: 3c011221
/model.38/cv2.0/cv2.0.1/act/Mul_output_0: 3d251dec
/model.38/cv2.0/cv2.0.2/Conv_output_0: 3e051950
/model.38/cv3.0/cv3.0.0/conv/Conv_output_0: 3dc6e4e1
/model.38/cv3.0/cv3.0.0/act/Sigmoid_output_0: 3c0111f5
/model.38/cv3.0/cv3.0.0/act/Mul_output_0: 3d0208a0
/model.38/cv3.0/cv3.0.1/conv/Conv_output_0: 3e407db8
/model.38/cv3.0/cv3.0.1/act/Sigmoid_output_0: 3c010a14
/model.38/cv3.0/cv3.0.1/act/Mul_output_0: 3d91b2cf
/model.38/cv3.0/cv3.0.2/Conv_output_0: 3f126abf
/model.38/Concat_output_0: 3ea1da9a
/model.38/cv2.1/cv2.1.0/conv/Conv_output_0: 3d821ac4
/model.38/cv2.1/cv2.1.0/act/Sigmoid_output_0: 3c00ee98
/model.38/cv2.1/cv2.1.0/act/Mul_output_0: 3d10183e
/model.38/cv2.1/cv2.1.1/conv/Conv_output_0: 3dc14237
/model.38/cv2.1/cv2.1.1/act/Sigmoid_output_0: 3c010a14
/model.38/cv2.1/cv2.1.1/act/Mul_output_0: 3d46aed4
/model.38/cv2.1/cv2.1.2/Conv_output_0: 3dcdf9b8
/model.38/cv3.1/cv3.1.0/conv/Conv_output_0: 3da69f54
/model.38/cv3.1/cv3.1.0/act/Sigmoid_output_0: 3c01103d
/model.38/cv3.1/cv3.1.0/act/Mul_output_0: 3d139df7
/model.38/cv3.1/cv3.1.1/conv/Conv_output_0: 3de93d4f
/model.38/cv3.1/cv3.1.1/act/Sigmoid_output_0: 3c010a14
/model.38/cv3.1/cv3.1.1/act/Mul_output_0: 3d705e68
/model.38/cv3.1/cv3.1.2/Conv_output_0: 3e90e0c1
/model.38/Concat_1_output_0: 3e55a1e3
/model.38/cv2.2/cv2.2.0/conv/Conv_output_0: 3d122928
/model.38/cv2.2/cv2.2.0/act/Sigmoid_output_0: 3c00da03
/model.38/cv2.2/cv2.2.0/act/Mul_output_0: 3cb1eb19
/model.38/cv2.2/cv2.2.1/conv/Conv_output_0: 3d2c1874
/model.38/cv2.2/cv2.2.1/act/Sigmoid_output_0: 3c01fc8f
/model.38/cv2.2/cv2.2.1/act/Mul_output_0: 3cd4650b
/model.38/cv2.2/cv2.2.2/Conv_output_0: 3c32ce5f
/model.38/cv3.2/cv3.2.0/conv/Conv_output_0: 3cae9ac1
/model.38/cv3.2/cv3.2.0/act/Sigmoid_output_0: 3bf00c91
/model.38/cv3.2/cv3.2.0/act/Mul_output_0: 3c5282fd
/model.38/cv3.2/cv3.2.1/conv/Conv_output_0: 3cac449e
/model.38/cv3.2/cv3.2.1/act/Sigmoid_output_0: 3bee8e50
/model.38/cv3.2/cv3.2.1/act/Mul_output_0: 3c9aa28f
/model.38/cv3.2/cv3.2.2/Conv_output_0: 3dc679de
/model.38/Concat_2_output_0: 3dc3ee23
/model.38/Reshape_output_0: 3ea1da9a
/model.38/Reshape_1_output_0: 3e55a1e3
/model.38/Reshape_2_output_0: 3dc3ee23
/model.38/Concat_6_output_0: 3e981fbc
(Unnamed Layer* 967) [Constant]_output: 3e810a14
/model.38/Split_output_0: 3d810a14
/model.38/Split_output_1: 3e010a14
/model.38/Split_output_2: 3e810a14
/model.38/Range_output_0: 3f1f4871
(Unnamed Layer* 991) [Shuffle]_output: 3c010a14
(Unnamed Layer* 993) [Shuffle]_output: 3b810a14
/model.38/Add_output_0: 3f204a85
/model.38/Range_1_output_0: 3f1f4871
(Unnamed Layer* 1006) [Shuffle]_output: 3c010a14
(Unnamed Layer* 1008) [Shuffle]_output: 3b810a14
/model.38/Add_1_output_0: 3f204a85
/model.38/Reshape_5_output_0: 3f204a85
/model.38/Expand_output_0: 3f204a85
/model.38/Reshape_6_output_0: 3f204a85
/model.38/Expand_1_output_0: 3f204a85
/model.38/Unsqueeze_3_output_0: 3f204a85
/model.38/Unsqueeze_4_output_0: 3f204a85
/model.38/Concat_10_output_0: 3f204a85
/model.38/Reshape_7_output_0: 3f204a85
(Unnamed Layer* 1059) [Constant]_output: 0
(Unnamed Layer* 1060) [Shuffle]_output: 0
/model.38/ConstantOfShape_output_0: 0
(Unnamed Layer* 1063) [Shuffle]_output: 3d810a14
/model.38/Add_2_output_0: 3d810a14
/model.38/Range_2_output_0: 3e9d4449
(Unnamed Layer* 1082) [Shuffle]_output: 3c010a14
(Unnamed Layer* 1084) [Shuffle]_output: 3b810a14
/model.38/Add_3_output_0: 3e9f4871
/model.38/Range_3_output_0: 3e9d4449
(Unnamed Layer* 1097) [Shuffle]_output: 3c010a14
(Unnamed Layer* 1099) [Shuffle]_output: 3b810a14
/model.38/Add_4_output_0: 3e9f4871
/model.38/Reshape_10_output_0: 3e9f4871
/model.38/Expand_2_output_0: 3e9f4871
/model.38/Reshape_11_output_0: 3e9f4871
/model.38/Expand_3_output_0: 3e9f4871
/model.38/Unsqueeze_6_output_0: 3e9f4871
/model.38/Unsqueeze_7_output_0: 3e9f4871
/model.38/Concat_15_output_0: 3e9f4871
/model.38/Reshape_12_output_0: 3e9f4871
(Unnamed Layer* 1150) [Constant]_output: 0
(Unnamed Layer* 1151) [Shuffle]_output: 0
/model.38/ConstantOfShape_1_output_0: 0
(Unnamed Layer* 1154) [Shuffle]_output: 3e010a14
/model.38/Add_5_output_0: 3e010a14
/model.38/Range_4_output_0: 3e193bf8
(Unnamed Layer* 1173) [Shuffle]_output: 3c010a14
(Unnamed Layer* 1175) [Shuffle]_output: 3b810a14
/model.38/Add_6_output_0: 3e1d4449
/model.38/Range_5_output_0: 3e193bf8
(Unnamed Layer* 1188) [Shuffle]_output: 3c010a14
(Unnamed Layer* 1190) [Shuffle]_output: 3b810a14
/model.38/Add_7_output_0: 3e1d4449
/model.38/Reshape_15_output_0: 3e1d4449
/model.38/Expand_4_output_0: 3e1d4449
/model.38/Reshape_16_output_0: 3e1d4449
/model.38/Expand_5_output_0: 3e1d4449
/model.38/Unsqueeze_9_output_0: 3e1d4449
/model.38/Unsqueeze_10_output_0: 3e1d4449
/model.38/Concat_20_output_0: 3e1d4449
/model.38/Reshape_17_output_0: 3e1d4449
(Unnamed Layer* 1241) [Constant]_output: 0
(Unnamed Layer* 1242) [Shuffle]_output: 0
/model.38/ConstantOfShape_2_output_0: 0
(Unnamed Layer* 1245) [Shuffle]_output: 3e810a14
/model.38/Add_8_output_0: 3e810a14
/model.38/Concat_22_output_0: 3f204a85
/model.38/Concat_23_output_0: 3e810a14
/model.38/Transpose_output_0: 3f204a85
/model.38/Transpose_1_output_0: 3e810a14
/model.38/Split_1_output_0: 3dd717e7
/model.38/Split_1_output_1: 3ee89549
/model.38/dfl/Reshape_output_0: 3dd717e7
/model.38/dfl/Transpose_output_0: 3dd717e7
(Unnamed Layer* 1274) [Softmax]_output: 3bd8ca0c
/model.38/dfl/conv/Conv_output_0: 3d9d7c8f
/model.38/dfl/Reshape_1_output_0: 3d9d7c8f
/model.38/Unsqueeze_12_output_0: 3f204a85
/model.38/Slice_output_0: 3d9e5807
/model.38/Slice_1_output_0: 3d74e667
/model.38/Sub_output_0: 3f2004b5
/model.38/Add_10_output_0: 3f2193f0
/model.38/Add_11_output_0: 3fa0b802
(Unnamed Layer* 1357) [Shuffle]_output: 3c810a14
/model.38/Div_1_output_0: 3f20b802
/model.38/Sub_1_output_0: 3df47800
/model.38/Concat_24_output_0: 3f233a92
(Unnamed Layer* 1364) [Shuffle]_output: 3e810a14
/model.38/Mul_5_output_0: 40a5e54b
/model.38/Sigmoid_output_0: 3be3a537
output0: 40a5e54b
