TRT-8503-EntropyCalibration2
images: 3bf80000
/Slice_output_0: 3bf80000
/Slice_1_output_0: 3bf80000
/model.0/conv/Conv_output_0: 3e17ffeb
/model.0/act/Sigmoid_output_0: 3c010a14
/model.0/act/Mul_output_0: 3e0077a4
/model.1/conv/Conv_output_0: 3e0473d0
/model.1/act/Sigmoid_output_0: 3c0068d2
/model.1/act/Mul_output_0: 3ccde6eb
/model.2/cv1/conv/Conv_output_0: 3d794058
/model.2/cv1/act/Sigmoid_output_0: 3c02b552
/model.2/cv1/act/Mul_output_0: 3d0f49f7
/model.2/Split_output_0: 3d127ed3
/model.2/Split_output_1: 3c481af2
/model.2/m.0/cv1/conv/Conv_output_0: 3d170770
/model.2/m.0/cv1/act/Sigmoid_output_0: 3c0376de
/model.2/m.0/cv1/act/Mul_output_0: 3c99b8d6
/model.2/m.0/cv2/conv/Conv_output_0: 3d9df398
/model.2/m.0/cv2/act/Sigmoid_output_0: 3c010a14
/model.2/m.0/cv2/act/Mul_output_0: 3d66d515
/model.2/m.0/Add_output_0: 3d5ba7a5
/model.2/Concat_output_0: 3d6a0403
/model.2/cv2/conv/Conv_output_0: 3d4d09fc
/model.2/cv2/act/Sigmoid_output_0: 3bff9d9c
/model.2/cv2/act/Mul_output_0: 3c6e3d81
/model.3/conv/Conv_output_0: 3cd32633
/model.3/act/Sigmoid_output_0: 3c0065fd
/model.3/act/Mul_output_0: 3cb24b90
/model.4/conv/Conv_output_0: 3dbad6b2
/model.4/act/Sigmoid_output_0: 3c010a14
/model.4/act/Mul_output_0: 3d640848
/model.5/conv/Conv_output_0: 3d9ca362
/model.5/act/Sigmoid_output_0: 3c010a14
/model.5/act/Mul_output_0: 3d43d356
/model.6/cv1/conv/Conv_output_0: 3d835b33
/model.6/cv1/act/Sigmoid_output_0: 3c010a14
/model.6/cv1/act/Mul_output_0: 3d6d4382
/model.6/Split_output_0: 3d3c8d58
/model.6/Split_output_1: 3d41bfb5
/model.6/m.0/spatial_mixing/Split_output_0: 3d4257b4
/model.6/m.0/spatial_mixing/Split_output_1: 3d41bfb5
/model.6/m.0/spatial_mixing/partial_conv3/Conv_output_0: 3d07d89f
/model.6/m.0/spatial_mixing/Concat_output_0: 3d41bfb5
/model.6/m.0/mlp/mlp.0/conv/Conv_output_0: 3d94c457
/model.6/m.0/mlp/mlp.0/act/Sigmoid_output_0: 3c002ff8
/model.6/m.0/mlp/mlp.0/act/Mul_output_0: 3d02112e
/model.6/Concat_output_0: 3d6d4382
/model.6/cv2/conv/Conv_output_0: 3d8ffaf8
/model.6/cv2/act/Sigmoid_output_0: 3c072c88
/model.6/cv2/act/Mul_output_0: 3d106a07
/model.7/conv/Conv_output_0: 3d334e7c
/model.7/act/Sigmoid_output_0: 3c0334b4
/model.7/act/Mul_output_0: 3d2191de
/Concat_output_0: 3d0e9922
/model.8/avg_pool/GlobalAveragePool_output_0: 3cf242ee
/model.8/Reshape_output_0: 3cf242ee
(Unnamed Layer* 147) [Constant]_output: 3b807a16
/model.8/fc/fc.0/MatMul_output_0: 3cf00ce1
/model.8/fc/fc.1/Relu_output_0: 3d0ba302
(Unnamed Layer* 150) [Constant]_output: 3b3beb0e
/model.8/fc/fc.2/MatMul_output_0: 3c74a22f
/model.8/fc/fc.3/Sigmoid_output_0: 3be5106e
/model.8/Reshape_1_output_0: 3be5106e
/model.8/Mul_output_0: 3cf5dcb1
/model.8/Slice_output_0: 3d2dbb0a
/model.8/Slice_1_output_0: 3c9c05d2
/model.8/Concat_2_output_0: 3cf5dcb1
/model.8/Add_output_0: 3d5679f6
/Slice_2_output_0: 3d56b2f2
/Slice_3_output_0: 3d536535
/model.9/cv1/conv/Conv_output_0: 3d5fa5ac
/model.9/cv1/act/Sigmoid_output_0: 3c06dc61
/model.9/cv1/act/Mul_output_0: 3d148191
/model.9/Split_output_0: 3d299b6b
/model.9/Split_output_1: 3cc1a651
/model.9/m.0/cv1/conv/Conv_output_0: 3d707113
/model.9/m.0/cv1/act/Sigmoid_output_0: 3c04a6d8
/model.9/m.0/cv1/act/Mul_output_0: 3cb10e39
/model.9/m.0/cv2/conv/Conv_output_0: 3d5dc79c
/model.9/m.0/cv2/act/Sigmoid_output_0: 3c00cab0
/model.9/m.0/cv2/act/Mul_output_0: 3d00e0d3
/model.9/m.0/Add_output_0: 3d671879
/model.9/m.1/cv1/conv/Conv_output_0: 3d7a491f
/model.9/m.1/cv1/act/Sigmoid_output_0: 3c00c6f7
/model.9/m.1/cv1/act/Mul_output_0: 3cb35a7a
/model.9/m.1/cv2/conv/Conv_output_0: 3daddc27
/model.9/m.1/cv2/act/Sigmoid_output_0: 3c075eaf
/model.9/m.1/cv2/act/Mul_output_0: 3d6d3d4e
/model.9/m.1/Add_output_0: 3dbaa72d
/model.9/Concat_output_0: 3d43b753
/model.9/cv2/conv/Conv_output_0: 3d82a710
/model.9/cv2/act/Sigmoid_output_0: 3c0213e7
/model.9/cv2/act/Mul_output_0: 3d29b080
/model.10/conv/Conv_output_0: 3d86df09
/model.10/act/Sigmoid_output_0: 3c00ee1c
/model.10/act/Mul_output_0: 3d27563e
/model.11/cv1/conv/Conv_output_0: 3d85ddad
/model.11/cv1/act/Sigmoid_output_0: 3bffbf54
/model.11/cv1/act/Mul_output_0: 3d111152
/model.11/Split_output_0: 3ce4feb8
/model.11/Split_output_1: 3d111152
/model.11/m.0/spatial_mixing/Split_output_0: 3cff17e0
/model.11/m.0/spatial_mixing/Split_output_1: 3d111152
/model.11/m.0/spatial_mixing/partial_conv3/Conv_output_0: 3cdf07aa
/model.11/m.0/spatial_mixing/Concat_output_0: 3d111152
/model.11/m.0/mlp/mlp.0/conv/Conv_output_0: 3d28ba24
/model.11/m.0/mlp/mlp.0/act/Sigmoid_output_0: 3c007e90
/model.11/m.0/mlp/mlp.0/act/Mul_output_0: 3d006efe
/model.11/m.1/spatial_mixing/Split_output_0: 3cd312dd
/model.11/m.1/spatial_mixing/Split_output_1: 3d114d9f
/model.11/m.1/spatial_mixing/partial_conv3/Conv_output_0: 3cc2ba5d
/model.11/m.1/spatial_mixing/Concat_output_0: 3d102f4e
/model.11/m.1/mlp/mlp.0/conv/Conv_output_0: 3d66d927
/model.11/m.1/mlp/mlp.0/act/Sigmoid_output_0: 3c020bfc
/model.11/m.1/mlp/mlp.0/act/Mul_output_0: 3d024537
/model.11/Concat_output_0: 3d024537
/model.11/cv2/conv/Conv_output_0: 3d0cb2d6
/model.11/cv2/act/Sigmoid_output_0: 3c005205
/model.11/cv2/act/Mul_output_0: 3d0f6964
/model.12/conv/Conv_output_0: 3d4327e4
/model.12/act/Sigmoid_output_0: 3bffeb28
/model.12/act/Mul_output_0: 3cd5ed24
/Concat_1_output_0: 3d022ec4
/model.13/avg_pool/GlobalAveragePool_output_0: 3c83fc2c
/model.13/Reshape_output_0: 3c83fc2c
(Unnamed Layer* 369) [Constant]_output: 3a9fc97b
/model.13/fc/fc.0/MatMul_output_0: 3c8de14f
/model.13/fc/fc.1/Relu_output_0: 3c8de14f
(Unnamed Layer* 372) [Constant]_output: 3aa688a5
/model.13/fc/fc.2/MatMul_output_0: 3c10486d
/model.13/fc/fc.3/Sigmoid_output_0: 3bd0ab50
/model.13/Reshape_1_output_0: 3bd0ab50
/model.13/Mul_output_0: 3caaea89
/model.13/Slice_output_0: 3c7c334a
/model.13/Slice_1_output_0: 3caaea89
/model.13/Concat_2_output_0: 3caaea89
/model.13/Add_output_0: 3d551ac8
/Slice_4_output_0: 3d551ac8
/Slice_5_output_0: 3d304aba
/model.14/cv1/conv/Conv_output_0: 3d6fbd51
/model.14/cv1/act/Sigmoid_output_0: 3c00efed
/model.14/cv1/act/Mul_output_0: 3d132153
/model.14/Split_output_0: 3d132153
/model.14/Split_output_1: 3ce88f99
/model.14/m.0/cv1/conv/Conv_output_0: 3d879f6b
/model.14/m.0/cv1/act/Sigmoid_output_0: 3c00ed7d
/model.14/m.0/cv1/act/Mul_output_0: 3cd153d8
/model.14/m.0/cv2/conv/Conv_output_0: 3d835848
/model.14/m.0/cv2/act/Sigmoid_output_0: 3c00e7d2
/model.14/m.0/cv2/act/Mul_output_0: 3ceac82c
/model.14/m.0/Add_output_0: 3d665a5d
/model.14/m.1/cv1/conv/Conv_output_0: 3d8b2f69
/model.14/m.1/cv1/act/Sigmoid_output_0: 3c00c9cb
/model.14/m.1/cv1/act/Mul_output_0: 3d02c14a
/model.14/m.1/cv2/conv/Conv_output_0: 3d98c250
/model.14/m.1/cv2/act/Sigmoid_output_0: 3c00f179
/model.14/m.1/cv2/act/Mul_output_0: 3d2904ea
/model.14/m.1/Add_output_0: 3d8d8225
/model.14/Concat_output_0: 3d415145
/model.14/cv2/conv/Conv_output_0: 3d923457
/model.14/cv2/act/Sigmoid_output_0: 3c00f1a4
/model.14/cv2/act/Mul_output_0: 3d29eddc
/model.15/conv/Conv_output_0: 3d621e5b
/model.15/act/Sigmoid_output_0: 3c00ef7e
/model.15/act/Mul_output_0: 3cd1bf96
/model.16/cv1/conv/Conv_output_0: 3d69b76a
/model.16/cv1/act/Sigmoid_output_0: 3c004629
/model.16/cv1/act/Mul_output_0: 3cd13722
/model.16/Split_output_0: 3cd13722
/model.16/Split_output_1: 3d01f75a
/model.16/m.0/spatial_mixing/Split_output_0: 3d01f75a
/model.16/m.0/spatial_mixing/Split_output_1: 3cd425d3
/model.16/m.0/spatial_mixing/partial_conv3/Conv_output_0: 3cfcbf70
/model.16/m.0/spatial_mixing/Concat_output_0: 3cd425d3
/model.16/m.0/mlp/mlp.0/conv/Conv_output_0: 3d402cc4
/model.16/m.0/mlp/mlp.0/act/Sigmoid_output_0: 3c001142
/model.16/m.0/mlp/mlp.0/act/Mul_output_0: 3cc0b317
/model.16/m.1/spatial_mixing/Split_output_0: 3ce6f56b
/model.16/m.1/spatial_mixing/Split_output_1: 3cc0b317
/model.16/m.1/spatial_mixing/partial_conv3/Conv_output_0: 3ccf5e51
/model.16/m.1/spatial_mixing/Concat_output_0: 3cc0b317
/model.16/m.1/mlp/mlp.0/conv/Conv_output_0: 3d6964a5
/model.16/m.1/mlp/mlp.0/act/Sigmoid_output_0: 3c006157
/model.16/m.1/mlp/mlp.0/act/Mul_output_0: 3d008668
/model.16/Concat_output_0: 3cd13722
/model.16/cv2/conv/Conv_output_0: 3d4a8f23
/model.16/cv2/act/Sigmoid_output_0: 3c013879
/model.16/cv2/act/Mul_output_0: 3cd14117
/model.17/conv/Conv_output_0: 3d3fbc6d
/model.17/act/Sigmoid_output_0: 3c02cf1d
/model.17/act/Mul_output_0: 3d020d0a
/Concat_2_output_0: 3cd1bf96
/model.18/avg_pool/GlobalAveragePool_output_0: 3c8c7c02
/model.18/Reshape_output_0: 3c8c7c02
(Unnamed Layer* 591) [Constant]_output: 3a11bb22
/model.18/fc/fc.0/MatMul_output_0: 3d019152
/model.18/fc/fc.1/Relu_output_0: 3d019152
(Unnamed Layer* 594) [Constant]_output: 3a462375
/model.18/fc/fc.2/MatMul_output_0: 3c3dbad5
/model.18/fc/fc.3/Sigmoid_output_0: 3be2eb73
/model.18/Reshape_1_output_0: 3be2eb73
/model.18/Mul_output_0: 3cab9e73
/model.18/Slice_output_0: 3c98f2ce
/model.18/Slice_1_output_0: 3cb51f74
/model.18/Concat_2_output_0: 3cab9e73
/model.18/Add_output_0: 3d349e4e
/Slice_6_output_0: 3d4ab49c
/Slice_7_output_0: 3d2132f4
/model.19/cv1/conv/Conv_output_0: 3d51f555
/model.19/cv1/act/Sigmoid_output_0: 3c009d02
/model.19/cv1/act/Mul_output_0: 3ce84d2b
/model.19/Split_output_0: 3ce84d2b
/model.19/Split_output_1: 3cbfbdb9
/model.19/m.0/cv1/conv/Conv_output_0: 3d5735ed
/model.19/m.0/cv1/act/Sigmoid_output_0: 3c00cb99
/model.19/m.0/cv1/act/Mul_output_0: 3d02f1c2
/model.19/m.0/cv2/conv/Conv_output_0: 3d6f4ce1
/model.19/m.0/cv2/act/Sigmoid_output_0: 3c00ca35
/model.19/m.0/cv2/act/Mul_output_0: 3d01510d
/model.19/m.0/Add_output_0: 3d7a007a
/model.19/Concat_output_0: 3d29d284
/model.19/cv2/conv/Conv_output_0: 3d4f53c8
/model.19/cv2/act/Sigmoid_output_0: 3c00c455
/model.19/cv2/act/Mul_output_0: 3d01898f
/model.20/cv1/conv/Conv_output_0: 3d4ac968
/model.20/cv1/act/Sigmoid_output_0: 3c00c3bc
/model.20/cv1/act/Mul_output_0: 3d10f61c
/model.20/m/MaxPool_output_0: 3d10f61c
/model.20/m_1/MaxPool_output_0: 3d10f61c
/model.20/m_2/MaxPool_output_0: 3d10f61c
/model.20/Concat_output_0: 3d659d29
/model.20/cv2/conv/Conv_output_0: 3d74d326
/model.20/cv2/act/Sigmoid_output_0: 3c009b88
/model.20/cv2/act/Mul_output_0: 3cd194c2
/model.21/cv1/conv/Conv_output_0: 3d41ec35
/model.21/cv1/act/Sigmoid_output_0: 3c00b2e4
/model.21/cv1/act/Mul_output_0: 3cd1a88a
/model.21/Split_output_0: 3cd1a88a
/model.21/Split_output_1: 3cd4331c
/model.21/m.0/spatial_mixing/Split_output_0: 3d0134dc
/model.21/m.0/spatial_mixing/Split_output_1: 3cd52398
/model.21/m.0/spatial_mixing/partial_conv3/Conv_output_0: 3d1c57b5
/model.21/m.0/spatial_mixing/Concat_output_0: 3d022764
/model.21/m.0/mlp/mlp.0/conv/Conv_output_0: 3d4a4eb1
/model.21/m.0/mlp/mlp.0/act/Sigmoid_output_0: 3c00916d
/model.21/m.0/mlp/mlp.0/act/Mul_output_0: 3cd2a33b
/model.21/Concat_output_0: 3cd1a88a
/model.21/cv2/conv/Conv_output_0: 3d3ff6d4
/model.21/cv2/act/Sigmoid_output_0: 3c00b42b
/model.21/cv2/act/Mul_output_0: 3ce85fdb
/model.22/cv1/conv/Conv_output_0: 3d4bbfce
/model.22/cv1/act/Sigmoid_output_0: 3c009a57
/model.22/cv1/act/Mul_output_0: 3d10beef
/model.22/m/MaxPool_output_0: 3d10beef
/model.22/m_1/MaxPool_output_0: 3d10beef
/model.22/m_2/MaxPool_output_0: 3d10beef
/model.22/Concat_output_0: 3d408f26
/model.22/cv2/conv/Conv_output_0: 3d608159
/model.22/cv2/act/Sigmoid_output_0: 3c0099d9
/model.22/cv2/act/Mul_output_0: 3cb0fdf6
/model.23/Add_output_0: 3d80495b
/model.24/Add_output_0: 3d8ff590
/model.25/Add_output_0: 3d64cf75
/model.26/Resize_output_0: 3d64cf75
/model.27/Concat_output_0: 3d813038
/model.28/cv1/conv/Conv_output_0: 3d7ef9da
/model.28/cv1/act/Sigmoid_output_0: 3c00c509
/model.28/cv1/act/Mul_output_0: 3ceaa036
/model.28/Split_output_0: 3d12cbc6
/model.28/Split_output_1: 3ce91bbe
/model.28/m.0/cv1/conv/Conv_output_0: 3d76d565
/model.28/m.0/cv1/act/Sigmoid_output_0: 3c00e499
/model.28/m.0/cv1/act/Mul_output_0: 3ce91152
/model.28/m.0/cv2/conv/Conv_output_0: 3d811f18
/model.28/m.0/cv2/act/Sigmoid_output_0: 3c00edb2
/model.28/m.0/cv2/act/Mul_output_0: 3d00c071
/model.28/Concat_output_0: 3cd294f4
/model.28/cv2/conv/Conv_output_0: 3d6d62c6
/model.28/cv2/act/Sigmoid_output_0: 3c00f04b
/model.28/cv2/act/Mul_output_0: 3ce88609
/model.29/Resize_output_0: 3ce88609
/model.30/Concat_output_0: 3d00bd3d
/model.31/cv1/conv/Conv_output_0: 3d4bce9d
/model.31/cv1/act/Sigmoid_output_0: 3c0084a6
/model.31/cv1/act/Mul_output_0: 3d12f03a
/model.31/Split_output_0: 3d12f03a
/model.31/Split_output_1: 3cd43a1f
/model.31/m.0/cv1/conv/Conv_output_0: 3d4a397c
/model.31/m.0/cv1/act/Sigmoid_output_0: 3c00271e
/model.31/m.0/cv1/act/Mul_output_0: 3cc0318f
/model.31/m.0/cv2/conv/Conv_output_0: 3d8a4eb9
/model.31/m.0/cv2/act/Sigmoid_output_0: 3c00eec5
/model.31/m.0/cv2/act/Mul_output_0: 3d4121ff
/model.31/Concat_output_0: 3d10f587
/model.31/cv2/conv/Conv_output_0: 3daf6715
/model.31/cv2/act/Sigmoid_output_0: 3c01098b
/model.31/cv2/act/Mul_output_0: 3d015b45
/model.32/conv/Conv_output_0: 3d9e7f77
/model.32/act/Sigmoid_output_0: 3c0315fa
/model.32/act/Mul_output_0: 3d265ea2
/model.33/Concat_output_0: 3d019137
/model.34/cv1/conv/Conv_output_0: 3d7df4e1
/model.34/cv1/act/Sigmoid_output_0: 3c00f010
/model.34/cv1/act/Mul_output_0: 3d143932
/model.34/Split_output_0: 3cffa7b4
/model.34/Split_output_1: 3d143932
/model.34/m.0/cv1/conv/Conv_output_0: 3d80eb3a
/model.34/m.0/cv1/act/Sigmoid_output_0: 3c01118e
/model.34/m.0/cv1/act/Mul_output_0: 3d2994c9
/model.34/m.0/cv2/conv/Conv_output_0: 3d828625
/model.34/m.0/cv2/act/Sigmoid_output_0: 3c011157
/model.34/m.0/cv2/act/Mul_output_0: 3ce71ba5
/model.34/Concat_output_0: 3ce71ba5
/model.34/cv2/conv/Conv_output_0: 3d82b4b9
/model.34/cv2/act/Sigmoid_output_0: 3c00efcc
/model.34/cv2/act/Mul_output_0: 3d122931
/model.35/conv/Conv_output_0: 3d33204c
/model.35/act/Sigmoid_output_0: 3c00afa1
/model.35/act/Mul_output_0: 3cd44625
/model.36/Concat_output_0: 3d244ac4
/model.37/cv1/conv/Conv_output_0: 3d0f9447
/model.37/cv1/act/Sigmoid_output_0: 3bffe858
/model.37/cv1/act/Mul_output_0: 3cc0de34
/model.37/Split_output_0: 3ca5f7f4
/model.37/Split_output_1: 3cc0de34
/model.37/m.0/cv1/conv/Conv_output_0: 3d09e071
/model.37/m.0/cv1/act/Sigmoid_output_0: 3bfde4fe
/model.37/m.0/cv1/act/Mul_output_0: 3ca66555
/model.37/m.0/cv2/conv/Conv_output_0: 3cec48fd
/model.37/m.0/cv2/act/Sigmoid_output_0: 3bfc6e6d
/model.37/m.0/cv2/act/Mul_output_0: 3c8fd2c2
/model.37/Concat_output_0: 3c9a220c
/model.37/cv2/conv/Conv_output_0: 3ceaeb45
/model.37/cv2/act/Sigmoid_output_0: 3bfc4262
/model.37/cv2/act/Mul_output_0: 3c9a506b
/model.38/cv2.0/cv2.0.0/conv/Conv_output_0: 3d93936b
/model.38/cv2.0/cv2.0.0/act/Sigmoid_output_0: 3c0064a5
/model.38/cv2.0/cv2.0.0/act/Mul_output_0: 3d01f30a
/model.38/cv2.0/cv2.0.1/conv/Conv_output_0: 3daab9bc
/model.38/cv2.0/cv2.0.1/act/Sigmoid_output_0: 3c01121d
/model.38/cv2.0/cv2.0.1/act/Mul_output_0: 3d467f50
/model.38/cv2.0/cv2.0.2/Conv_output_0: 3e01b895
/model.38/cv3.0/cv3.0.0/conv/Conv_output_0: 3dbe4175
/model.38/cv3.0/cv3.0.0/act/Sigmoid_output_0: 3c011202
/model.38/cv3.0/cv3.0.0/act/Mul_output_0: 3cc00835
/model.38/cv3.0/cv3.0.1/conv/Conv_output_0: 3e5ef242
/model.38/cv3.0/cv3.0.1/act/Sigmoid_output_0: 3c010a14
/model.38/cv3.0/cv3.0.1/act/Mul_output_0: 3dd2bf32
/model.38/cv3.0/cv3.0.2/Conv_output_0: 3f1585c2
/model.38/Concat_output_0: 3ea57f93
/model.38/cv2.1/cv2.1.0/conv/Conv_output_0: 3d75e4ad
/model.38/cv2.1/cv2.1.0/act/Sigmoid_output_0: 3c00ef38
/model.38/cv2.1/cv2.1.0/act/Mul_output_0: 3d281eab
/model.38/cv2.1/cv2.1.1/conv/Conv_output_0: 3dbd0a48
/model.38/cv2.1/cv2.1.1/act/Sigmoid_output_0: 3c010a14
/model.38/cv2.1/cv2.1.1/act/Mul_output_0: 3d6f43f0
/model.38/cv2.1/cv2.1.2/Conv_output_0: 3dcc6b61
/model.38/cv3.1/cv3.1.0/conv/Conv_output_0: 3da0d1bd
/model.38/cv3.1/cv3.1.0/act/Sigmoid_output_0: 3c010f6b
/model.38/cv3.1/cv3.1.0/act/Mul_output_0: 3d130e67
/model.38/cv3.1/cv3.1.1/conv/Conv_output_0: 3de35848
/model.38/cv3.1/cv3.1.1/act/Sigmoid_output_0: 3c010a14
/model.38/cv3.1/cv3.1.1/act/Mul_output_0: 3d2899cd
/model.38/cv3.1/cv3.1.2/Conv_output_0: 3e9138c8
/model.38/Concat_1_output_0: 3e59f405
/model.38/cv2.2/cv2.2.0/conv/Conv_output_0: 3d0eb2ec
/model.38/cv2.2/cv2.2.0/act/Sigmoid_output_0: 3c00f72a
/model.38/cv2.2/cv2.2.0/act/Mul_output_0: 3ca49089
/model.38/cv2.2/cv2.2.1/conv/Conv_output_0: 3d335533
/model.38/cv2.2/cv2.2.1/act/Sigmoid_output_0: 3c01e630
/model.38/cv2.2/cv2.2.1/act/Mul_output_0: 3d000b61
/model.38/cv2.2/cv2.2.2/Conv_output_0: 3c333ad3
/model.38/cv3.2/cv3.2.0/conv/Conv_output_0: 3cb592a7
/model.38/cv3.2/cv3.2.0/act/Sigmoid_output_0: 3bf54327
/model.38/cv3.2/cv3.2.0/act/Mul_output_0: 3c73339c
/model.38/cv3.2/cv3.2.1/conv/Conv_output_0: 3cab81b9
/model.38/cv3.2/cv3.2.1/act/Sigmoid_output_0: 3bee8eeb
/model.38/cv3.2/cv3.2.1/act/Mul_output_0: 3c9e0d44
/model.38/cv3.2/cv3.2.2/Conv_output_0: 3dcb7967
/model.38/Concat_2_output_0: 3dc316ee
/model.38/Reshape_output_0: 3ea57f93
/model.38/Reshape_1_output_0: 3e59f405
/model.38/Reshape_2_output_0: 3dc316ee
/model.38/Concat_6_output_0: 3e86e2cc
(Unnamed Layer* 967) [Constant]_output: 3e810a14
/model.38/Split_output_0: 3d810a14
/model.38/Split_output_1: 3e010a14
/model.38/Split_output_2: 3e810a14
/model.38/Range_output_0: 3f1f4871
(Unnamed Layer* 991) [Shuffle]_output: 3c010a14
(Unnamed Layer* 993) [Shuffle]_output: 3b810a14
/model.38/Add_output_0: 3f204a85
/model.38/Range_1_output_0: 3f1f4871
(Unnamed Layer* 1006) [Shuffle]_output: 3c010a14
(Unnamed Layer* 1008) [Shuffle]_output: 3b810a14
/model.38/Add_1_output_0: 3f204a85
/model.38/Reshape_5_output_0: 3f204a85
/model.38/Expand_output_0: 3f204a85
/model.38/Reshape_6_output_0: 3f204a85
/model.38/Expand_1_output_0: 3f204a85
/model.38/Unsqueeze_3_output_0: 3f204a85
/model.38/Unsqueeze_4_output_0: 3f204a85
/model.38/Concat_10_output_0: 3f204a85
/model.38/Reshape_7_output_0: 3f204a85
(Unnamed Layer* 1059) [Constant]_output: 0
(Unnamed Layer* 1060) [Shuffle]_output: 0
/model.38/ConstantOfShape_output_0: 0
(Unnamed Layer* 1063) [Shuffle]_output: 3d810a14
/model.38/Add_2_output_0: 3d810a14
/model.38/Range_2_output_0: 3e9d4449
(Unnamed Layer* 1082) [Shuffle]_output: 3c010a14
(Unnamed Layer* 1084) [Shuffle]_output: 3b810a14
/model.38/Add_3_output_0: 3e9f4871
/model.38/Range_3_output_0: 3e9d4449
(Unnamed Layer* 1097) [Shuffle]_output: 3c010a14
(Unnamed Layer* 1099) [Shuffle]_output: 3b810a14
/model.38/Add_4_output_0: 3e9f4871
/model.38/Reshape_10_output_0: 3e9f4871
/model.38/Expand_2_output_0: 3e9f4871
/model.38/Reshape_11_output_0: 3e9f4871
/model.38/Expand_3_output_0: 3e9f4871
/model.38/Unsqueeze_6_output_0: 3e9f4871
/model.38/Unsqueeze_7_output_0: 3e9f4871
/model.38/Concat_15_output_0: 3e9f4871
/model.38/Reshape_12_output_0: 3e9f4871
(Unnamed Layer* 1150) [Constant]_output: 0
(Unnamed Layer* 1151) [Shuffle]_output: 0
/model.38/ConstantOfShape_1_output_0: 0
(Unnamed Layer* 1154) [Shuffle]_output: 3e010a14
/model.38/Add_5_output_0: 3e010a14
/model.38/Range_4_output_0: 3e193bf8
(Unnamed Layer* 1173) [Shuffle]_output: 3c010a14
(Unnamed Layer* 1175) [Shuffle]_output: 3b810a14
/model.38/Add_6_output_0: 3e1d4449
/model.38/Range_5_output_0: 3e193bf8
(Unnamed Layer* 1188) [Shuffle]_output: 3c010a14
(Unnamed Layer* 1190) [Shuffle]_output: 3b810a14
/model.38/Add_7_output_0: 3e1d4449
/model.38/Reshape_15_output_0: 3e1d4449
/model.38/Expand_4_output_0: 3e1d4449
/model.38/Reshape_16_output_0: 3e1d4449
/model.38/Expand_5_output_0: 3e1d4449
/model.38/Unsqueeze_9_output_0: 3e1d4449
/model.38/Unsqueeze_10_output_0: 3e1d4449
/model.38/Concat_20_output_0: 3e1d4449
/model.38/Reshape_17_output_0: 3e1d4449
(Unnamed Layer* 1241) [Constant]_output: 0
(Unnamed Layer* 1242) [Shuffle]_output: 0
/model.38/ConstantOfShape_2_output_0: 0
(Unnamed Layer* 1245) [Shuffle]_output: 3e810a14
/model.38/Add_8_output_0: 3e810a14
/model.38/Concat_22_output_0: 3f204a85
/model.38/Concat_23_output_0: 3e810a14
/model.38/Transpose_output_0: 3f204a85
/model.38/Transpose_1_output_0: 3e810a14
/model.38/Split_1_output_0: 3dd88a7b
/model.38/Split_1_output_1: 3ef14398
/model.38/dfl/Reshape_output_0: 3dd88a7b
/model.38/dfl/Transpose_output_0: 3dd88a7b
(Unnamed Layer* 1274) [Softmax]_output: 3bd79aab
/model.38/dfl/conv/Conv_output_0: 3d9dca2d
/model.38/dfl/Reshape_1_output_0: 3d9dca2d
/model.38/Unsqueeze_12_output_0: 3f204a85
/model.38/Slice_output_0: 3d9e4d42
/model.38/Slice_1_output_0: 3d74f147
/model.38/Sub_output_0: 3f1ff7f9
/model.38/Add_10_output_0: 3f2198ac
/model.38/Add_11_output_0: 3fa0bc84
(Unnamed Layer* 1357) [Shuffle]_output: 3c810a14
/model.38/Div_1_output_0: 3f20bc84
/model.38/Sub_1_output_0: 3df4905a
/model.38/Concat_24_output_0: 3f3a2729
(Unnamed Layer* 1364) [Shuffle]_output: 3e810a14
/model.38/Mul_5_output_0: 40a5e9f2
/model.38/Sigmoid_output_0: 3be48b18
output0: 40a5e9f2
