TRT-8503-EntropyCalibration2
images: 3bf80000
/Slice_output_0: 3bf80000
/Slice_1_output_0: 3bf80000
/model.0/conv/Conv_output_0: 3e2aa0b9
/model.0/act/Sigmoid_output_0: 3c010a14
/model.0/act/Mul_output_0: 3e030377
/model.1/conv/Conv_output_0: 3dddb6bc
/model.1/act/Sigmoid_output_0: 3c0068d2
/model.1/act/Mul_output_0: 3cfd9c8e
/model.2/cv1/conv/Conv_output_0: 3d7c164e
/model.2/cv1/act/Sigmoid_output_0: 3c02b568
/model.2/cv1/act/Mul_output_0: 3d0f0ecd
/model.2/Split_output_0: 3d04ca15
/model.2/Split_output_1: 3c6bb8f8
/model.2/m.0/cv1/conv/Conv_output_0: 3d63ee15
/model.2/m.0/cv1/act/Sigmoid_output_0: 3c0376cb
/model.2/m.0/cv1/act/Mul_output_0: 3c8dcbe7
/model.2/m.0/cv2/conv/Conv_output_0: 3d80f8b2
/model.2/m.0/cv2/act/Sigmoid_output_0: 3c010a14
/model.2/m.0/cv2/act/Mul_output_0: 3d2180ed
/model.2/m.0/Add_output_0: 3d768977
/model.2/Concat_output_0: 3d3f2620
/model.2/cv2/conv/Conv_output_0: 3d2db901
/model.2/cv2/act/Sigmoid_output_0: 3bff9e34
/model.2/cv2/act/Mul_output_0: 3ce6d3e5
/model.3/conv/Conv_output_0: 3ce5b978
/model.3/act/Sigmoid_output_0: 3c005914
/model.3/act/Mul_output_0: 3ca657cd
/model.4/conv/Conv_output_0: 3e04da7c
/model.4/act/Sigmoid_output_0: 3c010a14
/model.4/act/Mul_output_0: 3d6aa59b
/model.5/conv/Conv_output_0: 3d7a8e1a
/model.5/act/Sigmoid_output_0: 3c010a14
/model.5/act/Mul_output_0: 3d12f9e0
/model.6/cv1/conv/Conv_output_0: 3d89b4ee
/model.6/cv1/act/Sigmoid_output_0: 3c03f7ee
/model.6/cv1/act/Mul_output_0: 3d6be4d6
/model.6/Split_output_0: 3d126ce2
/model.6/Split_output_1: 3d28b801
/model.6/m.0/spatial_mixing/Split_output_0: 3d41beaa
/model.6/m.0/spatial_mixing/Split_output_1: 3d28b801
/model.6/m.0/spatial_mixing/partial_conv3/Conv_output_0: 3cfffffd
/model.6/m.0/spatial_mixing/Concat_output_0: 3d1e7070
/model.6/m.0/mlp/mlp.0/conv/Conv_output_0: 3d956c5f
/model.6/m.0/mlp/mlp.0/act/Sigmoid_output_0: 3c003014
/model.6/m.0/mlp/mlp.0/act/Mul_output_0: 3cfff5d1
/model.6/Concat_output_0: 3d41d93a
/model.6/cv2/conv/Conv_output_0: 3d98628a
/model.6/cv2/act/Sigmoid_output_0: 3c072ba7
/model.6/cv2/act/Mul_output_0: 3cbc1814
/model.7/conv/Conv_output_0: 3d293791
/model.7/act/Sigmoid_output_0: 3c03345c
/model.7/act/Mul_output_0: 3d2627b6
/Concat_output_0: 3d2627b6
/model.8/avg_pool/GlobalAveragePool_output_0: 3cf52687
/model.8/Reshape_output_0: 3cf52687
(Unnamed Layer* 147) [Constant]_output: 3b807a16
/model.8/fc/fc.0/MatMul_output_0: 3ce72e3b
/model.8/fc/fc.1/Relu_output_0: 3d095e78
(Unnamed Layer* 150) [Constant]_output: 3b3beb0e
/model.8/fc/fc.2/MatMul_output_0: 3c6bc786
/model.8/fc/fc.3/Sigmoid_output_0: 3bdbf8bc
/model.8/Reshape_1_output_0: 3bdbf8bc
/model.8/Mul_output_0: 3d00e386
/model.8/Slice_output_0: 3d354577
/model.8/Slice_1_output_0: 3c9a4b30
/model.8/Concat_2_output_0: 3d00e386
/model.8/Add_output_0: 3d535531
/Slice_2_output_0: 3d56f15d
/Slice_3_output_0: 3d2e7973
/model.9/cv1/conv/Conv_output_0: 3d5dac61
/model.9/cv1/act/Sigmoid_output_0: 3c119057
/model.9/cv1/act/Mul_output_0: 3d141eae
/model.9/Split_output_0: 3d290b82
/model.9/Split_output_1: 3cd2d9a1
/model.9/m.0/cv1/conv/Conv_output_0: 3d6369a0
/model.9/m.0/cv1/act/Sigmoid_output_0: 3c015b55
/model.9/m.0/cv1/act/Mul_output_0: 3cd46088
/model.9/m.0/cv2/conv/Conv_output_0: 3d5e369a
/model.9/m.0/cv2/act/Sigmoid_output_0: 3c00a96c
/model.9/m.0/cv2/act/Mul_output_0: 3d438f19
/model.9/m.0/Add_output_0: 3d50d3d6
/model.9/m.1/cv1/conv/Conv_output_0: 3d79d8ef
/model.9/m.1/cv1/act/Sigmoid_output_0: 3c00ceeb
/model.9/m.1/cv1/act/Mul_output_0: 3cd4f3da
/model.9/m.1/cv2/conv/Conv_output_0: 3da38a4c
/model.9/m.1/cv2/act/Sigmoid_output_0: 3c075eb7
/model.9/m.1/cv2/act/Mul_output_0: 3d6f8fa5
/model.9/m.1/Add_output_0: 3db9a3d8
/model.9/Concat_output_0: 3d48d356
/model.9/cv2/conv/Conv_output_0: 3d932631
/model.9/cv2/act/Sigmoid_output_0: 3c021395
/model.9/cv2/act/Mul_output_0: 3cff1c9a
/model.10/conv/Conv_output_0: 3d7e37a9
/model.10/act/Sigmoid_output_0: 3c00efc3
/model.10/act/Mul_output_0: 3d11eb2f
/model.11/cv1/conv/Conv_output_0: 3d63a7ab
/model.11/cv1/act/Sigmoid_output_0: 3bffab43
/model.11/cv1/act/Mul_output_0: 3d1095e6
/model.11/Split_output_0: 3d023e05
/model.11/Split_output_1: 3d114230
/model.11/m.0/spatial_mixing/Split_output_0: 3cff778a
/model.11/m.0/spatial_mixing/Split_output_1: 3d26cb82
/model.11/m.0/spatial_mixing/partial_conv3/Conv_output_0: 3cdd2492
/model.11/m.0/spatial_mixing/Concat_output_0: 3d1227e9
/model.11/m.0/mlp/mlp.0/conv/Conv_output_0: 3d474918
/model.11/m.0/mlp/mlp.0/act/Sigmoid_output_0: 3c008b34
/model.11/m.0/mlp/mlp.0/act/Mul_output_0: 3d001feb
/model.11/m.1/spatial_mixing/Split_output_0: 3cd24d89
/model.11/m.1/spatial_mixing/Split_output_1: 3d003c43
/model.11/m.1/spatial_mixing/partial_conv3/Conv_output_0: 3cc306d4
/model.11/m.1/spatial_mixing/Concat_output_0: 3d003c43
/model.11/m.1/mlp/mlp.0/conv/Conv_output_0: 3d6643ce
/model.11/m.1/mlp/mlp.0/act/Sigmoid_output_0: 3c0209e1
/model.11/m.1/mlp/mlp.0/act/Mul_output_0: 3cea6975
/model.11/Concat_output_0: 3d12389c
/model.11/cv2/conv/Conv_output_0: 3d0d118c
/model.11/cv2/act/Sigmoid_output_0: 3c006e7f
/model.11/cv2/act/Mul_output_0: 3c800687
/model.12/conv/Conv_output_0: 3d437779
/model.12/act/Sigmoid_output_0: 3bffed84
/model.12/act/Mul_output_0: 3cd1e351
/Concat_1_output_0: 3d11eb2f
/model.13/avg_pool/GlobalAveragePool_output_0: 3c5e53fe
/model.13/Reshape_output_0: 3c5e53fe
(Unnamed Layer* 369) [Constant]_output: 3a9fc97b
/model.13/fc/fc.0/MatMul_output_0: 3c9230cd
/model.13/fc/fc.1/Relu_output_0: 3ca3678f
(Unnamed Layer* 372) [Constant]_output: 3aa688a5
/model.13/fc/fc.2/MatMul_output_0: 3c10e5f9
/model.13/fc/fc.3/Sigmoid_output_0: 3bd0aaa8
/model.13/Reshape_1_output_0: 3bd0aaa8
/model.13/Mul_output_0: 3caa84ec
/model.13/Slice_output_0: 3c558001
/model.13/Slice_1_output_0: 3caa84ec
/model.13/Concat_2_output_0: 3caa84ec
/model.13/Add_output_0: 3d580018
/Slice_4_output_0: 3d57b0b4
/Slice_5_output_0: 3d2a0a51
/model.14/cv1/conv/Conv_output_0: 3d894f5b
/model.14/cv1/act/Sigmoid_output_0: 3c00efa4
/model.14/cv1/act/Mul_output_0: 3d111b96
/model.14/Split_output_0: 3d111b96
/model.14/Split_output_1: 3cd47a35
/model.14/m.0/cv1/conv/Conv_output_0: 3d868b7e
/model.14/m.0/cv1/act/Sigmoid_output_0: 3c00e8e0
/model.14/m.0/cv1/act/Mul_output_0: 3d00995e
/model.14/m.0/cv2/conv/Conv_output_0: 3d849420
/model.14/m.0/cv2/act/Sigmoid_output_0: 3c00ed01
/model.14/m.0/cv2/act/Mul_output_0: 3d02463d
/model.14/m.0/Add_output_0: 3d66057d
/model.14/m.1/cv1/conv/Conv_output_0: 3d8db64b
/model.14/m.1/cv1/act/Sigmoid_output_0: 3c00e22c
/model.14/m.1/cv1/act/Mul_output_0: 3cea4ec1
/model.14/m.1/cv2/conv/Conv_output_0: 3d973a2d
/model.14/m.1/cv2/act/Sigmoid_output_0: 3c00f12a
/model.14/m.1/cv2/act/Mul_output_0: 3d26945f
/model.14/m.1/Add_output_0: 3d8ccb55
/model.14/Concat_output_0: 3d0ff596
/model.14/cv2/conv/Conv_output_0: 3d8a3cc4
/model.14/cv2/act/Sigmoid_output_0: 3c00f137
/model.14/cv2/act/Mul_output_0: 3d27b824
/model.15/conv/Conv_output_0: 3d62fe1b
/model.15/act/Sigmoid_output_0: 3c00e6e4
/model.15/act/Mul_output_0: 3ce81530
/model.16/cv1/conv/Conv_output_0: 3d69ebbf
/model.16/cv1/act/Sigmoid_output_0: 3c004c7b
/model.16/cv1/act/Mul_output_0: 3cd12b62
/model.16/Split_output_0: 3cd1dbbb
/model.16/Split_output_1: 3cd12b62
/model.16/m.0/spatial_mixing/Split_output_0: 3cd12b62
/model.16/m.0/spatial_mixing/Split_output_1: 3cd1e35b
/model.16/m.0/spatial_mixing/partial_conv3/Conv_output_0: 3cfba89e
/model.16/m.0/spatial_mixing/Concat_output_0: 3cd1e35b
/model.16/m.0/mlp/mlp.0/conv/Conv_output_0: 3d400b46
/model.16/m.0/mlp/mlp.0/act/Sigmoid_output_0: 3c000f63
/model.16/m.0/mlp/mlp.0/act/Mul_output_0: 3cd42785
/model.16/m.1/spatial_mixing/Split_output_0: 3ce97cc7
/model.16/m.1/spatial_mixing/Split_output_1: 3cc04907
/model.16/m.1/spatial_mixing/partial_conv3/Conv_output_0: 3ccf29c9
/model.16/m.1/spatial_mixing/Concat_output_0: 3cc04907
/model.16/m.1/mlp/mlp.0/conv/Conv_output_0: 3d69b463
/model.16/m.1/mlp/mlp.0/act/Sigmoid_output_0: 3c007732
/model.16/m.1/mlp/mlp.0/act/Mul_output_0: 3cd15905
/model.16/Concat_output_0: 3cd15905
/model.16/cv2/conv/Conv_output_0: 3d4b8ee9
/model.16/cv2/act/Sigmoid_output_0: 3c012d79
/model.16/cv2/act/Mul_output_0: 3d02a48a
/model.17/conv/Conv_output_0: 3d50dfb4
/model.17/act/Sigmoid_output_0: 3c02b2de
/model.17/act/Mul_output_0: 3cd321d3
/Concat_2_output_0: 3ce81530
/model.18/avg_pool/GlobalAveragePool_output_0: 3c7c372a
/model.18/Reshape_output_0: 3c7c372a
(Unnamed Layer* 591) [Constant]_output: 3a11bb22
/model.18/fc/fc.0/MatMul_output_0: 3cde1254
/model.18/fc/fc.1/Relu_output_0: 3cf86dca
(Unnamed Layer* 594) [Constant]_output: 3a462375
/model.18/fc/fc.2/MatMul_output_0: 3c39f95d
/model.18/fc/fc.3/Sigmoid_output_0: 3bd74019
/model.18/Reshape_1_output_0: 3bd74019
/model.18/Mul_output_0: 3cad3394
/model.18/Slice_output_0: 3cad2ec9
/model.18/Slice_1_output_0: 3cb72976
/model.18/Concat_2_output_0: 3cad3394
/model.18/Add_output_0: 3d361a38
/Slice_6_output_0: 3d4823e8
/Slice_7_output_0: 3d21b276
/model.19/cv1/conv/Conv_output_0: 3d540cc4
/model.19/cv1/act/Sigmoid_output_0: 3c00a2a6
/model.19/cv1/act/Mul_output_0: 3cc181f2
/model.19/Split_output_0: 3d00e6eb
/model.19/Split_output_1: 3cea6b76
/model.19/m.0/cv1/conv/Conv_output_0: 3d6f1ffa
/model.19/m.0/cv1/act/Sigmoid_output_0: 3c00b1e1
/model.19/m.0/cv1/act/Mul_output_0: 3cc08a0f
/model.19/m.0/cv2/conv/Conv_output_0: 3d67fb33
/model.19/m.0/cv2/act/Sigmoid_output_0: 3c00d4c0
/model.19/m.0/cv2/act/Mul_output_0: 3d011d10
/model.19/m.0/Add_output_0: 3d7ac92e
/model.19/Concat_output_0: 3d260b50
/model.19/cv2/conv/Conv_output_0: 3d4e7902
/model.19/cv2/act/Sigmoid_output_0: 3c00a8ac
/model.19/cv2/act/Mul_output_0: 3cd2a426
/model.20/cv1/conv/Conv_output_0: 3d55edfa
/model.20/cv1/act/Sigmoid_output_0: 3c00c12b
/model.20/cv1/act/Mul_output_0: 3d00332d
/model.20/m/MaxPool_output_0: 3d00332d
/model.20/m_1/MaxPool_output_0: 3d00332d
/model.20/m_2/MaxPool_output_0: 3d00332d
/model.20/Concat_output_0: 3d66e1ff
/model.20/cv2/conv/Conv_output_0: 3d660282
/model.20/cv2/act/Sigmoid_output_0: 3c00a217
/model.20/cv2/act/Mul_output_0: 3ce89086
/model.21/cv1/conv/Conv_output_0: 3d40380c
/model.21/cv1/act/Sigmoid_output_0: 3c0087bd
/model.21/cv1/act/Mul_output_0: 3cc00919
/model.21/Split_output_0: 3d017da7
/model.21/Split_output_1: 3cc00919
/model.21/m.0/spatial_mixing/Split_output_0: 3cffca52
/model.21/m.0/spatial_mixing/Split_output_1: 3cc01df6
/model.21/m.0/spatial_mixing/partial_conv3/Conv_output_0: 3d150f21
/model.21/m.0/spatial_mixing/Concat_output_0: 3cc01df6
/model.21/m.0/mlp/mlp.0/conv/Conv_output_0: 3d4b0bd8
/model.21/m.0/mlp/mlp.0/act/Sigmoid_output_0: 3c005ee1
/model.21/m.0/mlp/mlp.0/act/Mul_output_0: 3ce40c2c
/model.21/Concat_output_0: 3cc00919
/model.21/cv2/conv/Conv_output_0: 3d42f71e
/model.21/cv2/act/Sigmoid_output_0: 3c00b373
/model.21/cv2/act/Mul_output_0: 3ce7f079
/model.22/cv1/conv/Conv_output_0: 3d41faed
/model.22/cv1/act/Sigmoid_output_0: 3c00a401
/model.22/cv1/act/Mul_output_0: 3d01ae15
/model.22/m/MaxPool_output_0: 3d01ae15
/model.22/m_1/MaxPool_output_0: 3d01ae15
/model.22/m_2/MaxPool_output_0: 3d01ae15
/model.22/Concat_output_0: 3d67557d
/model.22/cv2/conv/Conv_output_0: 3d6b37f2
/model.22/cv2/act/Sigmoid_output_0: 3c00b710
/model.22/cv2/act/Mul_output_0: 3ce8376b
/model.23/Add_output_0: 3d79cebd
/model.24/Add_output_0: 3d90e0a6
/model.25/Add_output_0: 3d63ee80
/model.26/Resize_output_0: 3d63ee80
/model.27/Concat_output_0: 3d7fb839
/model.28/cv1/conv/Conv_output_0: 3d818b7f
/model.28/cv1/act/Sigmoid_output_0: 3c00bd3f
/model.28/cv1/act/Mul_output_0: 3ce85062
/model.28/Split_output_0: 3ce85062
/model.28/Split_output_1: 3cd0fd60
/model.28/m.0/cv1/conv/Conv_output_0: 3d77840a
/model.28/m.0/cv1/act/Sigmoid_output_0: 3c00e850
/model.28/m.0/cv1/act/Mul_output_0: 3cff44d2
/model.28/m.0/cv2/conv/Conv_output_0: 3d865886
/model.28/m.0/cv2/act/Sigmoid_output_0: 3c00e776
/model.28/m.0/cv2/act/Mul_output_0: 3d124b29
/model.28/Concat_output_0: 3d124b29
/model.28/cv2/conv/Conv_output_0: 3d6decd8
/model.28/cv2/act/Sigmoid_output_0: 3c00f060
/model.28/cv2/act/Mul_output_0: 3ce9fa56
/model.29/Resize_output_0: 3ce9fa56
/model.30/Concat_output_0: 3d2a0e1c
/model.31/cv1/conv/Conv_output_0: 3d4d791c
/model.31/cv1/act/Sigmoid_output_0: 3c0078ac
/model.31/cv1/act/Mul_output_0: 3cd312d2
/model.31/Split_output_0: 3d00e37b
/model.31/Split_output_1: 3ce9ed4b
/model.31/m.0/cv1/conv/Conv_output_0: 3d4d1f6a
/model.31/m.0/cv1/act/Sigmoid_output_0: 3c0027ff
/model.31/m.0/cv1/act/Mul_output_0: 3cc093f8
/model.31/m.0/cv2/conv/Conv_output_0: 3d885f49
/model.31/m.0/cv2/act/Sigmoid_output_0: 3c00ebfc
/model.31/m.0/cv2/act/Mul_output_0: 3d45080f
/model.31/Concat_output_0: 3d28c981
/model.31/cv2/conv/Conv_output_0: 3db16347
/model.31/cv2/act/Sigmoid_output_0: 3c00eb13
/model.31/cv2/act/Mul_output_0: 3d012ed8
/model.32/conv/Conv_output_0: 3d9daf17
/model.32/act/Sigmoid_output_0: 3c031610
/model.32/act/Mul_output_0: 3d42b2a6
/model.33/Concat_output_0: 3d12457f
/model.34/cv1/conv/Conv_output_0: 3d844156
/model.34/cv1/act/Sigmoid_output_0: 3c010d65
/model.34/cv1/act/Mul_output_0: 3d02bc6e
/model.34/Split_output_0: 3d01f6d6
/model.34/Split_output_1: 3d02bc6e
/model.34/m.0/cv1/conv/Conv_output_0: 3d85a364
/model.34/m.0/cv1/act/Sigmoid_output_0: 3c011119
/model.34/m.0/cv1/act/Mul_output_0: 3cea1ff7
/model.34/m.0/cv2/conv/Conv_output_0: 3d84ebf3
/model.34/m.0/cv2/act/Sigmoid_output_0: 3c0111a2
/model.34/m.0/cv2/act/Mul_output_0: 3d00fe05
/model.34/Concat_output_0: 3d00fe05
/model.34/cv2/conv/Conv_output_0: 3d812035
/model.34/cv2/act/Sigmoid_output_0: 3c00ef5d
/model.34/cv2/act/Mul_output_0: 3d1430dc
/model.35/conv/Conv_output_0: 3d319448
/model.35/act/Sigmoid_output_0: 3c01b666
/model.35/act/Mul_output_0: 3cd366f7
/model.36/Concat_output_0: 3d248eaa
/model.37/cv1/conv/Conv_output_0: 3d111523
/model.37/cv1/act/Sigmoid_output_0: 3c0031d3
/model.37/cv1/act/Mul_output_0: 3cb30e3f
/model.37/Split_output_0: 3cb148e1
/model.37/Split_output_1: 3cb30e3f
/model.37/m.0/cv1/conv/Conv_output_0: 3d07c328
/model.37/m.0/cv1/act/Sigmoid_output_0: 3bffc0e5
/model.37/m.0/cv1/act/Mul_output_0: 3c8fdb33
/model.37/m.0/cv2/conv/Conv_output_0: 3d091496
/model.37/m.0/cv2/act/Sigmoid_output_0: 3bfdc3a6
/model.37/m.0/cv2/act/Mul_output_0: 3c9af0d0
/model.37/Concat_output_0: 3cb30e3f
/model.37/cv2/conv/Conv_output_0: 3cf4dc48
/model.37/cv2/act/Sigmoid_output_0: 3bfc54f3
/model.37/cv2/act/Mul_output_0: 3c9943be
/model.38/cv2.0/cv2.0.0/conv/Conv_output_0: 3d901279
/model.38/cv2.0/cv2.0.0/act/Sigmoid_output_0: 3c007598
/model.38/cv2.0/cv2.0.0/act/Mul_output_0: 3d021a20
/model.38/cv2.0/cv2.0.1/conv/Conv_output_0: 3da31e9f
/model.38/cv2.0/cv2.0.1/act/Sigmoid_output_0: 3c011222
/model.38/cv2.0/cv2.0.1/act/Mul_output_0: 3d6cb641
/model.38/cv2.0/cv2.0.2/Conv_output_0: 3e0800f3
/model.38/cv3.0/cv3.0.0/conv/Conv_output_0: 3dc5ff4c
/model.38/cv3.0/cv3.0.0/act/Sigmoid_output_0: 3c0111fa
/model.38/cv3.0/cv3.0.0/act/Mul_output_0: 3d032ca1
/model.38/cv3.0/cv3.0.1/conv/Conv_output_0: 3e395301
/model.38/cv3.0/cv3.0.1/act/Sigmoid_output_0: 3c010a14
/model.38/cv3.0/cv3.0.1/act/Mul_output_0: 3dd688c5
/model.38/cv3.0/cv3.0.2/Conv_output_0: 3f173666
/model.38/Concat_output_0: 3e9b6f70
/model.38/cv2.1/cv2.1.0/conv/Conv_output_0: 3d7dc776
/model.38/cv2.1/cv2.1.0/act/Sigmoid_output_0: 3c00ecd0
/model.38/cv2.1/cv2.1.0/act/Mul_output_0: 3d26b847
/model.38/cv2.1/cv2.1.1/conv/Conv_output_0: 3dc800b7
/model.38/cv2.1/cv2.1.1/act/Sigmoid_output_0: 3c011223
/model.38/cv2.1/cv2.1.1/act/Mul_output_0: 3d2471a7
/model.38/cv2.1/cv2.1.2/Conv_output_0: 3dce3ebf
/model.38/cv3.1/cv3.1.0/conv/Conv_output_0: 3dacdec4
/model.38/cv3.1/cv3.1.0/act/Sigmoid_output_0: 3c010e5a
/model.38/cv3.1/cv3.1.0/act/Mul_output_0: 3d02261f
/model.38/cv3.1/cv3.1.1/conv/Conv_output_0: 3de911f0
/model.38/cv3.1/cv3.1.1/act/Sigmoid_output_0: 3c010a14
/model.38/cv3.1/cv3.1.1/act/Mul_output_0: 3d26ea63
/model.38/cv3.1/cv3.1.2/Conv_output_0: 3e97eca3
/model.38/Concat_1_output_0: 3e58899c
/model.38/cv2.2/cv2.2.0/conv/Conv_output_0: 3d0f0444
/model.38/cv2.2/cv2.2.0/act/Sigmoid_output_0: 3c01a2e6
/model.38/cv2.2/cv2.2.0/act/Mul_output_0: 3ce7f3e3
/model.38/cv2.2/cv2.2.1/conv/Conv_output_0: 3d30f48b
/model.38/cv2.2/cv2.2.1/act/Sigmoid_output_0: 3c029663
/model.38/cv2.2/cv2.2.1/act/Mul_output_0: 3ce68a7e
/model.38/cv2.2/cv2.2.2/Conv_output_0: 3c345264
/model.38/cv3.2/cv3.2.0/conv/Conv_output_0: 3cc89090
/model.38/cv3.2/cv3.2.0/act/Sigmoid_output_0: 3bf4ceb3
/model.38/cv3.2/cv3.2.0/act/Mul_output_0: 3c5bb1e1
/model.38/cv3.2/cv3.2.1/conv/Conv_output_0: 3ca9259f
/model.38/cv3.2/cv3.2.1/act/Sigmoid_output_0: 3beeabb6
/model.38/cv3.2/cv3.2.1/act/Mul_output_0: 3c9b9c7a
/model.38/cv3.2/cv3.2.2/Conv_output_0: 3dc679b9
/model.38/Concat_2_output_0: 3dc359f7
/model.38/Reshape_output_0: 3e9b6f70
/model.38/Reshape_1_output_0: 3e58899c
/model.38/Reshape_2_output_0: 3dc359f7
/model.38/Concat_6_output_0: 3e932b5d
(Unnamed Layer* 967) [Constant]_output: 3e810a14
/model.38/Split_output_0: 3d810a14
/model.38/Split_output_1: 3e010a14
/model.38/Split_output_2: 3e810a14
/model.38/Range_output_0: 3f1f4871
(Unnamed Layer* 991) [Shuffle]_output: 3c010a14
(Unnamed Layer* 993) [Shuffle]_output: 3b810a14
/model.38/Add_output_0: 3f204a85
/model.38/Range_1_output_0: 3f1f4871
(Unnamed Layer* 1006) [Shuffle]_output: 3c010a14
(Unnamed Layer* 1008) [Shuffle]_output: 3b810a14
/model.38/Add_1_output_0: 3f204a85
/model.38/Reshape_5_output_0: 3f204a85
/model.38/Expand_output_0: 3f204a85
/model.38/Reshape_6_output_0: 3f204a85
/model.38/Expand_1_output_0: 3f204a85
/model.38/Unsqueeze_3_output_0: 3f204a85
/model.38/Unsqueeze_4_output_0: 3f204a85
/model.38/Concat_10_output_0: 3f204a85
/model.38/Reshape_7_output_0: 3f204a85
(Unnamed Layer* 1059) [Constant]_output: 0
(Unnamed Layer* 1060) [Shuffle]_output: 0
/model.38/ConstantOfShape_output_0: 0
(Unnamed Layer* 1063) [Shuffle]_output: 3d810a14
/model.38/Add_2_output_0: 3d810a14
/model.38/Range_2_output_0: 3e9d4449
(Unnamed Layer* 1082) [Shuffle]_output: 3c010a14
(Unnamed Layer* 1084) [Shuffle]_output: 3b810a14
/model.38/Add_3_output_0: 3e9f4871
/model.38/Range_3_output_0: 3e9d4449
(Unnamed Layer* 1097) [Shuffle]_output: 3c010a14
(Unnamed Layer* 1099) [Shuffle]_output: 3b810a14
/model.38/Add_4_output_0: 3e9f4871
/model.38/Reshape_10_output_0: 3e9f4871
/model.38/Expand_2_output_0: 3e9f4871
/model.38/Reshape_11_output_0: 3e9f4871
/model.38/Expand_3_output_0: 3e9f4871
/model.38/Unsqueeze_6_output_0: 3e9f4871
/model.38/Unsqueeze_7_output_0: 3e9f4871
/model.38/Concat_15_output_0: 3e9f4871
/model.38/Reshape_12_output_0: 3e9f4871
(Unnamed Layer* 1150) [Constant]_output: 0
(Unnamed Layer* 1151) [Shuffle]_output: 0
/model.38/ConstantOfShape_1_output_0: 0
(Unnamed Layer* 1154) [Shuffle]_output: 3e010a14
/model.38/Add_5_output_0: 3e010a14
/model.38/Range_4_output_0: 3e193bf8
(Unnamed Layer* 1173) [Shuffle]_output: 3c010a14
(Unnamed Layer* 1175) [Shuffle]_output: 3b810a14
/model.38/Add_6_output_0: 3e1d4449
/model.38/Range_5_output_0: 3e193bf8
(Unnamed Layer* 1188) [Shuffle]_output: 3c010a14
(Unnamed Layer* 1190) [Shuffle]_output: 3b810a14
/model.38/Add_7_output_0: 3e1d4449
/model.38/Reshape_15_output_0: 3e1d4449
/model.38/Expand_4_output_0: 3e1d4449
/model.38/Reshape_16_output_0: 3e1d4449
/model.38/Expand_5_output_0: 3e1d4449
/model.38/Unsqueeze_9_output_0: 3e1d4449
/model.38/Unsqueeze_10_output_0: 3e1d4449
/model.38/Concat_20_output_0: 3e1d4449
/model.38/Reshape_17_output_0: 3e1d4449
(Unnamed Layer* 1241) [Constant]_output: 0
(Unnamed Layer* 1242) [Shuffle]_output: 0
/model.38/ConstantOfShape_2_output_0: 0
(Unnamed Layer* 1245) [Shuffle]_output: 3e810a14
/model.38/Add_8_output_0: 3e810a14
/model.38/Concat_22_output_0: 3f204a85
/model.38/Concat_23_output_0: 3e810a14
/model.38/Transpose_output_0: 3f204a85
/model.38/Transpose_1_output_0: 3e810a14
/model.38/Split_1_output_0: 3dd7ad60
/model.38/Split_1_output_1: 3ed7cfff
/model.38/dfl/Reshape_output_0: 3dd7ad60
/model.38/dfl/Transpose_output_0: 3dd7ad60
(Unnamed Layer* 1274) [Softmax]_output: 3bd6b0b9
/model.38/dfl/conv/Conv_output_0: 3d9f43b0
/model.38/dfl/Reshape_1_output_0: 3d9f43b0
/model.38/Unsqueeze_12_output_0: 3f204a85
/model.38/Slice_output_0: 3d9c9278
/model.38/Slice_1_output_0: 3d74eae6
/model.38/Sub_output_0: 3f1fe9e6
/model.38/Add_10_output_0: 3f219a56
/model.38/Add_11_output_0: 3fa0b3e8
(Unnamed Layer* 1357) [Shuffle]_output: 3c810a14
/model.38/Div_1_output_0: 3f20b3e8
/model.38/Sub_1_output_0: 3df49aef
/model.38/Concat_24_output_0: 3f233667
(Unnamed Layer* 1364) [Shuffle]_output: 3e810a14
/model.38/Mul_5_output_0: 40a5e10e
/model.38/Sigmoid_output_0: 3be2d263
output0: 40a5e10e
