TRT-8503-EntropyCalibration2
images: 3bf80000
/Slice_output_0: 3bf80000
/Slice_1_output_0: 3bf80000
/model.0/conv/Conv_output_0: 3e05e3dc
/model.0/act/Sigmoid_output_0: 3c010a14
/model.0/act/Mul_output_0: 3dc28873
/model.1/conv/Conv_output_0: 3dc3ade0
/model.1/act/Sigmoid_output_0: 3c0068d2
/model.1/act/Mul_output_0: 3cbe7042
/model.2/cv1/conv/Conv_output_0: 3d22afb7
/model.2/cv1/act/Sigmoid_output_0: 3c02b562
/model.2/cv1/act/Mul_output_0: 3d0f7044
/model.2/Split_output_0: 3d104e79
/model.2/Split_output_1: 3c6babd1
/model.2/m.0/cv1/conv/Conv_output_0: 3d66688c
/model.2/m.0/cv1/act/Sigmoid_output_0: 3c0376d1
/model.2/m.0/cv1/act/Mul_output_0: 3cbeea32
/model.2/m.0/cv2/conv/Conv_output_0: 3d7ba024
/model.2/m.0/cv2/act/Sigmoid_output_0: 3c010a14
/model.2/m.0/cv2/act/Mul_output_0: 3d66db73
/model.2/m.0/Add_output_0: 3d5e8bab
/model.2/Concat_output_0: 3d3e9e85
/model.2/cv2/conv/Conv_output_0: 3d4e8f0f
/model.2/cv2/act/Sigmoid_output_0: 3bff9be4
/model.2/cv2/act/Mul_output_0: 3cd1485c
/model.3/conv/Conv_output_0: 3ce69cfe
/model.3/act/Sigmoid_output_0: 3c0063d3
/model.3/act/Mul_output_0: 3cb3bba1
/model.4/conv/Conv_output_0: 3dbaae73
/model.4/act/Sigmoid_output_0: 3c010a14
/model.4/act/Mul_output_0: 3d6ae9e7
/model.5/conv/Conv_output_0: 3d9c30f0
/model.5/act/Sigmoid_output_0: 3c010a14
/model.5/act/Mul_output_0: 3cff52f7
/model.6/cv1/conv/Conv_output_0: 3d84e636
/model.6/cv1/act/Sigmoid_output_0: 3c03f7ee
/model.6/cv1/act/Mul_output_0: 3d6c6270
/model.6/Split_output_0: 3d118602
/model.6/Split_output_1: 3d0fbb70
/model.6/m.0/spatial_mixing/Split_output_0: 3d429a84
/model.6/m.0/spatial_mixing/Split_output_1: 3d0fbb70
/model.6/m.0/spatial_mixing/partial_conv3/Conv_output_0: 3d0dfee1
/model.6/m.0/spatial_mixing/Concat_output_0: 3d1e3e1e
/model.6/m.0/mlp/mlp.0/conv/Conv_output_0: 3d940a35
/model.6/m.0/mlp/mlp.0/act/Sigmoid_output_0: 3c003059
/model.6/m.0/mlp/mlp.0/act/Mul_output_0: 3cffbdd1
/model.6/Concat_output_0: 3d40a794
/model.6/cv2/conv/Conv_output_0: 3d611410
/model.6/cv2/act/Sigmoid_output_0: 3c070e71
/model.6/cv2/act/Mul_output_0: 3d01e61d
/model.7/conv/Conv_output_0: 3d333c5d
/model.7/act/Sigmoid_output_0: 3c0333db
/model.7/act/Mul_output_0: 3d26170e
/Concat_output_0: 3d26170e
/model.8/avg_pool/GlobalAveragePool_output_0: 3cf696af
/model.8/Reshape_output_0: 3cf696af
(Unnamed Layer* 147) [Constant]_output: 3b807a16
/model.8/fc/fc.0/MatMul_output_0: 3ce6cf03
/model.8/fc/fc.1/Relu_output_0: 3d1dd9b4
(Unnamed Layer* 150) [Constant]_output: 3b3beb0e
/model.8/fc/fc.2/MatMul_output_0: 3c6f9ff8
/model.8/fc/fc.3/Sigmoid_output_0: 3bee3620
/model.8/Reshape_1_output_0: 3bee3620
/model.8/Mul_output_0: 3cfe86ce
/model.8/Slice_output_0: 3d33e3e6
/model.8/Slice_1_output_0: 3c99829c
/model.8/Concat_2_output_0: 3cfe86ce
/model.8/Add_output_0: 3d56888e
/Slice_2_output_0: 3d56d757
/Slice_3_output_0: 3d2e8e5e
/model.9/cv1/conv/Conv_output_0: 3d5f0a19
/model.9/cv1/act/Sigmoid_output_0: 3c06bbd1
/model.9/cv1/act/Mul_output_0: 3ce8936c
/model.9/Split_output_0: 3d116628
/model.9/Split_output_1: 3cc25586
/model.9/m.0/cv1/conv/Conv_output_0: 3d7143bb
/model.9/m.0/cv1/act/Sigmoid_output_0: 3c014237
/model.9/m.0/cv1/act/Mul_output_0: 3cc098b5
/model.9/m.0/cv2/conv/Conv_output_0: 3d5d2fe9
/model.9/m.0/cv2/act/Sigmoid_output_0: 3c00c2ed
/model.9/m.0/cv2/act/Mul_output_0: 3d0fe675
/model.9/m.0/Add_output_0: 3d66ecbd
/model.9/m.1/cv1/conv/Conv_output_0: 3d7b9675
/model.9/m.1/cv1/act/Sigmoid_output_0: 3c00cdd0
/model.9/m.1/cv1/act/Mul_output_0: 3cd49ad4
/model.9/m.1/cv2/conv/Conv_output_0: 3da4973e
/model.9/m.1/cv2/act/Sigmoid_output_0: 3c075e91
/model.9/m.1/cv2/act/Mul_output_0: 3d6c72a3
/model.9/m.1/Add_output_0: 3dbb4c60
/model.9/Concat_output_0: 3d47f82e
/model.9/cv2/conv/Conv_output_0: 3d93d75b
/model.9/cv2/act/Sigmoid_output_0: 3c0213b1
/model.9/cv2/act/Mul_output_0: 3d022406
/model.10/conv/Conv_output_0: 3d7e63b7
/model.10/act/Sigmoid_output_0: 3c00eb89
/model.10/act/Mul_output_0: 3d2760fb
/model.11/cv1/conv/Conv_output_0: 3d86a0bb
/model.11/cv1/act/Sigmoid_output_0: 3bffc4f5
/model.11/cv1/act/Mul_output_0: 3d104c75
/model.11/Split_output_0: 3d001b36
/model.11/Split_output_1: 3d100d94
/model.11/m.0/spatial_mixing/Split_output_0: 3cff2a00
/model.11/m.0/spatial_mixing/Split_output_1: 3d100d94
/model.11/m.0/spatial_mixing/partial_conv3/Conv_output_0: 3ce01177
/model.11/m.0/spatial_mixing/Concat_output_0: 3d100d94
/model.11/m.0/mlp/mlp.0/conv/Conv_output_0: 3d28c2db
/model.11/m.0/mlp/mlp.0/act/Sigmoid_output_0: 3c008ddb
/model.11/m.0/mlp/mlp.0/act/Mul_output_0: 3d00361b
/model.11/m.1/spatial_mixing/Split_output_0: 3cd351ff
/model.11/m.1/spatial_mixing/Split_output_1: 3cfffe8f
/model.11/m.1/spatial_mixing/partial_conv3/Conv_output_0: 3cc300eb
/model.11/m.1/spatial_mixing/Concat_output_0: 3cff3d63
/model.11/m.1/mlp/mlp.0/conv/Conv_output_0: 3d66edcc
/model.11/m.1/mlp/mlp.0/act/Sigmoid_output_0: 3c0205db
/model.11/m.1/mlp/mlp.0/act/Mul_output_0: 3ce6a40c
/model.11/Concat_output_0: 3d1147f7
/model.11/cv2/conv/Conv_output_0: 3d0d2feb
/model.11/cv2/act/Sigmoid_output_0: 3c0076a9
/model.11/cv2/act/Mul_output_0: 3d10c466
/model.12/conv/Conv_output_0: 3d430397
/model.12/act/Sigmoid_output_0: 3bffd0c1
/model.12/act/Mul_output_0: 3cd369e9
/Concat_1_output_0: 3d0236a5
/model.13/avg_pool/GlobalAveragePool_output_0: 3c552285
/model.13/Reshape_output_0: 3c552285
(Unnamed Layer* 369) [Constant]_output: 3a9fc97b
/model.13/fc/fc.0/MatMul_output_0: 3c8a1787
/model.13/fc/fc.1/Relu_output_0: 3c8a1787
(Unnamed Layer* 372) [Constant]_output: 3aa688a5
/model.13/fc/fc.2/MatMul_output_0: 3c105f8c
/model.13/fc/fc.3/Sigmoid_output_0: 3bd0a936
/model.13/Reshape_1_output_0: 3bd0a936
/model.13/Mul_output_0: 3c91b85f
/model.13/Slice_output_0: 3c823dae
/model.13/Slice_1_output_0: 3cc29f4b
/model.13/Concat_2_output_0: 3c91b85f
/model.13/Add_output_0: 3d558b34
/Slice_4_output_0: 3d55d53b
/Slice_5_output_0: 3d200c0c
/model.14/cv1/conv/Conv_output_0: 3d66c8a4
/model.14/cv1/act/Sigmoid_output_0: 3c00f1cf
/model.14/cv1/act/Mul_output_0: 3d2a309c
/model.14/Split_output_0: 3d2b00d4
/model.14/Split_output_1: 3cb1f41c
/model.14/m.0/cv1/conv/Conv_output_0: 3d87bb79
/model.14/m.0/cv1/act/Sigmoid_output_0: 3c00ecf3
/model.14/m.0/cv1/act/Mul_output_0: 3d021f10
/model.14/m.0/cv2/conv/Conv_output_0: 3d8566c2
/model.14/m.0/cv2/act/Sigmoid_output_0: 3c00e9ff
/model.14/m.0/cv2/act/Mul_output_0: 3d02adce
/model.14/m.0/Add_output_0: 3d660dc6
/model.14/m.1/cv1/conv/Conv_output_0: 3d8f18c3
/model.14/m.1/cv1/act/Sigmoid_output_0: 3c00c816
/model.14/m.1/cv1/act/Mul_output_0: 3cbfadcb
/model.14/m.1/cv2/conv/Conv_output_0: 3d9c03cf
/model.14/m.1/cv2/act/Sigmoid_output_0: 3c00f134
/model.14/m.1/cv2/act/Mul_output_0: 3d277535
/model.14/m.1/Add_output_0: 3d837551
/model.14/Concat_output_0: 3d43c7b0
/model.14/cv2/conv/Conv_output_0: 3d8bb885
/model.14/cv2/act/Sigmoid_output_0: 3c00f1d9
/model.14/cv2/act/Mul_output_0: 3d482621
/model.15/conv/Conv_output_0: 3d6025ef
/model.15/act/Sigmoid_output_0: 3c00ec75
/model.15/act/Mul_output_0: 3d00b5b5
/model.16/cv1/conv/Conv_output_0: 3d4e74ff
/model.16/cv1/act/Sigmoid_output_0: 3c005aa1
/model.16/cv1/act/Mul_output_0: 3d029455
/model.16/Split_output_0: 3d029455
/model.16/Split_output_1: 3cd1b329
/model.16/m.0/spatial_mixing/Split_output_0: 3cd1b329
/model.16/m.0/spatial_mixing/Split_output_1: 3d01a546
/model.16/m.0/spatial_mixing/partial_conv3/Conv_output_0: 3cfca6f6
/model.16/m.0/spatial_mixing/Concat_output_0: 3d01a546
/model.16/m.0/mlp/mlp.0/conv/Conv_output_0: 3d41195f
/model.16/m.0/mlp/mlp.0/act/Sigmoid_output_0: 3c000f5a
/model.16/m.0/mlp/mlp.0/act/Mul_output_0: 3cd41f46
/model.16/m.1/spatial_mixing/Split_output_0: 3d01ba09
/model.16/m.1/spatial_mixing/Split_output_1: 3cc07c5a
/model.16/m.1/spatial_mixing/partial_conv3/Conv_output_0: 3ccea605
/model.16/m.1/spatial_mixing/Concat_output_0: 3cc07c5a
/model.16/m.1/mlp/mlp.0/conv/Conv_output_0: 3d68e98d
/model.16/m.1/mlp/mlp.0/act/Sigmoid_output_0: 3c005e63
/model.16/m.1/mlp/mlp.0/act/Mul_output_0: 3cd2998a
/model.16/Concat_output_0: 3d029455
/model.16/cv2/conv/Conv_output_0: 3d4b2376
/model.16/cv2/act/Sigmoid_output_0: 3c012aeb
/model.16/cv2/act/Mul_output_0: 3cd3be90
/model.17/conv/Conv_output_0: 3d3f46c9
/model.17/act/Sigmoid_output_0: 3c02c2ad
/model.17/act/Mul_output_0: 3ceb0c68
/Concat_2_output_0: 3d00b5b5
/model.18/avg_pool/GlobalAveragePool_output_0: 3c73637b
/model.18/Reshape_output_0: 3c73637b
(Unnamed Layer* 591) [Constant]_output: 3a11bb22
/model.18/fc/fc.0/MatMul_output_0: 3cecff41
/model.18/fc/fc.1/Relu_output_0: 3cecff41
(Unnamed Layer* 594) [Constant]_output: 3a462375
/model.18/fc/fc.2/MatMul_output_0: 3c3ea538
/model.18/fc/fc.3/Sigmoid_output_0: 3bdccb0c
/model.18/Reshape_1_output_0: 3bdccb0c
/model.18/Mul_output_0: 3cacc066
/model.18/Slice_output_0: 3cab950d
/model.18/Slice_1_output_0: 3cb63ba5
/model.18/Concat_2_output_0: 3cacc066
/model.18/Add_output_0: 3d322770
/Slice_6_output_0: 3d359f2c
/Slice_7_output_0: 3d355603
/model.19/cv1/conv/Conv_output_0: 3d460fa4
/model.19/cv1/act/Sigmoid_output_0: 3c0078a2
/model.19/cv1/act/Mul_output_0: 3cc03ce3
/model.19/Split_output_0: 3cc03ce3
/model.19/Split_output_1: 3ce83291
/model.19/m.0/cv1/conv/Conv_output_0: 3d6bf4b1
/model.19/m.0/cv1/act/Sigmoid_output_0: 3c00c22a
/model.19/m.0/cv1/act/Mul_output_0: 3ceac163
/model.19/m.0/cv2/conv/Conv_output_0: 3d75591d
/model.19/m.0/cv2/act/Sigmoid_output_0: 3c00e5db
/model.19/m.0/cv2/act/Mul_output_0: 3d13adac
/model.19/m.0/Add_output_0: 3d7bf270
/model.19/Concat_output_0: 3d116b07
/model.19/cv2/conv/Conv_output_0: 3d5b035e
/model.19/cv2/act/Sigmoid_output_0: 3c00b69d
/model.19/cv2/act/Mul_output_0: 3d027d2d
/model.20/cv1/conv/Conv_output_0: 3d4b1a6f
/model.20/cv1/act/Sigmoid_output_0: 3c00c507
/model.20/cv1/act/Mul_output_0: 3d12c9b2
/model.20/m/MaxPool_output_0: 3d12c9b2
/model.20/m_1/MaxPool_output_0: 3d12c9b2
/model.20/m_2/MaxPool_output_0: 3d12c9b2
/model.20/Concat_output_0: 3d69fe56
/model.20/cv2/conv/Conv_output_0: 3d802235
/model.20/cv2/act/Sigmoid_output_0: 3c009d59
/model.20/cv2/act/Mul_output_0: 3ce9aea4
/model.21/cv1/conv/Conv_output_0: 3d3eb26b
/model.21/cv1/act/Sigmoid_output_0: 3c00ca3c
/model.21/cv1/act/Mul_output_0: 3cbfd84c
/model.21/Split_output_0: 3ce94db0
/model.21/Split_output_1: 3cbfd84c
/model.21/m.0/spatial_mixing/Split_output_0: 3cffe1a3
/model.21/m.0/spatial_mixing/Split_output_1: 3ce746de
/model.21/m.0/spatial_mixing/partial_conv3/Conv_output_0: 3d1691de
/model.21/m.0/spatial_mixing/Concat_output_0: 3ce746de
/model.21/m.0/mlp/mlp.0/conv/Conv_output_0: 3d4913ae
/model.21/m.0/mlp/mlp.0/act/Sigmoid_output_0: 3c008ef0
/model.21/m.0/mlp/mlp.0/act/Mul_output_0: 3cea7d22
/model.21/Concat_output_0: 3cbfd84c
/model.21/cv2/conv/Conv_output_0: 3d360284
/model.21/cv2/act/Sigmoid_output_0: 3c005709
/model.21/cv2/act/Mul_output_0: 3cd16c1c
/model.22/cv1/conv/Conv_output_0: 3d41752f
/model.22/cv1/act/Sigmoid_output_0: 3c00854e
/model.22/cv1/act/Mul_output_0: 3d0226db
/model.22/m/MaxPool_output_0: 3d0226db
/model.22/m_1/MaxPool_output_0: 3d0226db
/model.22/m_2/MaxPool_output_0: 3d0226db
/model.22/Concat_output_0: 3d6a65e6
/model.22/cv2/conv/Conv_output_0: 3d636d61
/model.22/cv2/act/Sigmoid_output_0: 3c00b232
/model.22/cv2/act/Mul_output_0: 3ce620b6
/model.23/Add_output_0: 3d8c9724
/model.24/Add_output_0: 3d8e15d6
/model.25/Add_output_0: 3d65fa90
/model.26/Resize_output_0: 3d65fa90
/model.27/Concat_output_0: 3d7f62fc
/model.28/cv1/conv/Conv_output_0: 3d7b4d8a
/model.28/cv1/act/Sigmoid_output_0: 3c00c82a
/model.28/cv1/act/Mul_output_0: 3cbfe0f4
/model.28/Split_output_0: 3cff94d9
/model.28/Split_output_1: 3ce8c649
/model.28/m.0/cv1/conv/Conv_output_0: 3d6f2428
/model.28/m.0/cv1/act/Sigmoid_output_0: 3c00e7ae
/model.28/m.0/cv1/act/Mul_output_0: 3cea5c16
/model.28/m.0/cv2/conv/Conv_output_0: 3d7fc06d
/model.28/m.0/cv2/act/Sigmoid_output_0: 3c00eec9
/model.28/m.0/cv2/act/Mul_output_0: 3d110636
/model.28/Concat_output_0: 3d110636
/model.28/cv2/conv/Conv_output_0: 3d718edb
/model.28/cv2/act/Sigmoid_output_0: 3c00f142
/model.28/cv2/act/Mul_output_0: 3d28ba78
/model.29/Resize_output_0: 3d28ba78
/model.30/Concat_output_0: 3d29bd87
/model.31/cv1/conv/Conv_output_0: 3d446a16
/model.31/cv1/act/Sigmoid_output_0: 3c0081a8
/model.31/cv1/act/Mul_output_0: 3ceab043
/model.31/Split_output_0: 3d12c551
/model.31/Split_output_1: 3cc0b9bc
/model.31/m.0/cv1/conv/Conv_output_0: 3d4a13c8
/model.31/m.0/cv1/act/Sigmoid_output_0: 3c005515
/model.31/m.0/cv1/act/Mul_output_0: 3cd49fde
/model.31/m.0/cv2/conv/Conv_output_0: 3d8b21b2
/model.31/m.0/cv2/act/Sigmoid_output_0: 3c00d858
/model.31/m.0/cv2/act/Mul_output_0: 3d418791
/model.31/Concat_output_0: 3d112ac5
/model.31/cv2/conv/Conv_output_0: 3da7c1fb
/model.31/cv2/act/Sigmoid_output_0: 3c020ee6
/model.31/cv2/act/Mul_output_0: 3d014f2f
/model.32/conv/Conv_output_0: 3da598d0
/model.32/act/Sigmoid_output_0: 3c0213e0
/model.32/act/Mul_output_0: 3d28430f
/model.33/Concat_output_0: 3d28430f
/model.34/cv1/conv/Conv_output_0: 3d805d9e
/model.34/cv1/act/Sigmoid_output_0: 3c010e59
/model.34/cv1/act/Mul_output_0: 3d0222f7
/model.34/Split_output_0: 3ce700fe
/model.34/Split_output_1: 3d0222f7
/model.34/m.0/cv1/conv/Conv_output_0: 3d840566
/model.34/m.0/cv1/act/Sigmoid_output_0: 3c01103e
/model.34/m.0/cv1/act/Mul_output_0: 3d13a8e4
/model.34/m.0/cv2/conv/Conv_output_0: 3d852e78
/model.34/m.0/cv2/act/Sigmoid_output_0: 3c011154
/model.34/m.0/cv2/act/Mul_output_0: 3ce6c95f
/model.34/Concat_output_0: 3ce6c95f
/model.34/cv2/conv/Conv_output_0: 3d8502f4
/model.34/cv2/act/Sigmoid_output_0: 3c00f0dd
/model.34/cv2/act/Mul_output_0: 3d12a8e0
/model.35/conv/Conv_output_0: 3d34d1fe
/model.35/act/Sigmoid_output_0: 3c00c882
/model.35/act/Mul_output_0: 3cc06823
/model.36/Concat_output_0: 3d107e5f
/model.37/cv1/conv/Conv_output_0: 3d093178
/model.37/cv1/act/Sigmoid_output_0: 3c0022f3
/model.37/cv1/act/Mul_output_0: 3cb0e147
/model.37/Split_output_0: 3cb0e147
/model.37/Split_output_1: 3cb267d4
/model.37/m.0/cv1/conv/Conv_output_0: 3d0c734b
/model.37/m.0/cv1/act/Sigmoid_output_0: 3bfeec9d
/model.37/m.0/cv1/act/Mul_output_0: 3cb149e0
/model.37/m.0/cv2/conv/Conv_output_0: 3d0859d4
/model.37/m.0/cv2/act/Sigmoid_output_0: 3c011958
/model.37/m.0/cv2/act/Mul_output_0: 3c99b487
/model.37/Concat_output_0: 3c90147f
/model.37/cv2/conv/Conv_output_0: 3ce641d4
/model.37/cv2/act/Sigmoid_output_0: 3c0102c6
/model.37/cv2/act/Mul_output_0: 3c9bc2e1
/model.38/cv2.0/cv2.0.0/conv/Conv_output_0: 3d93e5d4
/model.38/cv2.0/cv2.0.0/act/Sigmoid_output_0: 3c007c82
/model.38/cv2.0/cv2.0.0/act/Mul_output_0: 3ce93c5b
/model.38/cv2.0/cv2.0.1/conv/Conv_output_0: 3da7055e
/model.38/cv2.0/cv2.0.1/act/Sigmoid_output_0: 3c011222
/model.38/cv2.0/cv2.0.1/act/Mul_output_0: 3d6c096d
/model.38/cv2.0/cv2.0.2/Conv_output_0: 3e032e10
/model.38/cv3.0/cv3.0.0/conv/Conv_output_0: 3dca233d
/model.38/cv3.0/cv3.0.0/act/Sigmoid_output_0: 3c011206
/model.38/cv3.0/cv3.0.0/act/Mul_output_0: 3d1189a6
/model.38/cv3.0/cv3.0.1/conv/Conv_output_0: 3e50cf96
/model.38/cv3.0/cv3.0.1/act/Sigmoid_output_0: 3c010a14
/model.38/cv3.0/cv3.0.1/act/Mul_output_0: 3dd4680d
/model.38/cv3.0/cv3.0.2/Conv_output_0: 3f13cf70
/model.38/Concat_output_0: 3ea364e7
/model.38/cv2.1/cv2.1.0/conv/Conv_output_0: 3d7f0b8e
/model.38/cv2.1/cv2.1.0/act/Sigmoid_output_0: 3c00efd8
/model.38/cv2.1/cv2.1.0/act/Mul_output_0: 3d1284f1
/model.38/cv2.1/cv2.1.1/conv/Conv_output_0: 3dc2849e
/model.38/cv2.1/cv2.1.1/act/Sigmoid_output_0: 3c0213fa
/model.38/cv2.1/cv2.1.1/act/Mul_output_0: 3d6a4251
/model.38/cv2.1/cv2.1.2/Conv_output_0: 3dd0ccd3
/model.38/cv3.1/cv3.1.0/conv/Conv_output_0: 3da6aae0
/model.38/cv3.1/cv3.1.0/act/Sigmoid_output_0: 3c010961
/model.38/cv3.1/cv3.1.0/act/Mul_output_0: 3d010f86
/model.38/cv3.1/cv3.1.1/conv/Conv_output_0: 3df30122
/model.38/cv3.1/cv3.1.1/act/Sigmoid_output_0: 3c010a14
/model.38/cv3.1/cv3.1.1/act/Mul_output_0: 3d74f19a
/model.38/cv3.1/cv3.1.2/Conv_output_0: 3e939713
/model.38/Concat_1_output_0: 3e508205
/model.38/cv2.2/cv2.2.0/conv/Conv_output_0: 3d202d12
/model.38/cv2.2/cv2.2.0/act/Sigmoid_output_0: 3c01c43b
/model.38/cv2.2/cv2.2.0/act/Mul_output_0: 3c9685bd
/model.38/cv2.2/cv2.2.1/conv/Conv_output_0: 3d03e953
/model.38/cv2.2/cv2.2.1/act/Sigmoid_output_0: 3c01e2d5
/model.38/cv2.2/cv2.2.1/act/Mul_output_0: 3cf0f4f2
/model.38/cv2.2/cv2.2.2/Conv_output_0: 3c2bda84
/model.38/cv3.2/cv3.2.0/conv/Conv_output_0: 3ce33c05
/model.38/cv3.2/cv3.2.0/act/Sigmoid_output_0: 3c015995
/model.38/cv3.2/cv3.2.0/act/Mul_output_0: 3c75f842
/model.38/cv3.2/cv3.2.1/conv/Conv_output_0: 3ca990b9
/model.38/cv3.2/cv3.2.1/act/Sigmoid_output_0: 3beeb883
/model.38/cv3.2/cv3.2.1/act/Mul_output_0: 3c9e0adb
/model.38/cv3.2/cv3.2.2/Conv_output_0: 3dc67d73
/model.38/Concat_2_output_0: 3dc2fb6c
/model.38/Reshape_output_0: 3ea364e7
/model.38/Reshape_1_output_0: 3e508205
/model.38/Reshape_2_output_0: 3dc2fb6c
/model.38/Concat_6_output_0: 3e846a56
(Unnamed Layer* 967) [Constant]_output: 3e810a14
/model.38/Split_output_0: 3d810a14
/model.38/Split_output_1: 3e010a14
/model.38/Split_output_2: 3e810a14
/model.38/Range_output_0: 3f1f4871
(Unnamed Layer* 991) [Shuffle]_output: 3c010a14
(Unnamed Layer* 993) [Shuffle]_output: 3b810a14
/model.38/Add_output_0: 3f204a85
/model.38/Range_1_output_0: 3f1f4871
(Unnamed Layer* 1006) [Shuffle]_output: 3c010a14
(Unnamed Layer* 1008) [Shuffle]_output: 3b810a14
/model.38/Add_1_output_0: 3f204a85
/model.38/Reshape_5_output_0: 3f204a85
/model.38/Expand_output_0: 3f204a85
/model.38/Reshape_6_output_0: 3f204a85
/model.38/Expand_1_output_0: 3f204a85
/model.38/Unsqueeze_3_output_0: 3f204a85
/model.38/Unsqueeze_4_output_0: 3f204a85
/model.38/Concat_10_output_0: 3f204a85
/model.38/Reshape_7_output_0: 3f204a85
(Unnamed Layer* 1059) [Constant]_output: 0
(Unnamed Layer* 1060) [Shuffle]_output: 0
/model.38/ConstantOfShape_output_0: 0
(Unnamed Layer* 1063) [Shuffle]_output: 3d810a14
/model.38/Add_2_output_0: 3d810a14
/model.38/Range_2_output_0: 3e9d4449
(Unnamed Layer* 1082) [Shuffle]_output: 3c010a14
(Unnamed Layer* 1084) [Shuffle]_output: 3b810a14
/model.38/Add_3_output_0: 3e9f4871
/model.38/Range_3_output_0: 3e9d4449
(Unnamed Layer* 1097) [Shuffle]_output: 3c010a14
(Unnamed Layer* 1099) [Shuffle]_output: 3b810a14
/model.38/Add_4_output_0: 3e9f4871
/model.38/Reshape_10_output_0: 3e9f4871
/model.38/Expand_2_output_0: 3e9f4871
/model.38/Reshape_11_output_0: 3e9f4871
/model.38/Expand_3_output_0: 3e9f4871
/model.38/Unsqueeze_6_output_0: 3e9f4871
/model.38/Unsqueeze_7_output_0: 3e9f4871
/model.38/Concat_15_output_0: 3e9f4871
/model.38/Reshape_12_output_0: 3e9f4871
(Unnamed Layer* 1150) [Constant]_output: 0
(Unnamed Layer* 1151) [Shuffle]_output: 0
/model.38/ConstantOfShape_1_output_0: 0
(Unnamed Layer* 1154) [Shuffle]_output: 3e010a14
/model.38/Add_5_output_0: 3e010a14
/model.38/Range_4_output_0: 3e193bf8
(Unnamed Layer* 1173) [Shuffle]_output: 3c010a14
(Unnamed Layer* 1175) [Shuffle]_output: 3b810a14
/model.38/Add_6_output_0: 3e1d4449
/model.38/Range_5_output_0: 3e193bf8
(Unnamed Layer* 1188) [Shuffle]_output: 3c010a14
(Unnamed Layer* 1190) [Shuffle]_output: 3b810a14
/model.38/Add_7_output_0: 3e1d4449
/model.38/Reshape_15_output_0: 3e1d4449
/model.38/Expand_4_output_0: 3e1d4449
/model.38/Reshape_16_output_0: 3e1d4449
/model.38/Expand_5_output_0: 3e1d4449
/model.38/Unsqueeze_9_output_0: 3e1d4449
/model.38/Unsqueeze_10_output_0: 3e1d4449
/model.38/Concat_20_output_0: 3e1d4449
/model.38/Reshape_17_output_0: 3e1d4449
(Unnamed Layer* 1241) [Constant]_output: 0
(Unnamed Layer* 1242) [Shuffle]_output: 0
/model.38/ConstantOfShape_2_output_0: 0
(Unnamed Layer* 1245) [Shuffle]_output: 3e810a14
/model.38/Add_8_output_0: 3e810a14
/model.38/Concat_22_output_0: 3f204a85
/model.38/Concat_23_output_0: 3e810a14
/model.38/Transpose_output_0: 3f204a85
/model.38/Transpose_1_output_0: 3e810a14
/model.38/Split_1_output_0: 3df1b449
/model.38/Split_1_output_1: 3ee8e852
/model.38/dfl/Reshape_output_0: 3df1b449
/model.38/dfl/Transpose_output_0: 3df1b449
(Unnamed Layer* 1274) [Softmax]_output: 3bd7e525
/model.38/dfl/conv/Conv_output_0: 3d9ccb34
/model.38/dfl/Reshape_1_output_0: 3d9ccb34
/model.38/Unsqueeze_12_output_0: 3f204a85
/model.38/Slice_output_0: 3d9ccb34
/model.38/Slice_1_output_0: 3d75255f
/model.38/Sub_output_0: 3f2005c6
/model.38/Add_10_output_0: 3f21a4cf
/model.38/Add_11_output_0: 3fa0bc1d
(Unnamed Layer* 1357) [Shuffle]_output: 3c810a14
/model.38/Div_1_output_0: 3f20bc1d
/model.38/Sub_1_output_0: 3df487a6
/model.38/Concat_24_output_0: 3f313558
(Unnamed Layer* 1364) [Shuffle]_output: 3e810a14
/model.38/Mul_5_output_0: 40a5e987
/model.38/Sigmoid_output_0: 3be324d5
output0: 40a5e987
