TRT-8503-EntropyCalibration2
images: 3bf80000
/Slice_output_0: 3bf80000
/Slice_1_output_0: 3bf80000
/model.0/conv/Conv_output_0: 3e0167d1
/model.0/act/Sigmoid_output_0: 3c010a14
/model.0/act/Mul_output_0: 3d803b33
/model.1/conv/Conv_output_0: 3e046c18
/model.1/act/Sigmoid_output_0: 3c0068d2
/model.1/act/Mul_output_0: 3cdb6832
/model.2/cv1/conv/Conv_output_0: 3d92de82
/model.2/cv1/act/Sigmoid_output_0: 3c02b563
/model.2/cv1/act/Mul_output_0: 3d0fe948
/model.2/Split_output_0: 3d10c838
/model.2/Split_output_1: 3c6c48b4
/model.2/m.0/cv1/conv/Conv_output_0: 3d632ad2
/model.2/m.0/cv1/act/Sigmoid_output_0: 3c0376d6
/model.2/m.0/cv1/act/Mul_output_0: 3cbf2663
/model.2/m.0/cv2/conv/Conv_output_0: 3d642180
/model.2/m.0/cv2/act/Sigmoid_output_0: 3c029528
/model.2/m.0/cv2/act/Mul_output_0: 3d6ed2e8
/model.2/m.0/Add_output_0: 3d9a9dbe
/model.2/Concat_output_0: 3d28e50c
/model.2/cv2/conv/Conv_output_0: 3d4d8042
/model.2/cv2/act/Sigmoid_output_0: 3bff9a82
/model.2/cv2/act/Mul_output_0: 3ce6d9ca
/model.3/conv/Conv_output_0: 3ce69d0e
/model.3/act/Sigmoid_output_0: 3c00654b
/model.3/act/Mul_output_0: 3cb1779d
/model.4/conv/Conv_output_0: 3dba2b84
/model.4/act/Sigmoid_output_0: 3c010a14
/model.4/act/Mul_output_0: 3d4eda38
/model.5/conv/Conv_output_0: 3d9cd131
/model.5/act/Sigmoid_output_0: 3c010a14
/model.5/act/Mul_output_0: 3d4419ed
/model.6/cv1/conv/Conv_output_0: 3d8bdeec
/model.6/cv1/act/Sigmoid_output_0: 3c010a14
/model.6/cv1/act/Mul_output_0: 3d40f458
/model.6/Split_output_0: 3d375226
/model.6/Split_output_1: 3d414814
/model.6/m.0/spatial_mixing/Split_output_0: 3d41b9f0
/model.6/m.0/spatial_mixing/Split_output_1: 3d0afb52
/model.6/m.0/spatial_mixing/partial_conv3/Conv_output_0: 3d048e4e
/model.6/m.0/spatial_mixing/Concat_output_0: 3d414814
/model.6/m.0/mlp/mlp.0/conv/Conv_output_0: 3d87e539
/model.6/m.0/mlp/mlp.0/act/Sigmoid_output_0: 3c003054
/model.6/m.0/mlp/mlp.0/act/Mul_output_0: 3cfbf537
/model.6/Concat_output_0: 3d40f458
/model.6/cv2/conv/Conv_output_0: 3d6dd618
/model.6/cv2/act/Sigmoid_output_0: 3c071608
/model.6/cv2/act/Mul_output_0: 3d120d65
/model.7/conv/Conv_output_0: 3d43775b
/model.7/act/Sigmoid_output_0: 3c0334f4
/model.7/act/Mul_output_0: 3d26b32f
/Concat_output_0: 3d12ca6f
/model.8/avg_pool/GlobalAveragePool_output_0: 3cfb6afb
/model.8/Reshape_output_0: 3cfb6afb
(Unnamed Layer* 147) [Constant]_output: 3b807a16
/model.8/fc/fc.0/MatMul_output_0: 3ce41018
/model.8/fc/fc.1/Relu_output_0: 3d0a5479
(Unnamed Layer* 150) [Constant]_output: 3b3beb0e
/model.8/fc/fc.2/MatMul_output_0: 3c75281c
/model.8/fc/fc.3/Sigmoid_output_0: 3be1b270
/model.8/Reshape_1_output_0: 3be1b270
/model.8/Mul_output_0: 3cfb8d6b
/model.8/Slice_output_0: 3d33cf76
/model.8/Slice_1_output_0: 3c9a475f
/model.8/Concat_2_output_0: 3cfb8d6b
/model.8/Add_output_0: 3d3be030
/Slice_2_output_0: 3d57ff49
/Slice_3_output_0: 3d3b84d7
/model.9/cv1/conv/Conv_output_0: 3d5e9a6c
/model.9/cv1/act/Sigmoid_output_0: 3c06cfac
/model.9/cv1/act/Mul_output_0: 3d119c10
/model.9/Split_output_0: 3d119c10
/model.9/Split_output_1: 3ce8ab3b
/model.9/m.0/cv1/conv/Conv_output_0: 3d61cb26
/model.9/m.0/cv1/act/Sigmoid_output_0: 3c049c21
/model.9/m.0/cv1/act/Mul_output_0: 3cd4023d
/model.9/m.0/cv2/conv/Conv_output_0: 3d5dfcd2
/model.9/m.0/cv2/act/Sigmoid_output_0: 3c00c66c
/model.9/m.0/cv2/act/Mul_output_0: 3d10f448
/model.9/m.0/Add_output_0: 3d646d2b
/model.9/m.1/cv1/conv/Conv_output_0: 3d79f4e4
/model.9/m.1/cv1/act/Sigmoid_output_0: 3c00c8ce
/model.9/m.1/cv1/act/Mul_output_0: 3cc18be6
/model.9/m.1/cv2/conv/Conv_output_0: 3dada3c7
/model.9/m.1/cv2/act/Sigmoid_output_0: 3c075eb4
/model.9/m.1/cv2/act/Mul_output_0: 3d67e822
/model.9/m.1/Add_output_0: 3db994b4
/model.9/Concat_output_0: 3d48c2f5
/model.9/cv2/conv/Conv_output_0: 3d937441
/model.9/cv2/act/Sigmoid_output_0: 3c0213ad
/model.9/cv2/act/Mul_output_0: 3d01ccc6
/model.10/conv/Conv_output_0: 3d7beca5
/model.10/act/Sigmoid_output_0: 3c00ef77
/model.10/act/Mul_output_0: 3d1002ac
/model.11/cv1/conv/Conv_output_0: 3d869556
/model.11/cv1/act/Sigmoid_output_0: 3bffc34a
/model.11/cv1/act/Mul_output_0: 3d102666
/model.11/Split_output_0: 3d1360d7
/model.11/Split_output_1: 3d0f6b3c
/model.11/m.0/spatial_mixing/Split_output_0: 3cfefbc6
/model.11/m.0/spatial_mixing/Split_output_1: 3d0f6b3c
/model.11/m.0/spatial_mixing/partial_conv3/Conv_output_0: 3cde7b15
/model.11/m.0/spatial_mixing/Concat_output_0: 3d0f6b3c
/model.11/m.0/mlp/mlp.0/conv/Conv_output_0: 3d295ae6
/model.11/m.0/mlp/mlp.0/act/Sigmoid_output_0: 3c00a4b7
/model.11/m.0/mlp/mlp.0/act/Mul_output_0: 3cfe9c8c
/model.11/m.1/spatial_mixing/Split_output_0: 3cd4b1ee
/model.11/m.1/spatial_mixing/Split_output_1: 3cb0cea0
/model.11/m.1/spatial_mixing/partial_conv3/Conv_output_0: 3cc212c2
/model.11/m.1/spatial_mixing/Concat_output_0: 3cfd649d
/model.11/m.1/mlp/mlp.0/conv/Conv_output_0: 3d65638e
/model.11/m.1/mlp/mlp.0/act/Sigmoid_output_0: 3c020eed
/model.11/m.1/mlp/mlp.0/act/Mul_output_0: 3cc24b7d
/model.11/Concat_output_0: 3d016462
/model.11/cv2/conv/Conv_output_0: 3d0d13e8
/model.11/cv2/act/Sigmoid_output_0: 3c005528
/model.11/cv2/act/Mul_output_0: 3d109895
/model.12/conv/Conv_output_0: 3d432b98
/model.12/act/Sigmoid_output_0: 3bffd9ad
/model.12/act/Mul_output_0: 3cd20a90
/Concat_1_output_0: 3cd17f3a
/model.13/avg_pool/GlobalAveragePool_output_0: 3c50eefe
/model.13/Reshape_output_0: 3c50eefe
(Unnamed Layer* 369) [Constant]_output: 3a9fc97b
/model.13/fc/fc.0/MatMul_output_0: 3c88d9ea
/model.13/fc/fc.1/Relu_output_0: 3c953dd7
(Unnamed Layer* 372) [Constant]_output: 3aa688a5
/model.13/fc/fc.2/MatMul_output_0: 3c0f499a
/model.13/fc/fc.3/Sigmoid_output_0: 3bd36eef
/model.13/Reshape_1_output_0: 3bd36eef
/model.13/Mul_output_0: 3ca9cf0b
/model.13/Slice_output_0: 3c550da3
/model.13/Slice_1_output_0: 3ca9cf0b
/model.13/Concat_2_output_0: 3ca9cf0b
/model.13/Add_output_0: 3d534a67
/Slice_4_output_0: 3d534a67
/Slice_5_output_0: 3d1fcc70
/model.14/cv1/conv/Conv_output_0: 3d89a6ea
/model.14/cv1/act/Sigmoid_output_0: 3c00f057
/model.14/cv1/act/Mul_output_0: 3ce956f1
/model.14/Split_output_0: 3d11e064
/model.14/Split_output_1: 3c99bffb
/model.14/m.0/cv1/conv/Conv_output_0: 3d885cf2
/model.14/m.0/cv1/act/Sigmoid_output_0: 3c00ee2f
/model.14/m.0/cv1/act/Mul_output_0: 3d027c09
/model.14/m.0/cv2/conv/Conv_output_0: 3d8503b9
/model.14/m.0/cv2/act/Sigmoid_output_0: 3c00e9d2
/model.14/m.0/cv2/act/Mul_output_0: 3d02555e
/model.14/m.0/Add_output_0: 3d665761
/model.14/m.1/cv1/conv/Conv_output_0: 3d8c0fba
/model.14/m.1/cv1/act/Sigmoid_output_0: 3c00c3a9
/model.14/m.1/cv1/act/Mul_output_0: 3ce788f8
/model.14/m.1/cv2/conv/Conv_output_0: 3d985607
/model.14/m.1/cv2/act/Sigmoid_output_0: 3c010e5d
/model.14/m.1/cv2/act/Mul_output_0: 3d275bdf
/model.14/m.1/Add_output_0: 3d8f0d20
/model.14/Concat_output_0: 3d429b5f
/model.14/cv2/conv/Conv_output_0: 3d8b4215
/model.14/cv2/act/Sigmoid_output_0: 3c00f177
/model.14/cv2/act/Mul_output_0: 3d28b8c8
/model.15/conv/Conv_output_0: 3d5cbe22
/model.15/act/Sigmoid_output_0: 3c00e311
/model.15/act/Mul_output_0: 3ce5caf6
/model.16/cv1/conv/Conv_output_0: 3d696395
/model.16/cv1/act/Sigmoid_output_0: 3c00592b
/model.16/cv1/act/Mul_output_0: 3cc0a234
/model.16/Split_output_0: 3ce7a06f
/model.16/Split_output_1: 3cc0a234
/model.16/m.0/spatial_mixing/Split_output_0: 3cc0a234
/model.16/m.0/spatial_mixing/Split_output_1: 3cea33ea
/model.16/m.0/spatial_mixing/partial_conv3/Conv_output_0: 3cf9d1ce
/model.16/m.0/spatial_mixing/Concat_output_0: 3cea33ea
/model.16/m.0/mlp/mlp.0/conv/Conv_output_0: 3d6aeb52
/model.16/m.0/mlp/mlp.0/act/Sigmoid_output_0: 3c003a09
/model.16/m.0/mlp/mlp.0/act/Mul_output_0: 3ce9d9d3
/model.16/m.1/spatial_mixing/Split_output_0: 3ce9d9d3
/model.16/m.1/spatial_mixing/Split_output_1: 3cd13637
/model.16/m.1/spatial_mixing/partial_conv3/Conv_output_0: 3cc2543e
/model.16/m.1/spatial_mixing/Concat_output_0: 3cd13637
/model.16/m.1/mlp/mlp.0/conv/Conv_output_0: 3d6a4da3
/model.16/m.1/mlp/mlp.0/act/Sigmoid_output_0: 3c0061bf
/model.16/m.1/mlp/mlp.0/act/Mul_output_0: 3d00b1de
/model.16/Concat_output_0: 3d00b1de
/model.16/cv2/conv/Conv_output_0: 3d4a70e5
/model.16/cv2/act/Sigmoid_output_0: 3c013a98
/model.16/cv2/act/Mul_output_0: 3cd3bf2e
/model.17/conv/Conv_output_0: 3d40b19f
/model.17/act/Sigmoid_output_0: 3c02c164
/model.17/act/Mul_output_0: 3cea1e7f
/Concat_2_output_0: 3ce5caf6
/model.18/avg_pool/GlobalAveragePool_output_0: 3c640c16
/model.18/Reshape_output_0: 3c640c16
(Unnamed Layer* 591) [Constant]_output: 3a11bb22
/model.18/fc/fc.0/MatMul_output_0: 3ce87c13
/model.18/fc/fc.1/Relu_output_0: 3ce614ec
(Unnamed Layer* 594) [Constant]_output: 3a462375
/model.18/fc/fc.2/MatMul_output_0: 3c3a11fa
/model.18/fc/fc.3/Sigmoid_output_0: 3bd731fa
/model.18/Reshape_1_output_0: 3bd731fa
/model.18/Mul_output_0: 3cac993c
/model.18/Slice_output_0: 3cad2033
/model.18/Slice_1_output_0: 3cb61255
/model.18/Concat_2_output_0: 3cac993c
/model.18/Add_output_0: 3d3842f4
/Slice_6_output_0: 3d4ba4f8
/Slice_7_output_0: 3d349b35
/model.19/cv1/conv/Conv_output_0: 3d4bd163
/model.19/cv1/act/Sigmoid_output_0: 3c00ab7c
/model.19/cv1/act/Mul_output_0: 3cc1cf3a
/model.19/Split_output_0: 3ce87498
/model.19/Split_output_1: 3cc10376
/model.19/m.0/cv1/conv/Conv_output_0: 3d6b459e
/model.19/m.0/cv1/act/Sigmoid_output_0: 3c00ac7f
/model.19/m.0/cv1/act/Mul_output_0: 3d02954a
/model.19/m.0/cv2/conv/Conv_output_0: 3d77e5b6
/model.19/m.0/cv2/act/Sigmoid_output_0: 3c00da8f
/model.19/m.0/cv2/act/Mul_output_0: 3d10ac4f
/model.19/m.0/Add_output_0: 3d7cd348
/model.19/Concat_output_0: 3d25d660
/model.19/cv2/conv/Conv_output_0: 3d4d797d
/model.19/cv2/act/Sigmoid_output_0: 3c009e34
/model.19/cv2/act/Mul_output_0: 3cd272c1
/model.20/cv1/conv/Conv_output_0: 3d58259e
/model.20/cv1/act/Sigmoid_output_0: 3c00de58
/model.20/cv1/act/Mul_output_0: 3d121431
/model.20/m/MaxPool_output_0: 3d121431
/model.20/m_1/MaxPool_output_0: 3d121431
/model.20/m_2/MaxPool_output_0: 3d121431
/model.20/Concat_output_0: 3d698ffd
/model.20/cv2/conv/Conv_output_0: 3d871869
/model.20/cv2/act/Sigmoid_output_0: 3c00b336
/model.20/cv2/act/Mul_output_0: 3ce68e45
/model.21/cv1/conv/Conv_output_0: 3d3ed18c
/model.21/cv1/act/Sigmoid_output_0: 3c00ddc4
/model.21/cv1/act/Mul_output_0: 3ce8c1c3
/model.21/Split_output_0: 3d00f0cd
/model.21/Split_output_1: 3ce8c1c3
/model.21/m.0/spatial_mixing/Split_output_0: 3ce8c1c3
/model.21/m.0/spatial_mixing/Split_output_1: 3cd256a2
/model.21/m.0/spatial_mixing/partial_conv3/Conv_output_0: 3d1830a4
/model.21/m.0/spatial_mixing/Concat_output_0: 3cd256a2
/model.21/m.0/mlp/mlp.0/conv/Conv_output_0: 3d40f4a1
/model.21/m.0/mlp/mlp.0/act/Sigmoid_output_0: 3c0077fc
/model.21/m.0/mlp/mlp.0/act/Mul_output_0: 3cd35493
/model.21/Concat_output_0: 3ce8c1c3
/model.21/cv2/conv/Conv_output_0: 3d3b69ba
/model.21/cv2/act/Sigmoid_output_0: 3c008b17
/model.21/cv2/act/Mul_output_0: 3cd2a5ab
/model.22/cv1/conv/Conv_output_0: 3d469859
/model.22/cv1/act/Sigmoid_output_0: 3c00b1ff
/model.22/cv1/act/Mul_output_0: 3d02a148
/model.22/m/MaxPool_output_0: 3d02a148
/model.22/m_1/MaxPool_output_0: 3d02a148
/model.22/m_2/MaxPool_output_0: 3d02a148
/model.22/Concat_output_0: 3d6a7a66
/model.22/cv2/conv/Conv_output_0: 3d5f0333
/model.22/cv2/act/Sigmoid_output_0: 3c009664
/model.22/cv2/act/Mul_output_0: 3ce9df0f
/model.23/Add_output_0: 3d80274d
/model.24/Add_output_0: 3d915908
/model.25/Add_output_0: 3d61f821
/model.26/Resize_output_0: 3d61f821
/model.27/Concat_output_0: 3d688289
/model.28/cv1/conv/Conv_output_0: 3d7a14fb
/model.28/cv1/act/Sigmoid_output_0: 3c00bd38
/model.28/cv1/act/Mul_output_0: 3ce844be
/model.28/Split_output_0: 3ce844be
/model.28/Split_output_1: 3ce7d5da
/model.28/m.0/cv1/conv/Conv_output_0: 3d70ca9c
/model.28/m.0/cv1/act/Sigmoid_output_0: 3c00e9a2
/model.28/m.0/cv1/act/Mul_output_0: 3d00ef7e
/model.28/m.0/cv2/conv/Conv_output_0: 3d7edb70
/model.28/m.0/cv2/act/Sigmoid_output_0: 3c00ed82
/model.28/m.0/cv2/act/Mul_output_0: 3d000b4e
/model.28/Concat_output_0: 3cd16cb1
/model.28/cv2/conv/Conv_output_0: 3d6a6c91
/model.28/cv2/act/Sigmoid_output_0: 3c00cf93
/model.28/cv2/act/Mul_output_0: 3d125f64
/model.29/Resize_output_0: 3d125f64
/model.30/Concat_output_0: 3d00103f
/model.31/cv1/conv/Conv_output_0: 3d463dfd
/model.31/cv1/act/Sigmoid_output_0: 3c007b9e
/model.31/cv1/act/Mul_output_0: 3ce68e67
/model.31/Split_output_0: 3ce68e67
/model.31/Split_output_1: 3cd395ff
/model.31/m.0/cv1/conv/Conv_output_0: 3d4597c5
/model.31/m.0/cv1/act/Sigmoid_output_0: 3c002a78
/model.31/m.0/cv1/act/Mul_output_0: 3cc2104c
/model.31/m.0/cv2/conv/Conv_output_0: 3d888228
/model.31/m.0/cv2/act/Sigmoid_output_0: 3c00e506
/model.31/m.0/cv2/act/Mul_output_0: 3d431ccf
/model.31/Concat_output_0: 3d126d55
/model.31/cv2/conv/Conv_output_0: 3daabb9a
/model.31/cv2/act/Sigmoid_output_0: 3c0106cd
/model.31/cv2/act/Mul_output_0: 3ce74cd3
/model.32/conv/Conv_output_0: 3d9ca916
/model.32/act/Sigmoid_output_0: 3c031604
/model.32/act/Mul_output_0: 3d6cc70f
/model.33/Concat_output_0: 3d29836f
/model.34/cv1/conv/Conv_output_0: 3d818f1b
/model.34/cv1/act/Sigmoid_output_0: 3c00f145
/model.34/cv1/act/Mul_output_0: 3d290811
/model.34/Split_output_0: 3d010af5
/model.34/Split_output_1: 3d28ecf1
/model.34/m.0/cv1/conv/Conv_output_0: 3d82b718
/model.34/m.0/cv1/act/Sigmoid_output_0: 3c010c11
/model.34/m.0/cv1/act/Mul_output_0: 3d02a04a
/model.34/m.0/cv2/conv/Conv_output_0: 3d89585b
/model.34/m.0/cv2/act/Sigmoid_output_0: 3c010f63
/model.34/m.0/cv2/act/Mul_output_0: 3d12dfb2
/model.34/Concat_output_0: 3d290811
/model.34/cv2/conv/Conv_output_0: 3d8600bf
/model.34/cv2/act/Sigmoid_output_0: 3c00f155
/model.34/cv2/act/Mul_output_0: 3cffb799
/model.35/conv/Conv_output_0: 3d35d013
/model.35/act/Sigmoid_output_0: 3c009f07
/model.35/act/Mul_output_0: 3ceb20d8
/model.36/Concat_output_0: 3d25b5f7
/model.37/cv1/conv/Conv_output_0: 3d10974b
/model.37/cv1/act/Sigmoid_output_0: 3c001834
/model.37/cv1/act/Mul_output_0: 3cc21855
/model.37/Split_output_0: 3cb162a7
/model.37/Split_output_1: 3cc21855
/model.37/m.0/cv1/conv/Conv_output_0: 3d0d039d
/model.37/m.0/cv1/act/Sigmoid_output_0: 3bfef956
/model.37/m.0/cv1/act/Mul_output_0: 3cb2f5cc
/model.37/m.0/cv2/conv/Conv_output_0: 3cfdbd85
/model.37/m.0/cv2/act/Sigmoid_output_0: 3bfcae99
/model.37/m.0/cv2/act/Mul_output_0: 3ca49033
/model.37/Concat_output_0: 3cc21855
/model.37/cv2/conv/Conv_output_0: 3cf46e14
/model.37/cv2/act/Sigmoid_output_0: 3c009e84
/model.37/cv2/act/Mul_output_0: 3c9ad2bc
/model.38/cv2.0/cv2.0.0/conv/Conv_output_0: 3d8abd04
/model.38/cv2.0/cv2.0.0/act/Sigmoid_output_0: 3c006a02
/model.38/cv2.0/cv2.0.0/act/Mul_output_0: 3d0188e6
/model.38/cv2.0/cv2.0.1/conv/Conv_output_0: 3da87021
/model.38/cv2.0/cv2.0.1/act/Sigmoid_output_0: 3c01121c
/model.38/cv2.0/cv2.0.1/act/Mul_output_0: 3d4354cf
/model.38/cv2.0/cv2.0.2/Conv_output_0: 3e037955
/model.38/cv3.0/cv3.0.0/conv/Conv_output_0: 3dc0fc6a
/model.38/cv3.0/cv3.0.0/act/Sigmoid_output_0: 3c0111e8
/model.38/cv3.0/cv3.0.0/act/Mul_output_0: 3cb808dd
/model.38/cv3.0/cv3.0.1/conv/Conv_output_0: 3e3d4d89
/model.38/cv3.0/cv3.0.1/act/Sigmoid_output_0: 3c010a14
/model.38/cv3.0/cv3.0.1/act/Mul_output_0: 3dce54fa
/model.38/cv3.0/cv3.0.2/Conv_output_0: 3f12ef04
/model.38/Concat_output_0: 3e9ba958
/model.38/cv2.1/cv2.1.0/conv/Conv_output_0: 3d7b6ec2
/model.38/cv2.1/cv2.1.0/act/Sigmoid_output_0: 3c00ebfe
/model.38/cv2.1/cv2.1.0/act/Mul_output_0: 3d28d06c
/model.38/cv2.1/cv2.1.1/conv/Conv_output_0: 3dc101ba
/model.38/cv2.1/cv2.1.1/act/Sigmoid_output_0: 3c031620
/model.38/cv2.1/cv2.1.1/act/Mul_output_0: 3d6ee65d
/model.38/cv2.1/cv2.1.2/Conv_output_0: 3dcde937
/model.38/cv3.1/cv3.1.0/conv/Conv_output_0: 3da4845a
/model.38/cv3.1/cv3.1.0/act/Sigmoid_output_0: 3c00f948
/model.38/cv3.1/cv3.1.0/act/Mul_output_0: 3d000b0c
/model.38/cv3.1/cv3.1.1/conv/Conv_output_0: 3de2567f
/model.38/cv3.1/cv3.1.1/act/Sigmoid_output_0: 3c021427
/model.38/cv3.1/cv3.1.1/act/Mul_output_0: 3d248a16
/model.38/cv3.1/cv3.1.2/Conv_output_0: 3e96d1ae
/model.38/Concat_1_output_0: 3e5e6499
/model.38/cv2.2/cv2.2.0/conv/Conv_output_0: 3d1320d9
/model.38/cv2.2/cv2.2.0/act/Sigmoid_output_0: 3c013a8b
/model.38/cv2.2/cv2.2.0/act/Mul_output_0: 3cb0aafc
/model.38/cv2.2/cv2.2.1/conv/Conv_output_0: 3d4e500f
/model.38/cv2.2/cv2.2.1/act/Sigmoid_output_0: 3c01fbcd
/model.38/cv2.2/cv2.2.1/act/Mul_output_0: 3cf3134a
/model.38/cv2.2/cv2.2.2/Conv_output_0: 3c2b69e5
/model.38/cv3.2/cv3.2.0/conv/Conv_output_0: 3cf31e36
/model.38/cv3.2/cv3.2.0/act/Sigmoid_output_0: 3c00d2e4
/model.38/cv3.2/cv3.2.0/act/Mul_output_0: 3c6a5f38
/model.38/cv3.2/cv3.2.1/conv/Conv_output_0: 3cab3772
/model.38/cv3.2/cv3.2.1/act/Sigmoid_output_0: 3beea8f0
/model.38/cv3.2/cv3.2.1/act/Mul_output_0: 3c9fdaf3
/model.38/cv3.2/cv3.2.2/Conv_output_0: 3dc69005
/model.38/Concat_2_output_0: 3dc3a12d
/model.38/Reshape_output_0: 3e9ba958
/model.38/Reshape_1_output_0: 3e5e6499
/model.38/Reshape_2_output_0: 3dc3a12d
/model.38/Concat_6_output_0: 3e936230
(Unnamed Layer* 967) [Constant]_output: 3e810a14
/model.38/Split_output_0: 3d810a14
/model.38/Split_output_1: 3e010a14
/model.38/Split_output_2: 3e810a14
/model.38/Range_output_0: 3f1f4871
(Unnamed Layer* 991) [Shuffle]_output: 3c010a14
(Unnamed Layer* 993) [Shuffle]_output: 3b810a14
/model.38/Add_output_0: 3f204a85
/model.38/Range_1_output_0: 3f1f4871
(Unnamed Layer* 1006) [Shuffle]_output: 3c010a14
(Unnamed Layer* 1008) [Shuffle]_output: 3b810a14
/model.38/Add_1_output_0: 3f204a85
/model.38/Reshape_5_output_0: 3f204a85
/model.38/Expand_output_0: 3f204a85
/model.38/Reshape_6_output_0: 3f204a85
/model.38/Expand_1_output_0: 3f204a85
/model.38/Unsqueeze_3_output_0: 3f204a85
/model.38/Unsqueeze_4_output_0: 3f204a85
/model.38/Concat_10_output_0: 3f204a85
/model.38/Reshape_7_output_0: 3f204a85
(Unnamed Layer* 1059) [Constant]_output: 0
(Unnamed Layer* 1060) [Shuffle]_output: 0
/model.38/ConstantOfShape_output_0: 0
(Unnamed Layer* 1063) [Shuffle]_output: 3d810a14
/model.38/Add_2_output_0: 3d810a14
/model.38/Range_2_output_0: 3e9d4449
(Unnamed Layer* 1082) [Shuffle]_output: 3c010a14
(Unnamed Layer* 1084) [Shuffle]_output: 3b810a14
/model.38/Add_3_output_0: 3e9f4871
/model.38/Range_3_output_0: 3e9d4449
(Unnamed Layer* 1097) [Shuffle]_output: 3c010a14
(Unnamed Layer* 1099) [Shuffle]_output: 3b810a14
/model.38/Add_4_output_0: 3e9f4871
/model.38/Reshape_10_output_0: 3e9f4871
/model.38/Expand_2_output_0: 3e9f4871
/model.38/Reshape_11_output_0: 3e9f4871
/model.38/Expand_3_output_0: 3e9f4871
/model.38/Unsqueeze_6_output_0: 3e9f4871
/model.38/Unsqueeze_7_output_0: 3e9f4871
/model.38/Concat_15_output_0: 3e9f4871
/model.38/Reshape_12_output_0: 3e9f4871
(Unnamed Layer* 1150) [Constant]_output: 0
(Unnamed Layer* 1151) [Shuffle]_output: 0
/model.38/ConstantOfShape_1_output_0: 0
(Unnamed Layer* 1154) [Shuffle]_output: 3e010a14
/model.38/Add_5_output_0: 3e010a14
/model.38/Range_4_output_0: 3e193bf8
(Unnamed Layer* 1173) [Shuffle]_output: 3c010a14
(Unnamed Layer* 1175) [Shuffle]_output: 3b810a14
/model.38/Add_6_output_0: 3e1d4449
/model.38/Range_5_output_0: 3e193bf8
(Unnamed Layer* 1188) [Shuffle]_output: 3c010a14
(Unnamed Layer* 1190) [Shuffle]_output: 3b810a14
/model.38/Add_7_output_0: 3e1d4449
/model.38/Reshape_15_output_0: 3e1d4449
/model.38/Expand_4_output_0: 3e1d4449
/model.38/Reshape_16_output_0: 3e1d4449
/model.38/Expand_5_output_0: 3e1d4449
/model.38/Unsqueeze_9_output_0: 3e1d4449
/model.38/Unsqueeze_10_output_0: 3e1d4449
/model.38/Concat_20_output_0: 3e1d4449
/model.38/Reshape_17_output_0: 3e1d4449
(Unnamed Layer* 1241) [Constant]_output: 0
(Unnamed Layer* 1242) [Shuffle]_output: 0
/model.38/ConstantOfShape_2_output_0: 0
(Unnamed Layer* 1245) [Shuffle]_output: 3e810a14
/model.38/Add_8_output_0: 3e810a14
/model.38/Concat_22_output_0: 3f204a85
/model.38/Concat_23_output_0: 3e810a14
/model.38/Transpose_output_0: 3f204a85
/model.38/Transpose_1_output_0: 3e810a14
/model.38/Split_1_output_0: 3def2500
/model.38/Split_1_output_1: 3ed82065
/model.38/dfl/Reshape_output_0: 3def2500
/model.38/dfl/Transpose_output_0: 3def2500
(Unnamed Layer* 1274) [Softmax]_output: 3bd80d3d
/model.38/dfl/conv/Conv_output_0: 3d9ee6f5
/model.38/dfl/Reshape_1_output_0: 3d9ee6f5
/model.38/Unsqueeze_12_output_0: 3f204a85
/model.38/Slice_output_0: 3da01bf7
/model.38/Slice_1_output_0: 3d74f148
/model.38/Sub_output_0: 3f1fe1c2
/model.38/Add_10_output_0: 3f2199b9
/model.38/Add_11_output_0: 3fa0b161
(Unnamed Layer* 1357) [Shuffle]_output: 3c810a14
/model.38/Div_1_output_0: 3f20b161
/model.38/Sub_1_output_0: 3df47c2e
/model.38/Concat_24_output_0: 3f2333d6
(Unnamed Layer* 1364) [Shuffle]_output: 3e810a14
/model.38/Mul_5_output_0: 40a5de72
/model.38/Sigmoid_output_0: 3be47c27
output0: 40a5de72
