TRT-8503-EntropyCalibration2
images: 3bf80000
/Slice_output_0: 3bf80000
/Slice_1_output_0: 3bf80000
/model.0/conv/Conv_output_0: 3e02be48
/model.0/act/Sigmoid_output_0: 3c010a14
/model.0/act/Mul_output_0: 3dc21917
/model.1/conv/Conv_output_0: 3dc3796f
/model.1/act/Sigmoid_output_0: 3c019325
/model.1/act/Mul_output_0: 3cec6035
/model.2/cv1/conv/Conv_output_0: 3d45deed
/model.2/cv1/act/Sigmoid_output_0: 3c02b55d
/model.2/cv1/act/Mul_output_0: 3d107b05
/model.2/Split_output_0: 3d1293d7
/model.2/Split_output_1: 3c6b9828
/model.2/m.0/cv1/conv/Conv_output_0: 3d097ef2
/model.2/m.0/cv1/act/Sigmoid_output_0: 3c0376c8
/model.2/m.0/cv1/act/Mul_output_0: 3c74598f
/model.2/m.0/cv2/conv/Conv_output_0: 3d646165
/model.2/m.0/cv2/act/Sigmoid_output_0: 3c010a14
/model.2/m.0/cv2/act/Mul_output_0: 3d71e2de
/model.2/m.0/Add_output_0: 3d76892a
/model.2/Concat_output_0: 3d3f25e6
/model.2/cv2/conv/Conv_output_0: 3d2e5bd6
/model.2/cv2/act/Sigmoid_output_0: 3bff9bab
/model.2/cv2/act/Mul_output_0: 3d133169
/model.3/conv/Conv_output_0: 3d0220e9
/model.3/act/Sigmoid_output_0: 3c0067ae
/model.3/act/Mul_output_0: 3cc08099
/model.4/conv/Conv_output_0: 3ddcba19
/model.4/act/Sigmoid_output_0: 3c010a14
/model.4/act/Mul_output_0: 3d69230f
/model.5/conv/Conv_output_0: 3d838ec3
/model.5/act/Sigmoid_output_0: 3c010a14
/model.5/act/Mul_output_0: 3d2a6ce8
/model.6/cv1/conv/Conv_output_0: 3d8b8b0b
/model.6/cv1/act/Sigmoid_output_0: 3c010a14
/model.6/cv1/act/Mul_output_0: 3d40c65c
/model.6/Split_output_0: 3d39dc8d
/model.6/Split_output_1: 3d247163
/model.6/m.0/spatial_mixing/Split_output_0: 3d414daa
/model.6/m.0/spatial_mixing/Split_output_1: 3d14e893
/model.6/m.0/spatial_mixing/partial_conv3/Conv_output_0: 3d086914
/model.6/m.0/spatial_mixing/Concat_output_0: 3d278cbf
/model.6/m.0/mlp/mlp.0/conv/Conv_output_0: 3da0ad7f
/model.6/m.0/mlp/mlp.0/act/Sigmoid_output_0: 3c003039
/model.6/m.0/mlp/mlp.0/act/Mul_output_0: 3cff3dc7
/model.6/Concat_output_0: 3d40c65c
/model.6/cv2/conv/Conv_output_0: 3d900ee2
/model.6/cv2/act/Sigmoid_output_0: 3c070e8d
/model.6/cv2/act/Mul_output_0: 3d0204f8
/model.7/conv/Conv_output_0: 3d2937e7
/model.7/act/Sigmoid_output_0: 3c033412
/model.7/act/Mul_output_0: 3d214881
/Concat_output_0: 3d0f8372
/model.8/avg_pool/GlobalAveragePool_output_0: 3cee54f4
/model.8/Reshape_output_0: 3cee54f4
(Unnamed Layer* 147) [Constant]_output: 3b807a16
/model.8/fc/fc.0/MatMul_output_0: 3ce6f87f
/model.8/fc/fc.1/Relu_output_0: 3d0f170b
(Unnamed Layer* 150) [Constant]_output: 3b3beb0e
/model.8/fc/fc.2/MatMul_output_0: 3c6ad17d
/model.8/fc/fc.3/Sigmoid_output_0: 3be1b9e0
/model.8/Reshape_1_output_0: 3be1b9e0
/model.8/Mul_output_0: 3cfeee21
/model.8/Slice_output_0: 3d2e8099
/model.8/Slice_1_output_0: 3c9d1978
/model.8/Concat_2_output_0: 3cfeee21
/model.8/Add_output_0: 3d7ccfde
/Slice_2_output_0: 3d56fde5
/Slice_3_output_0: 3d2e94af
/model.9/cv1/conv/Conv_output_0: 3d5ec591
/model.9/cv1/act/Sigmoid_output_0: 3c06dc0c
/model.9/cv1/act/Mul_output_0: 3ce84bef
/model.9/Split_output_0: 3d113976
/model.9/Split_output_1: 3d01be93
/model.9/m.0/cv1/conv/Conv_output_0: 3d75d729
/model.9/m.0/cv1/act/Sigmoid_output_0: 3c02de13
/model.9/m.0/cv1/act/Mul_output_0: 3cd45f23
/model.9/m.0/cv2/conv/Conv_output_0: 3d51febd
/model.9/m.0/cv2/act/Sigmoid_output_0: 3c00cb10
/model.9/m.0/cv2/act/Mul_output_0: 3d26b634
/model.9/m.0/Add_output_0: 3d6434a5
/model.9/m.1/cv1/conv/Conv_output_0: 3d7c34e3
/model.9/m.1/cv1/act/Sigmoid_output_0: 3c00d00d
/model.9/m.1/cv1/act/Mul_output_0: 3ce8a054
/model.9/m.1/cv2/conv/Conv_output_0: 3dadbbde
/model.9/m.1/cv2/act/Sigmoid_output_0: 3c075ea6
/model.9/m.1/cv2/act/Mul_output_0: 3d6e3012
/model.9/m.1/Add_output_0: 3db4470d
/model.9/Concat_output_0: 3d6ce16d
/model.9/cv2/conv/Conv_output_0: 3d82edf8
/model.9/cv2/act/Sigmoid_output_0: 3c0213e9
/model.9/cv2/act/Mul_output_0: 3d2830d4
/model.10/conv/Conv_output_0: 3d86e105
/model.10/act/Sigmoid_output_0: 3c00d884
/model.10/act/Mul_output_0: 3d108c5d
/model.11/cv1/conv/Conv_output_0: 3d8627ce
/model.11/cv1/act/Sigmoid_output_0: 3bffbd12
/model.11/cv1/act/Mul_output_0: 3d0fc883
/model.11/Split_output_0: 3d02351e
/model.11/Split_output_1: 3d0fc883
/model.11/m.0/spatial_mixing/Split_output_0: 3cff6b27
/model.11/m.0/spatial_mixing/Split_output_1: 3d0fc883
/model.11/m.0/spatial_mixing/partial_conv3/Conv_output_0: 3cdf758d
/model.11/m.0/spatial_mixing/Concat_output_0: 3d0fc883
/model.11/m.0/mlp/mlp.0/conv/Conv_output_0: 3d2fde65
/model.11/m.0/mlp/mlp.0/act/Sigmoid_output_0: 3c00a924
/model.11/m.0/mlp/mlp.0/act/Mul_output_0: 3cd30289
/model.11/m.1/spatial_mixing/Split_output_0: 3cd1bebf
/model.11/m.1/spatial_mixing/Split_output_1: 3d006358
/model.11/m.1/spatial_mixing/partial_conv3/Conv_output_0: 3cc21d1c
/model.11/m.1/spatial_mixing/Concat_output_0: 3d0033f3
/model.11/m.1/mlp/mlp.0/conv/Conv_output_0: 3d65f489
/model.11/m.1/mlp/mlp.0/act/Sigmoid_output_0: 3c0203f1
/model.11/m.1/mlp/mlp.0/act/Mul_output_0: 3ce99cb2
/model.11/Concat_output_0: 3d1218fc
/model.11/cv2/conv/Conv_output_0: 3d0d1814
/model.11/cv2/act/Sigmoid_output_0: 3c006bb6
/model.11/cv2/act/Mul_output_0: 3d10d292
/model.12/conv/Conv_output_0: 3d433676
/model.12/act/Sigmoid_output_0: 3bffea01
/model.12/act/Mul_output_0: 3ce86a9d
/Concat_1_output_0: 3ce70d31
/model.13/avg_pool/GlobalAveragePool_output_0: 3c736a0e
/model.13/Reshape_output_0: 3c736a0e
(Unnamed Layer* 369) [Constant]_output: 3a9fc97b
/model.13/fc/fc.0/MatMul_output_0: 3c852e15
/model.13/fc/fc.1/Relu_output_0: 3c94a642
(Unnamed Layer* 372) [Constant]_output: 3aa688a5
/model.13/fc/fc.2/MatMul_output_0: 3c0b94fa
/model.13/fc/fc.3/Sigmoid_output_0: 3bd0b417
/model.13/Reshape_1_output_0: 3bd0b417
/model.13/Mul_output_0: 3caaa182
/model.13/Slice_output_0: 3c6edc72
/model.13/Slice_1_output_0: 3caaa182
/model.13/Concat_2_output_0: 3caaa182
/model.13/Add_output_0: 3d3c8fe3
/Slice_4_output_0: 3d54ff10
/Slice_5_output_0: 3d3e8b38
/model.14/cv1/conv/Conv_output_0: 3d7be944
/model.14/cv1/act/Sigmoid_output_0: 3c00f1cf
/model.14/cv1/act/Mul_output_0: 3d29e711
/model.14/Split_output_0: 3d472217
/model.14/Split_output_1: 3cd33999
/model.14/m.0/cv1/conv/Conv_output_0: 3d886b4a
/model.14/m.0/cv1/act/Sigmoid_output_0: 3c00e98c
/model.14/m.0/cv1/act/Mul_output_0: 3d01d0ce
/model.14/m.0/cv2/conv/Conv_output_0: 3d8405a4
/model.14/m.0/cv2/act/Sigmoid_output_0: 3c00ec8a
/model.14/m.0/cv2/act/Mul_output_0: 3d00ecee
/model.14/m.0/Add_output_0: 3d6626ff
/model.14/m.1/cv1/conv/Conv_output_0: 3d8d190b
/model.14/m.1/cv1/act/Sigmoid_output_0: 3c00cf3c
/model.14/m.1/cv1/act/Mul_output_0: 3cd2cfd9
/model.14/m.1/cv2/conv/Conv_output_0: 3d96c2f3
/model.14/m.1/cv2/act/Sigmoid_output_0: 3c00f15a
/model.14/m.1/cv2/act/Mul_output_0: 3d00479c
/model.14/m.1/Add_output_0: 3d8f544a
/model.14/Concat_output_0: 3d472217
/model.14/cv2/conv/Conv_output_0: 3d8c4780
/model.14/cv2/act/Sigmoid_output_0: 3c00f1d0
/model.14/cv2/act/Mul_output_0: 3cfa9b78
/model.15/conv/Conv_output_0: 3d616ded
/model.15/act/Sigmoid_output_0: 3c00e3cd
/model.15/act/Mul_output_0: 3ce75151
/model.16/cv1/conv/Conv_output_0: 3d481c34
/model.16/cv1/act/Sigmoid_output_0: 3c005320
/model.16/cv1/act/Mul_output_0: 3cd28f50
/model.16/Split_output_0: 3cd28f50
/model.16/Split_output_1: 3ce7c3a3
/model.16/m.0/spatial_mixing/Split_output_0: 3ce7c3a3
/model.16/m.0/spatial_mixing/Split_output_1: 3ce7fffa
/model.16/m.0/spatial_mixing/partial_conv3/Conv_output_0: 3cfa15bd
/model.16/m.0/spatial_mixing/Concat_output_0: 3ce7fffa
/model.16/m.0/mlp/mlp.0/conv/Conv_output_0: 3d41c398
/model.16/m.0/mlp/mlp.0/act/Sigmoid_output_0: 3c004b5f
/model.16/m.0/mlp/mlp.0/act/Mul_output_0: 3cc201ab
/model.16/m.1/spatial_mixing/Split_output_0: 3ce84e0f
/model.16/m.1/spatial_mixing/Split_output_1: 3cc1a437
/model.16/m.1/spatial_mixing/partial_conv3/Conv_output_0: 3ccf8f86
/model.16/m.1/spatial_mixing/Concat_output_0: 3cc1a437
/model.16/m.1/mlp/mlp.0/conv/Conv_output_0: 3d6a3eeb
/model.16/m.1/mlp/mlp.0/act/Sigmoid_output_0: 3c0079d5
/model.16/m.1/mlp/mlp.0/act/Mul_output_0: 3d01c3f3
/model.16/Concat_output_0: 3d01c3f3
/model.16/cv2/conv/Conv_output_0: 3d4aaa6a
/model.16/cv2/act/Sigmoid_output_0: 3c0024af
/model.16/cv2/act/Mul_output_0: 3cb138f0
/model.17/conv/Conv_output_0: 3d423fe2
/model.17/act/Sigmoid_output_0: 3c00b6e5
/model.17/act/Mul_output_0: 3cea119c
/Concat_2_output_0: 3ce75151
/model.18/avg_pool/GlobalAveragePool_output_0: 3c852ed0
/model.18/Reshape_output_0: 3c852ed0
(Unnamed Layer* 591) [Constant]_output: 3a11bb22
/model.18/fc/fc.0/MatMul_output_0: 3cf720e7
/model.18/fc/fc.1/Relu_output_0: 3d1847bd
(Unnamed Layer* 594) [Constant]_output: 3a462375
/model.18/fc/fc.2/MatMul_output_0: 3c3f61c8
/model.18/fc/fc.3/Sigmoid_output_0: 3be2a7cb
/model.18/Reshape_1_output_0: 3be2a7cb
/model.18/Mul_output_0: 3cabfc68
/model.18/Slice_output_0: 3c9a52d0
/model.18/Slice_1_output_0: 3cb56ce5
/model.18/Concat_2_output_0: 3cabfc68
/model.18/Add_output_0: 3d375383
/Slice_6_output_0: 3d34a832
/Slice_7_output_0: 3d367a50
/model.19/cv1/conv/Conv_output_0: 3d4901ea
/model.19/cv1/act/Sigmoid_output_0: 3c0055a8
/model.19/cv1/act/Mul_output_0: 3cc12172
/model.19/Split_output_0: 3ce6582f
/model.19/Split_output_1: 3cc0ceb2
/model.19/m.0/cv1/conv/Conv_output_0: 3d7b22dd
/model.19/m.0/cv1/act/Sigmoid_output_0: 3c00a481
/model.19/m.0/cv1/act/Mul_output_0: 3d01ed78
/model.19/m.0/cv2/conv/Conv_output_0: 3d805f35
/model.19/m.0/cv2/act/Sigmoid_output_0: 3c00ed3a
/model.19/m.0/cv2/act/Mul_output_0: 3cff7ead
/model.19/m.0/Add_output_0: 3d8ed71d
/model.19/Concat_output_0: 3d11e5b5
/model.19/cv2/conv/Conv_output_0: 3d50ecf3
/model.19/cv2/act/Sigmoid_output_0: 3c00b488
/model.19/cv2/act/Mul_output_0: 3ce8987e
/model.20/cv1/conv/Conv_output_0: 3d5176ce
/model.20/cv1/act/Sigmoid_output_0: 3c00bb00
/model.20/cv1/act/Mul_output_0: 3d01dbe5
/model.20/m/MaxPool_output_0: 3d01dbe5
/model.20/m_1/MaxPool_output_0: 3d01dbe5
/model.20/m_2/MaxPool_output_0: 3d01dbe5
/model.20/Concat_output_0: 3d69e531
/model.20/cv2/conv/Conv_output_0: 3d7675f6
/model.20/cv2/act/Sigmoid_output_0: 3c00add5
/model.20/cv2/act/Mul_output_0: 3ce9eed6
/model.21/cv1/conv/Conv_output_0: 3d422d75
/model.21/cv1/act/Sigmoid_output_0: 3c00b45b
/model.21/cv1/act/Mul_output_0: 3cd323b6
/model.21/Split_output_0: 3ce9e31c
/model.21/Split_output_1: 3cd323b6
/model.21/m.0/spatial_mixing/Split_output_0: 3d010150
/model.21/m.0/spatial_mixing/Split_output_1: 3cbfe777
/model.21/m.0/spatial_mixing/partial_conv3/Conv_output_0: 3d13d1bc
/model.21/m.0/spatial_mixing/Concat_output_0: 3cbfe777
/model.21/m.0/mlp/mlp.0/conv/Conv_output_0: 3d47f70a
/model.21/m.0/mlp/mlp.0/act/Sigmoid_output_0: 3c0070c5
/model.21/m.0/mlp/mlp.0/act/Mul_output_0: 3d023434
/model.21/Concat_output_0: 3cd323b6
/model.21/cv2/conv/Conv_output_0: 3d437177
/model.21/cv2/act/Sigmoid_output_0: 3c005904
/model.21/cv2/act/Mul_output_0: 3ce94ed0
/model.22/cv1/conv/Conv_output_0: 3d46e21e
/model.22/cv1/act/Sigmoid_output_0: 3c009ca3
/model.22/cv1/act/Mul_output_0: 3d005094
/model.22/m/MaxPool_output_0: 3d005094
/model.22/m_1/MaxPool_output_0: 3d005094
/model.22/m_2/MaxPool_output_0: 3d005094
/model.22/Concat_output_0: 3d63b658
/model.22/cv2/conv/Conv_output_0: 3d5a0574
/model.22/cv2/act/Sigmoid_output_0: 3c008392
/model.22/cv2/act/Mul_output_0: 3ce96418
/model.23/Add_output_0: 3d800330
/model.24/Add_output_0: 3d8b7295
/model.25/Add_output_0: 3d643f81
/model.26/Resize_output_0: 3d643f81
/model.27/Concat_output_0: 3d8b7295
/model.28/cv1/conv/Conv_output_0: 3d7989fb
/model.28/cv1/act/Sigmoid_output_0: 3c00ad22
/model.28/cv1/act/Mul_output_0: 3cd227cf
/model.28/Split_output_0: 3cd227cf
/model.28/Split_output_1: 3ce70d39
/model.28/m.0/cv1/conv/Conv_output_0: 3d766cf1
/model.28/m.0/cv1/act/Sigmoid_output_0: 3c00e912
/model.28/m.0/cv1/act/Mul_output_0: 3d00f263
/model.28/m.0/cv2/conv/Conv_output_0: 3d82323c
/model.28/m.0/cv2/act/Sigmoid_output_0: 3c00eed0
/model.28/m.0/cv2/act/Mul_output_0: 3d112b35
/model.28/Concat_output_0: 3d112b35
/model.28/cv2/conv/Conv_output_0: 3d725ef0
/model.28/cv2/act/Sigmoid_output_0: 3c00eb5d
/model.28/cv2/act/Mul_output_0: 3d01d216
/model.29/Resize_output_0: 3d01d216
/model.30/Concat_output_0: 3d28e61f
/model.31/cv1/conv/Conv_output_0: 3d4dc3c4
/model.31/cv1/act/Sigmoid_output_0: 3c0073ed
/model.31/cv1/act/Mul_output_0: 3cd32872
/model.31/Split_output_0: 3d010434
/model.31/Split_output_1: 3d01e028
/model.31/m.0/cv1/conv/Conv_output_0: 3d4c8ab1
/model.31/m.0/cv1/act/Sigmoid_output_0: 3c00129a
/model.31/m.0/cv1/act/Mul_output_0: 3cd3271e
/model.31/m.0/cv2/conv/Conv_output_0: 3d8b7e72
/model.31/m.0/cv2/act/Sigmoid_output_0: 3c00ec1a
/model.31/m.0/cv2/act/Mul_output_0: 3d2441b8
/model.31/Concat_output_0: 3cff9228
/model.31/cv2/conv/Conv_output_0: 3dad38d0
/model.31/cv2/act/Sigmoid_output_0: 3c010a09
/model.31/cv2/act/Mul_output_0: 3d024745
/model.32/conv/Conv_output_0: 3d9decae
/model.32/act/Sigmoid_output_0: 3c031612
/model.32/act/Mul_output_0: 3d43b103
/model.33/Concat_output_0: 3d130498
/model.34/cv1/conv/Conv_output_0: 3d7e4b9a
/model.34/cv1/act/Sigmoid_output_0: 3c010dc7
/model.34/cv1/act/Mul_output_0: 3cd18fd1
/model.34/Split_output_0: 3cd179bd
/model.34/Split_output_1: 3cd18fd1
/model.34/m.0/cv1/conv/Conv_output_0: 3d875f6d
/model.34/m.0/cv1/act/Sigmoid_output_0: 3c01109a
/model.34/m.0/cv1/act/Mul_output_0: 3ce97e4d
/model.34/m.0/cv2/conv/Conv_output_0: 3d83f96b
/model.34/m.0/cv2/act/Sigmoid_output_0: 3c010ffa
/model.34/m.0/cv2/act/Mul_output_0: 3d11af6a
/model.34/Concat_output_0: 3d11af6a
/model.34/cv2/conv/Conv_output_0: 3d852354
/model.34/cv2/act/Sigmoid_output_0: 3c00ef76
/model.34/cv2/act/Mul_output_0: 3d0ffdc1
/model.35/conv/Conv_output_0: 3d3199be
/model.35/act/Sigmoid_output_0: 3c01ca22
/model.35/act/Mul_output_0: 3cb1aa65
/model.36/Concat_output_0: 3d24cbff
/model.37/cv1/conv/Conv_output_0: 3d0b10ce
/model.37/cv1/act/Sigmoid_output_0: 3bfeca86
/model.37/cv1/act/Mul_output_0: 3cb25c3d
/model.37/Split_output_0: 3cb2b445
/model.37/Split_output_1: 3cb25c3d
/model.37/m.0/cv1/conv/Conv_output_0: 3d0a4aa5
/model.37/m.0/cv1/act/Sigmoid_output_0: 3bfffe3f
/model.37/m.0/cv1/act/Mul_output_0: 3ca5683e
/model.37/m.0/cv2/conv/Conv_output_0: 3d02241a
/model.37/m.0/cv2/act/Sigmoid_output_0: 3bfc82dd
/model.37/m.0/cv2/act/Mul_output_0: 3c9099ce
/model.37/Concat_output_0: 3cb25c3d
/model.37/cv2/conv/Conv_output_0: 3ce795a3
/model.37/cv2/act/Sigmoid_output_0: 3bfcc83c
/model.37/cv2/act/Mul_output_0: 3c90a982
/model.38/cv2.0/cv2.0.0/conv/Conv_output_0: 3d9367c6
/model.38/cv2.0/cv2.0.0/act/Sigmoid_output_0: 3c006b8a
/model.38/cv2.0/cv2.0.0/act/Mul_output_0: 3d024f3c
/model.38/cv2.0/cv2.0.1/conv/Conv_output_0: 3da88fcc
/model.38/cv2.0/cv2.0.1/act/Sigmoid_output_0: 3c01121c
/model.38/cv2.0/cv2.0.1/act/Mul_output_0: 3d43ba4f
/model.38/cv2.0/cv2.0.2/Conv_output_0: 3e06e3c8
/model.38/cv3.0/cv3.0.0/conv/Conv_output_0: 3dc25674
/model.38/cv3.0/cv3.0.0/act/Sigmoid_output_0: 3c0111fe
/model.38/cv3.0/cv3.0.0/act/Mul_output_0: 3d29dfe6
/model.38/cv3.0/cv3.0.1/conv/Conv_output_0: 3e6358f9
/model.38/cv3.0/cv3.0.1/act/Sigmoid_output_0: 3c010a14
/model.38/cv3.0/cv3.0.1/act/Mul_output_0: 3dd284f7
/model.38/cv3.0/cv3.0.2/Conv_output_0: 3f13541d
/model.38/Concat_output_0: 3e9be392
/model.38/cv2.1/cv2.1.0/conv/Conv_output_0: 3d80b721
/model.38/cv2.1/cv2.1.0/act/Sigmoid_output_0: 3c00ea5b
/model.38/cv2.1/cv2.1.0/act/Mul_output_0: 3d24246d
/model.38/cv2.1/cv2.1.1/conv/Conv_output_0: 3dcaf48a
/model.38/cv2.1/cv2.1.1/act/Sigmoid_output_0: 3c021423
/model.38/cv2.1/cv2.1.1/act/Mul_output_0: 3d24efb0
/model.38/cv2.1/cv2.1.2/Conv_output_0: 3dce7534
/model.38/cv3.1/cv3.1.0/conv/Conv_output_0: 3da40a04
/model.38/cv3.1/cv3.1.0/act/Sigmoid_output_0: 3c010f29
/model.38/cv3.1/cv3.1.0/act/Mul_output_0: 3d11ae27
/model.38/cv3.1/cv3.1.1/conv/Conv_output_0: 3de8b635
/model.38/cv3.1/cv3.1.1/act/Sigmoid_output_0: 3c03162b
/model.38/cv3.1/cv3.1.1/act/Mul_output_0: 3d249d30
/model.38/cv3.1/cv3.1.2/Conv_output_0: 3e92ed81
/model.38/Concat_1_output_0: 3e59f24c
/model.38/cv2.2/cv2.2.0/conv/Conv_output_0: 3d10639a
/model.38/cv2.2/cv2.2.0/act/Sigmoid_output_0: 3c00f6bf
/model.38/cv2.2/cv2.2.0/act/Mul_output_0: 3cd21ca1
/model.38/cv2.2/cv2.2.1/conv/Conv_output_0: 3d43e89f
/model.38/cv2.2/cv2.2.1/act/Sigmoid_output_0: 3c01a8c6
/model.38/cv2.2/cv2.2.1/act/Mul_output_0: 3cfd52d2
/model.38/cv2.2/cv2.2.2/Conv_output_0: 3c354c2a
/model.38/cv3.2/cv3.2.0/conv/Conv_output_0: 3cbf4d0d
/model.38/cv3.2/cv3.2.0/act/Sigmoid_output_0: 3bf312ae
/model.38/cv3.2/cv3.2.0/act/Mul_output_0: 3c7292cd
/model.38/cv3.2/cv3.2.1/conv/Conv_output_0: 3cabc7e3
/model.38/cv3.2/cv3.2.1/act/Sigmoid_output_0: 3beed68e
/model.38/cv3.2/cv3.2.1/act/Mul_output_0: 3c9a9026
/model.38/cv3.2/cv3.2.2/Conv_output_0: 3dc6830b
/model.38/Concat_2_output_0: 3dc36323
/model.38/Reshape_output_0: 3e9be392
/model.38/Reshape_1_output_0: 3e59f24c
/model.38/Reshape_2_output_0: 3dc36323
/model.38/Concat_6_output_0: 3e939952
(Unnamed Layer* 967) [Constant]_output: 3e810a14
/model.38/Split_output_0: 3d810a14
/model.38/Split_output_1: 3e010a14
/model.38/Split_output_2: 3e810a14
/model.38/Range_output_0: 3f1f4871
(Unnamed Layer* 991) [Shuffle]_output: 3c010a14
(Unnamed Layer* 993) [Shuffle]_output: 3b810a14
/model.38/Add_output_0: 3f204a85
/model.38/Range_1_output_0: 3f1f4871
(Unnamed Layer* 1006) [Shuffle]_output: 3c010a14
(Unnamed Layer* 1008) [Shuffle]_output: 3b810a14
/model.38/Add_1_output_0: 3f204a85
/model.38/Reshape_5_output_0: 3f204a85
/model.38/Expand_output_0: 3f204a85
/model.38/Reshape_6_output_0: 3f204a85
/model.38/Expand_1_output_0: 3f204a85
/model.38/Unsqueeze_3_output_0: 3f204a85
/model.38/Unsqueeze_4_output_0: 3f204a85
/model.38/Concat_10_output_0: 3f204a85
/model.38/Reshape_7_output_0: 3f204a85
(Unnamed Layer* 1059) [Constant]_output: 0
(Unnamed Layer* 1060) [Shuffle]_output: 0
/model.38/ConstantOfShape_output_0: 0
(Unnamed Layer* 1063) [Shuffle]_output: 3d810a14
/model.38/Add_2_output_0: 3d810a14
/model.38/Range_2_output_0: 3e9d4449
(Unnamed Layer* 1082) [Shuffle]_output: 3c010a14
(Unnamed Layer* 1084) [Shuffle]_output: 3b810a14
/model.38/Add_3_output_0: 3e9f4871
/model.38/Range_3_output_0: 3e9d4449
(Unnamed Layer* 1097) [Shuffle]_output: 3c010a14
(Unnamed Layer* 1099) [Shuffle]_output: 3b810a14
/model.38/Add_4_output_0: 3e9f4871
/model.38/Reshape_10_output_0: 3e9f4871
/model.38/Expand_2_output_0: 3e9f4871
/model.38/Reshape_11_output_0: 3e9f4871
/model.38/Expand_3_output_0: 3e9f4871
/model.38/Unsqueeze_6_output_0: 3e9f4871
/model.38/Unsqueeze_7_output_0: 3e9f4871
/model.38/Concat_15_output_0: 3e9f4871
/model.38/Reshape_12_output_0: 3e9f4871
(Unnamed Layer* 1150) [Constant]_output: 0
(Unnamed Layer* 1151) [Shuffle]_output: 0
/model.38/ConstantOfShape_1_output_0: 0
(Unnamed Layer* 1154) [Shuffle]_output: 3e010a14
/model.38/Add_5_output_0: 3e010a14
/model.38/Range_4_output_0: 3e193bf8
(Unnamed Layer* 1173) [Shuffle]_output: 3c010a14
(Unnamed Layer* 1175) [Shuffle]_output: 3b810a14
/model.38/Add_6_output_0: 3e1d4449
/model.38/Range_5_output_0: 3e193bf8
(Unnamed Layer* 1188) [Shuffle]_output: 3c010a14
(Unnamed Layer* 1190) [Shuffle]_output: 3b810a14
/model.38/Add_7_output_0: 3e1d4449
/model.38/Reshape_15_output_0: 3e1d4449
/model.38/Expand_4_output_0: 3e1d4449
/model.38/Reshape_16_output_0: 3e1d4449
/model.38/Expand_5_output_0: 3e1d4449
/model.38/Unsqueeze_9_output_0: 3e1d4449
/model.38/Unsqueeze_10_output_0: 3e1d4449
/model.38/Concat_20_output_0: 3e1d4449
/model.38/Reshape_17_output_0: 3e1d4449
(Unnamed Layer* 1241) [Constant]_output: 0
(Unnamed Layer* 1242) [Shuffle]_output: 0
/model.38/ConstantOfShape_2_output_0: 0
(Unnamed Layer* 1245) [Shuffle]_output: 3e810a14
/model.38/Add_8_output_0: 3e810a14
/model.38/Concat_22_output_0: 3f204a85
/model.38/Concat_23_output_0: 3e810a14
/model.38/Transpose_output_0: 3f204a85
/model.38/Transpose_1_output_0: 3e810a14
/model.38/Split_1_output_0: 3dd98dea
/model.38/Split_1_output_1: 3ed8713d
/model.38/dfl/Reshape_output_0: 3dd98dea
/model.38/dfl/Transpose_output_0: 3dd98dea
(Unnamed Layer* 1274) [Softmax]_output: 3bd6c8fe
/model.38/dfl/conv/Conv_output_0: 3d9dffdf
/model.38/dfl/Reshape_1_output_0: 3d9dffdf
/model.38/Unsqueeze_12_output_0: 3f204a85
/model.38/Slice_output_0: 3d9e2cbc
/model.38/Slice_1_output_0: 3d74b905
/model.38/Sub_output_0: 3f1ff146
/model.38/Add_10_output_0: 3f219683
/model.38/Add_11_output_0: 3fa0c0be
(Unnamed Layer* 1357) [Shuffle]_output: 3c810a14
/model.38/Div_1_output_0: 3f20c0be
/model.38/Sub_1_output_0: 3df473b5
/model.38/Concat_24_output_0: 3f313a73
(Unnamed Layer* 1364) [Shuffle]_output: 3e810a14
/model.38/Mul_5_output_0: 40a5ee50
/model.38/Sigmoid_output_0: 3be2cdb9
output0: 40a5ee50
