TRT-8503-EntropyCalibration2
images: 3bf80000
/Slice_output_0: 3bf80000
/Slice_1_output_0: 3bf80000
/model.0/conv/Conv_output_0: 3e191b14
/model.0/act/Sigmoid_output_0: 3c010a14
/model.0/act/Mul_output_0: 3e0239a0
/model.1/conv/Conv_output_0: 3ded257b
/model.1/act/Sigmoid_output_0: 3c0068d2
/model.1/act/Mul_output_0: 3cebb749
/model.2/cv1/conv/Conv_output_0: 3d432c39
/model.2/cv1/act/Sigmoid_output_0: 3c02b567
/model.2/cv1/act/Mul_output_0: 3cbdb842
/model.2/Split_output_0: 3d0e2d13
/model.2/Split_output_1: 3c7fa7bc
/model.2/m.0/cv1/conv/Conv_output_0: 3d625848
/model.2/m.0/cv1/act/Sigmoid_output_0: 3c0376d5
/model.2/m.0/cv1/act/Mul_output_0: 3cbe7539
/model.2/m.0/cv2/conv/Conv_output_0: 3d63c4aa
/model.2/m.0/cv2/act/Sigmoid_output_0: 3c010a14
/model.2/m.0/cv2/act/Mul_output_0: 3d6c1724
/model.2/m.0/Add_output_0: 3d4ac286
/model.2/Concat_output_0: 3d3e5d33
/model.2/cv2/conv/Conv_output_0: 3d4e5389
/model.2/cv2/act/Sigmoid_output_0: 3bff9e69
/model.2/cv2/act/Mul_output_0: 3d1277fc
/model.3/conv/Conv_output_0: 3ce76ab5
/model.3/act/Sigmoid_output_0: 3c005f9e
/model.3/act/Mul_output_0: 3ca4bc85
/model.4/conv/Conv_output_0: 3dba3614
/model.4/act/Sigmoid_output_0: 3c010a14
/model.4/act/Mul_output_0: 3d659ef2
/model.5/conv/Conv_output_0: 3d9bfe05
/model.5/act/Sigmoid_output_0: 3c010a14
/model.5/act/Mul_output_0: 3d112330
/model.6/cv1/conv/Conv_output_0: 3d61d88c
/model.6/cv1/act/Sigmoid_output_0: 3c010a14
/model.6/cv1/act/Mul_output_0: 3d6cea63
/model.6/Split_output_0: 3d2aa720
/model.6/Split_output_1: 3d41d5ad
/model.6/m.0/spatial_mixing/Split_output_0: 3d418d79
/model.6/m.0/spatial_mixing/Split_output_1: 3d21cbbf
/model.6/m.0/spatial_mixing/partial_conv3/Conv_output_0: 3d06dba6
/model.6/m.0/spatial_mixing/Concat_output_0: 3d416082
/model.6/m.0/mlp/mlp.0/conv/Conv_output_0: 3d884106
/model.6/m.0/mlp/mlp.0/act/Sigmoid_output_0: 3c003050
/model.6/m.0/mlp/mlp.0/act/Mul_output_0: 3cc09527
/model.6/Concat_output_0: 3d6cea63
/model.6/cv2/conv/Conv_output_0: 3da9692e
/model.6/cv2/act/Sigmoid_output_0: 3c071333
/model.6/cv2/act/Mul_output_0: 3d1117b4
/model.7/conv/Conv_output_0: 3d334dbf
/model.7/act/Sigmoid_output_0: 3c0333fd
/model.7/act/Mul_output_0: 3d21e302
/Concat_output_0: 3d0efb82
/model.8/avg_pool/GlobalAveragePool_output_0: 3cfa71c4
/model.8/Reshape_output_0: 3cfa71c4
(Unnamed Layer* 147) [Constant]_output: 3b807a16
/model.8/fc/fc.0/MatMul_output_0: 3ce9f598
/model.8/fc/fc.1/Relu_output_0: 3d0e8d14
(Unnamed Layer* 150) [Constant]_output: 3b3beb0e
/model.8/fc/fc.2/MatMul_output_0: 3c755199
/model.8/fc/fc.3/Sigmoid_output_0: 3bdf1f4d
/model.8/Reshape_1_output_0: 3bdf1f4d
/model.8/Mul_output_0: 3d021f09
/model.8/Slice_output_0: 3d2d4356
/model.8/Slice_1_output_0: 3c9a494c
/model.8/Concat_2_output_0: 3d021f09
/model.8/Add_output_0: 3d8c8b50
/Slice_2_output_0: 3d580912
/Slice_3_output_0: 3d5321be
/model.9/cv1/conv/Conv_output_0: 3d5eb54d
/model.9/cv1/act/Sigmoid_output_0: 3c06dafc
/model.9/cv1/act/Mul_output_0: 3d134d96
/model.9/Split_output_0: 3d1399b0
/model.9/Split_output_1: 3cbeff48
/model.9/m.0/cv1/conv/Conv_output_0: 3d7273a0
/model.9/m.0/cv1/act/Sigmoid_output_0: 3c00d06c
/model.9/m.0/cv1/act/Mul_output_0: 3cd3e49c
/model.9/m.0/cv2/conv/Conv_output_0: 3d5cf7dc
/model.9/m.0/cv2/act/Sigmoid_output_0: 3c00a867
/model.9/m.0/cv2/act/Mul_output_0: 3d00a01a
/model.9/m.0/Add_output_0: 3d64cd4b
/model.9/m.1/cv1/conv/Conv_output_0: 3d7b426a
/model.9/m.1/cv1/act/Sigmoid_output_0: 3c00ce5a
/model.9/m.1/cv1/act/Mul_output_0: 3c904479
/model.9/m.1/cv2/conv/Conv_output_0: 3da3d361
/model.9/m.1/cv2/act/Sigmoid_output_0: 3c075e93
/model.9/m.1/cv2/act/Mul_output_0: 3d6d02d0
/model.9/m.1/Add_output_0: 3dbbe0d0
/model.9/Concat_output_0: 3d424461
/model.9/cv2/conv/Conv_output_0: 3d917a66
/model.9/cv2/act/Sigmoid_output_0: 3c02139e
/model.9/cv2/act/Mul_output_0: 3d005db6
/model.10/conv/Conv_output_0: 3d86852b
/model.10/act/Sigmoid_output_0: 3c00ea49
/model.10/act/Mul_output_0: 3d44ac4f
/model.11/cv1/conv/Conv_output_0: 3d64cd89
/model.11/cv1/act/Sigmoid_output_0: 3bffc2d4
/model.11/cv1/act/Mul_output_0: 3ce4d870
/model.11/Split_output_0: 3d012bb3
/model.11/Split_output_1: 3d0fd964
/model.11/m.0/spatial_mixing/Split_output_0: 3cff0bcb
/model.11/m.0/spatial_mixing/Split_output_1: 3d0fd964
/model.11/m.0/spatial_mixing/partial_conv3/Conv_output_0: 3cddf0fe
/model.11/m.0/spatial_mixing/Concat_output_0: 3d0f1e9e
/model.11/m.0/mlp/mlp.0/conv/Conv_output_0: 3d28d9e6
/model.11/m.0/mlp/mlp.0/act/Sigmoid_output_0: 3c021c70
/model.11/m.0/mlp/mlp.0/act/Mul_output_0: 3cd397c1
/model.11/m.1/spatial_mixing/Split_output_0: 3cd397c1
/model.11/m.1/spatial_mixing/Split_output_1: 3ce652eb
/model.11/m.1/spatial_mixing/partial_conv3/Conv_output_0: 3cc1ca03
/model.11/m.1/spatial_mixing/Concat_output_0: 3ce652eb
/model.11/m.1/mlp/mlp.0/conv/Conv_output_0: 3d6862e9
/model.11/m.1/mlp/mlp.0/act/Sigmoid_output_0: 3c0204b8
/model.11/m.1/mlp/mlp.0/act/Mul_output_0: 3d128f8c
/model.11/Concat_output_0: 3ce4d870
/model.11/cv2/conv/Conv_output_0: 3d0cedd3
/model.11/cv2/act/Sigmoid_output_0: 3c00658b
/model.11/cv2/act/Mul_output_0: 3d0fda43
/model.12/conv/Conv_output_0: 3d433dac
/model.12/act/Sigmoid_output_0: 3bffd8fa
/model.12/act/Mul_output_0: 3cd1bbce
/Concat_1_output_0: 3d128c6a
/model.13/avg_pool/GlobalAveragePool_output_0: 3c5bb8f9
/model.13/Reshape_output_0: 3c5bb8f9
(Unnamed Layer* 369) [Constant]_output: 3a9fc97b
/model.13/fc/fc.0/MatMul_output_0: 3c8a9d3c
/model.13/fc/fc.1/Relu_output_0: 3c8a9d3c
(Unnamed Layer* 372) [Constant]_output: 3aa688a5
/model.13/fc/fc.2/MatMul_output_0: 3c0cdc78
/model.13/fc/fc.3/Sigmoid_output_0: 3bd35150
/model.13/Reshape_1_output_0: 3bd35150
/model.13/Mul_output_0: 3c9805db
/model.13/Slice_output_0: 3c55c43a
/model.13/Slice_1_output_0: 3cc96af4
/model.13/Concat_2_output_0: 3c9805db
/model.13/Add_output_0: 3d43e2c5
/Slice_4_output_0: 3d5bf3ef
/Slice_5_output_0: 3d2013ca
/model.14/cv1/conv/Conv_output_0: 3d89cc6c
/model.14/cv1/act/Sigmoid_output_0: 3c00f035
/model.14/cv1/act/Mul_output_0: 3ce73c0b
/model.14/Split_output_0: 3ce73c0b
/model.14/Split_output_1: 3cb2c6cd
/model.14/m.0/cv1/conv/Conv_output_0: 3d859b60
/model.14/m.0/cv1/act/Sigmoid_output_0: 3c00ed0a
/model.14/m.0/cv1/act/Mul_output_0: 3d0264ce
/model.14/m.0/cv2/conv/Conv_output_0: 3d83d5e9
/model.14/m.0/cv2/act/Sigmoid_output_0: 3c00e27e
/model.14/m.0/cv2/act/Mul_output_0: 3d12ed86
/model.14/m.0/Add_output_0: 3d6548d7
/model.14/m.1/cv1/conv/Conv_output_0: 3d8d7d63
/model.14/m.1/cv1/act/Sigmoid_output_0: 3c00deed
/model.14/m.1/cv1/act/Mul_output_0: 3ceaa34e
/model.14/m.1/cv2/conv/Conv_output_0: 3d97e9e9
/model.14/m.1/cv2/act/Sigmoid_output_0: 3c00ee9c
/model.14/m.1/cv2/act/Mul_output_0: 3d102c1f
/model.14/m.1/Add_output_0: 3d8de764
/model.14/Concat_output_0: 3d244acf
/model.14/cv2/conv/Conv_output_0: 3d91591f
/model.14/cv2/act/Sigmoid_output_0: 3c00f1ad
/model.14/cv2/act/Mul_output_0: 3d0081f3
/model.15/conv/Conv_output_0: 3d5e7e4d
/model.15/act/Sigmoid_output_0: 3c00e678
/model.15/act/Mul_output_0: 3ce7127a
/model.16/cv1/conv/Conv_output_0: 3d4ff6a7
/model.16/cv1/act/Sigmoid_output_0: 3c004fbd
/model.16/cv1/act/Mul_output_0: 3cd41281
/model.16/Split_output_0: 3d01b23a
/model.16/Split_output_1: 3ce7229b
/model.16/m.0/spatial_mixing/Split_output_0: 3ce7229b
/model.16/m.0/spatial_mixing/Split_output_1: 3cea61b5
/model.16/m.0/spatial_mixing/partial_conv3/Conv_output_0: 3cfb38cf
/model.16/m.0/spatial_mixing/Concat_output_0: 3cea61b5
/model.16/m.0/mlp/mlp.0/conv/Conv_output_0: 3d407bac
/model.16/m.0/mlp/mlp.0/act/Sigmoid_output_0: 3c0006a0
/model.16/m.0/mlp/mlp.0/act/Mul_output_0: 3cc00eef
/model.16/m.1/spatial_mixing/Split_output_0: 3ce65ae9
/model.16/m.1/spatial_mixing/Split_output_1: 3cc24c08
/model.16/m.1/spatial_mixing/partial_conv3/Conv_output_0: 3cceb425
/model.16/m.1/spatial_mixing/Concat_output_0: 3cc24c08
/model.16/m.1/mlp/mlp.0/conv/Conv_output_0: 3d691c7c
/model.16/m.1/mlp/mlp.0/act/Sigmoid_output_0: 3c00643b
/model.16/m.1/mlp/mlp.0/act/Mul_output_0: 3d01c45d
/model.16/Concat_output_0: 3cd41281
/model.16/cv2/conv/Conv_output_0: 3d4a9e57
/model.16/cv2/act/Sigmoid_output_0: 3c012744
/model.16/cv2/act/Mul_output_0: 3d0290ae
/model.17/conv/Conv_output_0: 3d3f15e9
/model.17/act/Sigmoid_output_0: 3c007f83
/model.17/act/Mul_output_0: 3ce6b286
/Concat_2_output_0: 3ce7127a
/model.18/avg_pool/GlobalAveragePool_output_0: 3c7048cb
/model.18/Reshape_output_0: 3c7048cb
(Unnamed Layer* 591) [Constant]_output: 3a11bb22
/model.18/fc/fc.0/MatMul_output_0: 3ceb53ef
/model.18/fc/fc.1/Relu_output_0: 3ceb53ef
(Unnamed Layer* 594) [Constant]_output: 3a462375
/model.18/fc/fc.2/MatMul_output_0: 3c3b98f9
/model.18/fc/fc.3/Sigmoid_output_0: 3bd4990e
/model.18/Reshape_1_output_0: 3bd4990e
/model.18/Mul_output_0: 3caed9f1
/model.18/Slice_output_0: 3c9a6aba
/model.18/Slice_1_output_0: 3cb872b0
/model.18/Concat_2_output_0: 3caed9f1
/model.18/Add_output_0: 3d369603
/Slice_6_output_0: 3d39e616
/Slice_7_output_0: 3d351433
/model.19/cv1/conv/Conv_output_0: 3d41e96e
/model.19/cv1/act/Sigmoid_output_0: 3c008017
/model.19/cv1/act/Mul_output_0: 3ce7ad55
/model.19/Split_output_0: 3ce7ad55
/model.19/Split_output_1: 3cd3aac1
/model.19/m.0/cv1/conv/Conv_output_0: 3d6a7b99
/model.19/m.0/cv1/act/Sigmoid_output_0: 3c00ab38
/model.19/m.0/cv1/act/Mul_output_0: 3cd4ae72
/model.19/m.0/cv2/conv/Conv_output_0: 3d6a8593
/model.19/m.0/cv2/act/Sigmoid_output_0: 3c00c57c
/model.19/m.0/cv2/act/Mul_output_0: 3d020b99
/model.19/m.0/Add_output_0: 3d80613c
/model.19/Concat_output_0: 3d10981e
/model.19/cv2/conv/Conv_output_0: 3d47c326
/model.19/cv2/act/Sigmoid_output_0: 3c00b0b9
/model.19/cv2/act/Mul_output_0: 3cbffa4e
/model.20/cv1/conv/Conv_output_0: 3d5371cc
/model.20/cv1/act/Sigmoid_output_0: 3c00c0d9
/model.20/cv1/act/Mul_output_0: 3d001188
/model.20/m/MaxPool_output_0: 3d001188
/model.20/m_1/MaxPool_output_0: 3d001188
/model.20/m_2/MaxPool_output_0: 3d001188
/model.20/Concat_output_0: 3d6670fe
/model.20/cv2/conv/Conv_output_0: 3d7c0ac6
/model.20/cv2/act/Sigmoid_output_0: 3c008cc9
/model.20/cv2/act/Mul_output_0: 3cd140b0
/model.21/cv1/conv/Conv_output_0: 3d4a69c1
/model.21/cv1/act/Sigmoid_output_0: 3c00a824
/model.21/cv1/act/Mul_output_0: 3cc0702a
/model.21/Split_output_0: 3d01c763
/model.21/Split_output_1: 3cc0702a
/model.21/m.0/spatial_mixing/Split_output_0: 3d0029cd
/model.21/m.0/spatial_mixing/Split_output_1: 3cd41bd4
/model.21/m.0/spatial_mixing/partial_conv3/Conv_output_0: 3d1cccb0
/model.21/m.0/spatial_mixing/Concat_output_0: 3cd41bd4
/model.21/m.0/mlp/mlp.0/conv/Conv_output_0: 3d4ca968
/model.21/m.0/mlp/mlp.0/act/Sigmoid_output_0: 3c007e87
/model.21/m.0/mlp/mlp.0/act/Mul_output_0: 3cd2998c
/model.21/Concat_output_0: 3cc0702a
/model.21/cv2/conv/Conv_output_0: 3d3db218
/model.21/cv2/act/Sigmoid_output_0: 3c008b5a
/model.21/cv2/act/Mul_output_0: 3d01f16b
/model.22/cv1/conv/Conv_output_0: 3d4b4ec1
/model.22/cv1/act/Sigmoid_output_0: 3c009aa0
/model.22/cv1/act/Mul_output_0: 3d10dcd3
/model.22/m/MaxPool_output_0: 3d10dcd3
/model.22/m_1/MaxPool_output_0: 3d10dcd3
/model.22/m_2/MaxPool_output_0: 3d10dcd3
/model.22/Concat_output_0: 3d40ea61
/model.22/cv2/conv/Conv_output_0: 3d6b9738
/model.22/cv2/act/Sigmoid_output_0: 3c008fb3
/model.22/cv2/act/Mul_output_0: 3cd21e30
/model.23/Add_output_0: 3d8cac87
/model.24/Add_output_0: 3d8b9aee
/model.25/Add_output_0: 3d63c1b0
/model.26/Resize_output_0: 3d63c1b0
/model.27/Concat_output_0: 3d8b9aee
/model.28/cv1/conv/Conv_output_0: 3d72a467
/model.28/cv1/act/Sigmoid_output_0: 3c00ccc0
/model.28/cv1/act/Mul_output_0: 3d029ade
/model.28/Split_output_0: 3d029ade
/model.28/Split_output_1: 3cd438f4
/model.28/m.0/cv1/conv/Conv_output_0: 3d7029e5
/model.28/m.0/cv1/act/Sigmoid_output_0: 3c00dc76
/model.28/m.0/cv1/act/Mul_output_0: 3ce6c850
/model.28/m.0/cv2/conv/Conv_output_0: 3d814574
/model.28/m.0/cv2/act/Sigmoid_output_0: 3c00f091
/model.28/m.0/cv2/act/Mul_output_0: 3d142a66
/model.28/Concat_output_0: 3d142a66
/model.28/cv2/conv/Conv_output_0: 3d6b54b9
/model.28/cv2/act/Sigmoid_output_0: 3c00cfa1
/model.28/cv2/act/Mul_output_0: 3d12c8f9
/model.29/Resize_output_0: 3d12c8f9
/model.30/Concat_output_0: 3d296d3b
/model.31/cv1/conv/Conv_output_0: 3d473a56
/model.31/cv1/act/Sigmoid_output_0: 3c007fb7
/model.31/cv1/act/Mul_output_0: 3ce71012
/model.31/Split_output_0: 3ce71012
/model.31/Split_output_1: 3d020e5a
/model.31/m.0/cv1/conv/Conv_output_0: 3d4b57a4
/model.31/m.0/cv1/act/Sigmoid_output_0: 3c002517
/model.31/m.0/cv1/act/Mul_output_0: 3cd4fc74
/model.31/m.0/cv2/conv/Conv_output_0: 3d87b046
/model.31/m.0/cv2/act/Sigmoid_output_0: 3c00e976
/model.31/m.0/cv2/act/Mul_output_0: 3d428b91
/model.31/Concat_output_0: 3d01a743
/model.31/cv2/conv/Conv_output_0: 3db23903
/model.31/cv2/act/Sigmoid_output_0: 3c00eb8b
/model.31/cv2/act/Mul_output_0: 3d023cbb
/model.32/conv/Conv_output_0: 3d9fcff5
/model.32/act/Sigmoid_output_0: 3c02135e
/model.32/act/Mul_output_0: 3d256c57
/model.33/Concat_output_0: 3d256c57
/model.34/cv1/conv/Conv_output_0: 3d7dc704
/model.34/cv1/act/Sigmoid_output_0: 3c00ed97
/model.34/cv1/act/Mul_output_0: 3cd1ed64
/model.34/Split_output_0: 3d12600f
/model.34/Split_output_1: 3cd1ed64
/model.34/m.0/cv1/conv/Conv_output_0: 3d81ed7a
/model.34/m.0/cv1/act/Sigmoid_output_0: 3c010e6d
/model.34/m.0/cv1/act/Mul_output_0: 3d0272eb
/model.34/m.0/cv2/conv/Conv_output_0: 3d8427bd
/model.34/m.0/cv2/act/Sigmoid_output_0: 3c0110f1
/model.34/m.0/cv2/act/Mul_output_0: 3ce6f614
/model.34/Concat_output_0: 3ce6f614
/model.34/cv2/conv/Conv_output_0: 3d813bd2
/model.34/cv2/act/Sigmoid_output_0: 3c00ebc1
/model.34/cv2/act/Mul_output_0: 3d280ab6
/model.35/conv/Conv_output_0: 3d2bfb2c
/model.35/act/Sigmoid_output_0: 3c01d2b0
/model.35/act/Mul_output_0: 3cc01b67
/model.36/Concat_output_0: 3d247f2b
/model.37/cv1/conv/Conv_output_0: 3d0eb149
/model.37/cv1/act/Sigmoid_output_0: 3bfeee97
/model.37/cv1/act/Mul_output_0: 3cc08960
/model.37/Split_output_0: 3ca50dbf
/model.37/Split_output_1: 3cc08960
/model.37/m.0/cv1/conv/Conv_output_0: 3d0c87e5
/model.37/m.0/cv1/act/Sigmoid_output_0: 3bfecb59
/model.37/m.0/cv1/act/Mul_output_0: 3ca4447c
/model.37/m.0/cv2/conv/Conv_output_0: 3d08d14b
/model.37/m.0/cv2/act/Sigmoid_output_0: 3bfe9cee
/model.37/m.0/cv2/act/Mul_output_0: 3c906bb4
/model.37/Concat_output_0: 3cc08960
/model.37/cv2/conv/Conv_output_0: 3cec033e
/model.37/cv2/act/Sigmoid_output_0: 3bfb1d92
/model.37/cv2/act/Mul_output_0: 3c992f58
/model.38/cv2.0/cv2.0.0/conv/Conv_output_0: 3d93ee68
/model.38/cv2.0/cv2.0.0/act/Sigmoid_output_0: 3c006f5f
/model.38/cv2.0/cv2.0.0/act/Mul_output_0: 3d015d86
/model.38/cv2.0/cv2.0.1/conv/Conv_output_0: 3da07cb3
/model.38/cv2.0/cv2.0.1/act/Sigmoid_output_0: 3c011211
/model.38/cv2.0/cv2.0.1/act/Mul_output_0: 3d409587
/model.38/cv2.0/cv2.0.2/Conv_output_0: 3e03f45a
/model.38/cv3.0/cv3.0.0/conv/Conv_output_0: 3dc09aea
/model.38/cv3.0/cv3.0.0/act/Sigmoid_output_0: 3c0111ed
/model.38/cv3.0/cv3.0.0/act/Mul_output_0: 3cb1c5a5
/model.38/cv3.0/cv3.0.1/conv/Conv_output_0: 3e56f603
/model.38/cv3.0/cv3.0.1/act/Sigmoid_output_0: 3c010a14
/model.38/cv3.0/cv3.0.1/act/Mul_output_0: 3d83ee38
/model.38/cv3.0/cv3.0.2/Conv_output_0: 3f148720
/model.38/Concat_output_0: 3ea90ec2
/model.38/cv2.1/cv2.1.0/conv/Conv_output_0: 3d7cee69
/model.38/cv2.1/cv2.1.0/act/Sigmoid_output_0: 3c00eff0
/model.38/cv2.1/cv2.1.0/act/Mul_output_0: 3d280c98
/model.38/cv2.1/cv2.1.1/conv/Conv_output_0: 3dc48b5f
/model.38/cv2.1/cv2.1.1/act/Sigmoid_output_0: 3c010a14
/model.38/cv2.1/cv2.1.1/act/Mul_output_0: 3d7183e3
/model.38/cv2.1/cv2.1.2/Conv_output_0: 3dc7d6f2
/model.38/cv3.1/cv3.1.0/conv/Conv_output_0: 3d9ff5c2
/model.38/cv3.1/cv3.1.0/act/Sigmoid_output_0: 3c010e3b
/model.38/cv3.1/cv3.1.0/act/Mul_output_0: 3d01b0da
/model.38/cv3.1/cv3.1.1/conv/Conv_output_0: 3de94b8d
/model.38/cv3.1/cv3.1.1/act/Sigmoid_output_0: 3c010a14
/model.38/cv3.1/cv3.1.1/act/Mul_output_0: 3d473424
/model.38/cv3.1/cv3.1.2/Conv_output_0: 3e8faf63
/model.38/Concat_1_output_0: 3e4f5dc9
/model.38/cv2.2/cv2.2.0/conv/Conv_output_0: 3cfc1f55
/model.38/cv2.2/cv2.2.0/act/Sigmoid_output_0: 3c01dc2c
/model.38/cv2.2/cv2.2.0/act/Mul_output_0: 3ce92aa1
/model.38/cv2.2/cv2.2.1/conv/Conv_output_0: 3d300313
/model.38/cv2.2/cv2.2.1/act/Sigmoid_output_0: 3c013d3e
/model.38/cv2.2/cv2.2.1/act/Mul_output_0: 3cd60957
/model.38/cv2.2/cv2.2.2/Conv_output_0: 3c319a04
/model.38/cv3.2/cv3.2.0/conv/Conv_output_0: 3cc8dbe1
/model.38/cv3.2/cv3.2.0/act/Sigmoid_output_0: 3bf3a1b2
/model.38/cv3.2/cv3.2.0/act/Mul_output_0: 3c532a2a
/model.38/cv3.2/cv3.2.1/conv/Conv_output_0: 3cabde58
/model.38/cv3.2/cv3.2.1/act/Sigmoid_output_0: 3beeb747
/model.38/cv3.2/cv3.2.1/act/Mul_output_0: 3ca5508e
/model.38/cv3.2/cv3.2.2/Conv_output_0: 3dc6a194
/model.38/Concat_2_output_0: 3dc35001
/model.38/Reshape_output_0: 3ea90ec2
/model.38/Reshape_1_output_0: 3e4f5dc9
/model.38/Reshape_2_output_0: 3dc35001
/model.38/Concat_6_output_0: 3e87e6ca
(Unnamed Layer* 967) [Constant]_output: 3e810a14
/model.38/Split_output_0: 3d810a14
/model.38/Split_output_1: 3e010a14
/model.38/Split_output_2: 3e810a14
/model.38/Range_output_0: 3f1f4871
(Unnamed Layer* 991) [Shuffle]_output: 3c010a14
(Unnamed Layer* 993) [Shuffle]_output: 3b810a14
/model.38/Add_output_0: 3f204a85
/model.38/Range_1_output_0: 3f1f4871
(Unnamed Layer* 1006) [Shuffle]_output: 3c010a14
(Unnamed Layer* 1008) [Shuffle]_output: 3b810a14
/model.38/Add_1_output_0: 3f204a85
/model.38/Reshape_5_output_0: 3f204a85
/model.38/Expand_output_0: 3f204a85
/model.38/Reshape_6_output_0: 3f204a85
/model.38/Expand_1_output_0: 3f204a85
/model.38/Unsqueeze_3_output_0: 3f204a85
/model.38/Unsqueeze_4_output_0: 3f204a85
/model.38/Concat_10_output_0: 3f204a85
/model.38/Reshape_7_output_0: 3f204a85
(Unnamed Layer* 1059) [Constant]_output: 0
(Unnamed Layer* 1060) [Shuffle]_output: 0
/model.38/ConstantOfShape_output_0: 0
(Unnamed Layer* 1063) [Shuffle]_output: 3d810a14
/model.38/Add_2_output_0: 3d810a14
/model.38/Range_2_output_0: 3e9d4449
(Unnamed Layer* 1082) [Shuffle]_output: 3c010a14
(Unnamed Layer* 1084) [Shuffle]_output: 3b810a14
/model.38/Add_3_output_0: 3e9f4871
/model.38/Range_3_output_0: 3e9d4449
(Unnamed Layer* 1097) [Shuffle]_output: 3c010a14
(Unnamed Layer* 1099) [Shuffle]_output: 3b810a14
/model.38/Add_4_output_0: 3e9f4871
/model.38/Reshape_10_output_0: 3e9f4871
/model.38/Expand_2_output_0: 3e9f4871
/model.38/Reshape_11_output_0: 3e9f4871
/model.38/Expand_3_output_0: 3e9f4871
/model.38/Unsqueeze_6_output_0: 3e9f4871
/model.38/Unsqueeze_7_output_0: 3e9f4871
/model.38/Concat_15_output_0: 3e9f4871
/model.38/Reshape_12_output_0: 3e9f4871
(Unnamed Layer* 1150) [Constant]_output: 0
(Unnamed Layer* 1151) [Shuffle]_output: 0
/model.38/ConstantOfShape_1_output_0: 0
(Unnamed Layer* 1154) [Shuffle]_output: 3e010a14
/model.38/Add_5_output_0: 3e010a14
/model.38/Range_4_output_0: 3e193bf8
(Unnamed Layer* 1173) [Shuffle]_output: 3c010a14
(Unnamed Layer* 1175) [Shuffle]_output: 3b810a14
/model.38/Add_6_output_0: 3e1d4449
/model.38/Range_5_output_0: 3e193bf8
(Unnamed Layer* 1188) [Shuffle]_output: 3c010a14
(Unnamed Layer* 1190) [Shuffle]_output: 3b810a14
/model.38/Add_7_output_0: 3e1d4449
/model.38/Reshape_15_output_0: 3e1d4449
/model.38/Expand_4_output_0: 3e1d4449
/model.38/Reshape_16_output_0: 3e1d4449
/model.38/Expand_5_output_0: 3e1d4449
/model.38/Unsqueeze_9_output_0: 3e1d4449
/model.38/Unsqueeze_10_output_0: 3e1d4449
/model.38/Concat_20_output_0: 3e1d4449
/model.38/Reshape_17_output_0: 3e1d4449
(Unnamed Layer* 1241) [Constant]_output: 0
(Unnamed Layer* 1242) [Shuffle]_output: 0
/model.38/ConstantOfShape_2_output_0: 0
(Unnamed Layer* 1245) [Shuffle]_output: 3e810a14
/model.38/Add_8_output_0: 3e810a14
/model.38/Concat_22_output_0: 3f204a85
/model.38/Concat_23_output_0: 3e810a14
/model.38/Transpose_output_0: 3f204a85
/model.38/Transpose_1_output_0: 3e810a14
/model.38/Split_1_output_0: 3df004c4
/model.38/Split_1_output_1: 3ef12725
/model.38/dfl/Reshape_output_0: 3df004c4
/model.38/dfl/Transpose_output_0: 3df004c4
(Unnamed Layer* 1274) [Softmax]_output: 3bd8a91c
/model.38/dfl/conv/Conv_output_0: 3d9dba9f
/model.38/dfl/Reshape_1_output_0: 3d9dba9f
/model.38/Unsqueeze_12_output_0: 3f204a85
/model.38/Slice_output_0: 3d9e3f85
/model.38/Slice_1_output_0: 3d75150b
/model.38/Sub_output_0: 3f1ffa5b
/model.38/Add_10_output_0: 3f219a4d
/model.38/Add_11_output_0: 3fa0babc
(Unnamed Layer* 1357) [Shuffle]_output: 3c810a14
/model.38/Div_1_output_0: 3f20babc
/model.38/Sub_1_output_0: 3df4a8f0
/model.38/Concat_24_output_0: 3f29fc57
(Unnamed Layer* 1364) [Shuffle]_output: 3e810a14
/model.38/Mul_5_output_0: 40a5e81b
/model.38/Sigmoid_output_0: 3be2d8b7
output0: 40a5e81b
