TRT-8503-EntropyCalibration2
images: 3bf80000
/Slice_output_0: 3bf80000
/Slice_1_output_0: 3bf80000
/model.0/conv/Conv_output_0: 3e2bf6db
/model.0/act/Sigmoid_output_0: 3c010a14
/model.0/act/Mul_output_0: 3dc61b50
/model.1/conv/Conv_output_0: 3dc7ca72
/model.1/act/Sigmoid_output_0: 3c0068d2
/model.1/act/Mul_output_0: 3cde5119
/model.2/cv1/conv/Conv_output_0: 3d3ad952
/model.2/cv1/act/Sigmoid_output_0: 3bfecd9b
/model.2/cv1/act/Mul_output_0: 3ce651ac
/model.2/Split_output_0: 3d1047c3
/model.2/Split_output_1: 3c6b8de3
/model.2/m.0/cv1/conv/Conv_output_0: 3d6467d4
/model.2/m.0/cv1/act/Sigmoid_output_0: 3c0376ac
/model.2/m.0/cv1/act/Mul_output_0: 3c8bf0c8
/model.2/m.0/cv2/conv/Conv_output_0: 3daf912d
/model.2/m.0/cv2/act/Sigmoid_output_0: 3c010a14
/model.2/m.0/cv2/act/Mul_output_0: 3d6b0b54
/model.2/m.0/Add_output_0: 3d8e5c45
/model.2/Concat_output_0: 3d3eb0a1
/model.2/cv2/conv/Conv_output_0: 3d4df8a6
/model.2/cv2/act/Sigmoid_output_0: 3bff9aab
/model.2/cv2/act/Mul_output_0: 3cd290bb
/model.3/conv/Conv_output_0: 3cdb9430
/model.3/act/Sigmoid_output_0: 3c005fe8
/model.3/act/Mul_output_0: 3ca595c4
/model.4/conv/Conv_output_0: 3e1122a0
/model.4/act/Sigmoid_output_0: 3c010a14
/model.4/act/Mul_output_0: 3d6a11d6
/model.5/conv/Conv_output_0: 3da4f92e
/model.5/act/Sigmoid_output_0: 3c010a14
/model.5/act/Mul_output_0: 3d102039
/model.6/cv1/conv/Conv_output_0: 3dabc3da
/model.6/cv1/act/Sigmoid_output_0: 3c03f7eb
/model.6/cv1/act/Mul_output_0: 3d39ea41
/model.6/Split_output_0: 3d3ad223
/model.6/Split_output_1: 3d420726
/model.6/m.0/spatial_mixing/Split_output_0: 3d27ff04
/model.6/m.0/spatial_mixing/Split_output_1: 3d6b8f75
/model.6/m.0/spatial_mixing/partial_conv3/Conv_output_0: 3d07aa55
/model.6/m.0/spatial_mixing/Concat_output_0: 3d65afe6
/model.6/m.0/mlp/mlp.0/conv/Conv_output_0: 3d94fa99
/model.6/m.0/mlp/mlp.0/act/Sigmoid_output_0: 3c002fbb
/model.6/m.0/mlp/mlp.0/act/Mul_output_0: 3cff6600
/model.6/Concat_output_0: 3d404172
/model.6/cv2/conv/Conv_output_0: 3d91b796
/model.6/cv2/act/Sigmoid_output_0: 3c071190
/model.6/cv2/act/Mul_output_0: 3d1316f3
/model.7/conv/Conv_output_0: 3d323f4b
/model.7/act/Sigmoid_output_0: 3c0334aa
/model.7/act/Mul_output_0: 3d212c99
/Concat_output_0: 3d0e8f2d
/model.8/avg_pool/GlobalAveragePool_output_0: 3cedbce9
/model.8/Reshape_output_0: 3cedbce9
(Unnamed Layer* 147) [Constant]_output: 3b807a16
/model.8/fc/fc.0/MatMul_output_0: 3ce5d1fe
/model.8/fc/fc.1/Relu_output_0: 3d0b9b01
(Unnamed Layer* 150) [Constant]_output: 3b3beb0e
/model.8/fc/fc.2/MatMul_output_0: 3c75a8e0
/model.8/fc/fc.3/Sigmoid_output_0: 3bf4e829
/model.8/Reshape_1_output_0: 3bf4e829
/model.8/Mul_output_0: 3d002c63
/model.8/Slice_output_0: 3d32f9c1
/model.8/Slice_1_output_0: 3c9aa076
/model.8/Concat_2_output_0: 3d002c63
/model.8/Add_output_0: 3d58bdcd
/Slice_2_output_0: 3d57115d
/Slice_3_output_0: 3d42fad6
/model.9/cv1/conv/Conv_output_0: 3d5f44de
/model.9/cv1/act/Sigmoid_output_0: 3c06d71c
/model.9/cv1/act/Mul_output_0: 3d020081
/model.9/Split_output_0: 3d27740d
/model.9/Split_output_1: 3cd29e00
/model.9/m.0/cv1/conv/Conv_output_0: 3d60230d
/model.9/m.0/cv1/act/Sigmoid_output_0: 3c014d09
/model.9/m.0/cv1/act/Mul_output_0: 3d024e02
/model.9/m.0/cv2/conv/Conv_output_0: 3d5e5604
/model.9/m.0/cv2/act/Sigmoid_output_0: 3c00c551
/model.9/m.0/cv2/act/Mul_output_0: 3d133856
/model.9/m.0/Add_output_0: 3d64f781
/model.9/m.1/cv1/conv/Conv_output_0: 3d7acc45
/model.9/m.1/cv1/act/Sigmoid_output_0: 3c00c775
/model.9/m.1/cv1/act/Mul_output_0: 3cea6a29
/model.9/m.1/cv2/conv/Conv_output_0: 3da4099a
/model.9/m.1/cv2/act/Sigmoid_output_0: 3c063c72
/model.9/m.1/cv2/act/Mul_output_0: 3d6cdb71
/model.9/m.1/Add_output_0: 3db3ef56
/model.9/Concat_output_0: 3d434883
/model.9/cv2/conv/Conv_output_0: 3d93d0fa
/model.9/cv2/act/Sigmoid_output_0: 3c02130e
/model.9/cv2/act/Mul_output_0: 3ce90d88
/model.10/conv/Conv_output_0: 3d7dd1b1
/model.10/act/Sigmoid_output_0: 3c00ead3
/model.10/act/Mul_output_0: 3d255ec4
/model.11/cv1/conv/Conv_output_0: 3d865529
/model.11/cv1/act/Sigmoid_output_0: 3bffbc32
/model.11/cv1/act/Mul_output_0: 3ce555a6
/model.11/Split_output_0: 3d015a2b
/model.11/Split_output_1: 3d0f8a8c
/model.11/m.0/spatial_mixing/Split_output_0: 3cff0c20
/model.11/m.0/spatial_mixing/Split_output_1: 3d0f8a8c
/model.11/m.0/spatial_mixing/partial_conv3/Conv_output_0: 3cdf3f80
/model.11/m.0/spatial_mixing/Concat_output_0: 3d0f8a8c
/model.11/m.0/mlp/mlp.0/conv/Conv_output_0: 3d298dff
/model.11/m.0/mlp/mlp.0/act/Sigmoid_output_0: 3c02210f
/model.11/m.0/mlp/mlp.0/act/Mul_output_0: 3cffe0c5
/model.11/m.1/spatial_mixing/Split_output_0: 3d003b6f
/model.11/m.1/spatial_mixing/Split_output_1: 3cb0ccd3
/model.11/m.1/spatial_mixing/partial_conv3/Conv_output_0: 3cc20dbf
/model.11/m.1/spatial_mixing/Concat_output_0: 3cfd6208
/model.11/m.1/mlp/mlp.0/conv/Conv_output_0: 3d695eb0
/model.11/m.1/mlp/mlp.0/act/Sigmoid_output_0: 3c020bfe
/model.11/m.1/mlp/mlp.0/act/Mul_output_0: 3d02490b
/model.11/Concat_output_0: 3d02490b
/model.11/cv2/conv/Conv_output_0: 3d0cec21
/model.11/cv2/act/Sigmoid_output_0: 3c0043c1
/model.11/cv2/act/Mul_output_0: 3d10b1fd
/model.12/conv/Conv_output_0: 3d437ef4
/model.12/act/Sigmoid_output_0: 3bffe9bc
/model.12/act/Mul_output_0: 3ce985c6
/Concat_1_output_0: 3d00a69c
/model.13/avg_pool/GlobalAveragePool_output_0: 3c5d453c
/model.13/Reshape_output_0: 3c5d453c
(Unnamed Layer* 369) [Constant]_output: 3a9fc97b
/model.13/fc/fc.0/MatMul_output_0: 3c8d27d3
/model.13/fc/fc.1/Relu_output_0: 3c8d27d3
(Unnamed Layer* 372) [Constant]_output: 3aa688a5
/model.13/fc/fc.2/MatMul_output_0: 3c1e1ba4
/model.13/fc/fc.3/Sigmoid_output_0: 3bcbae1c
/model.13/Reshape_1_output_0: 3bcbae1c
/model.13/Mul_output_0: 3c955521
/model.13/Slice_output_0: 3c6a7e0f
/model.13/Slice_1_output_0: 3cc80c9c
/model.13/Concat_2_output_0: 3c955521
/model.13/Add_output_0: 3d5861f8
/Slice_4_output_0: 3d58a53c
/Slice_5_output_0: 3d2d69ab
/model.14/cv1/conv/Conv_output_0: 3d8b188d
/model.14/cv1/act/Sigmoid_output_0: 3c00f034
/model.14/cv1/act/Mul_output_0: 3ce73001
/model.14/Split_output_0: 3ce73001
/model.14/Split_output_1: 3ceaccd2
/model.14/m.0/cv1/conv/Conv_output_0: 3d852685
/model.14/m.0/cv1/act/Sigmoid_output_0: 3c00e9bb
/model.14/m.0/cv1/act/Mul_output_0: 3d022af3
/model.14/m.0/cv2/conv/Conv_output_0: 3d838781
/model.14/m.0/cv2/act/Sigmoid_output_0: 3c00e8c9
/model.14/m.0/cv2/act/Mul_output_0: 3d006f9b
/model.14/m.0/Add_output_0: 3d645e49
/model.14/m.1/cv1/conv/Conv_output_0: 3d886eba
/model.14/m.1/cv1/act/Sigmoid_output_0: 3c00cb3e
/model.14/m.1/cv1/act/Mul_output_0: 3d021b56
/model.14/m.1/cv2/conv/Conv_output_0: 3d998db0
/model.14/m.1/cv2/act/Sigmoid_output_0: 3c0110d2
/model.14/m.1/cv2/act/Mul_output_0: 3d4554fe
/model.14/m.1/Add_output_0: 3d8e7ed5
/model.14/Concat_output_0: 3d24f994
/model.14/cv2/conv/Conv_output_0: 3d8b58ff
/model.14/cv2/act/Sigmoid_output_0: 3c00f130
/model.14/cv2/act/Mul_output_0: 3d2718ec
/model.15/conv/Conv_output_0: 3d67fe91
/model.15/act/Sigmoid_output_0: 3c00ddb5
/model.15/act/Mul_output_0: 3ce8aaef
/model.16/cv1/conv/Conv_output_0: 3d4f596b
/model.16/cv1/act/Sigmoid_output_0: 3c005129
/model.16/cv1/act/Mul_output_0: 3d028691
/model.16/Split_output_0: 3d11d88a
/model.16/Split_output_1: 3d028691
/model.16/m.0/spatial_mixing/Split_output_0: 3d028691
/model.16/m.0/spatial_mixing/Split_output_1: 3cd2fe60
/model.16/m.0/spatial_mixing/partial_conv3/Conv_output_0: 3cfac93d
/model.16/m.0/spatial_mixing/Concat_output_0: 3d00d801
/model.16/m.0/mlp/mlp.0/conv/Conv_output_0: 3d414389
/model.16/m.0/mlp/mlp.0/act/Sigmoid_output_0: 3c002869
/model.16/m.0/mlp/mlp.0/act/Mul_output_0: 3cd1d949
/model.16/m.1/spatial_mixing/Split_output_0: 3cd12084
/model.16/m.1/spatial_mixing/Split_output_1: 3cc1302e
/model.16/m.1/spatial_mixing/partial_conv3/Conv_output_0: 3cc186ee
/model.16/m.1/spatial_mixing/Concat_output_0: 3cc1302e
/model.16/m.1/mlp/mlp.0/conv/Conv_output_0: 3d690fab
/model.16/m.1/mlp/mlp.0/act/Sigmoid_output_0: 3c00701f
/model.16/m.1/mlp/mlp.0/act/Mul_output_0: 3d01ca32
/model.16/Concat_output_0: 3d028691
/model.16/cv2/conv/Conv_output_0: 3d4b931f
/model.16/cv2/act/Sigmoid_output_0: 3c014888
/model.16/cv2/act/Mul_output_0: 3ceabbe1
/model.17/conv/Conv_output_0: 3d3ecfa2
/model.17/act/Sigmoid_output_0: 3c007419
/model.17/act/Mul_output_0: 3cd35561
/Concat_2_output_0: 3ce8aaef
/model.18/avg_pool/GlobalAveragePool_output_0: 3c738189
/model.18/Reshape_output_0: 3c738189
(Unnamed Layer* 591) [Constant]_output: 3a11bb22
/model.18/fc/fc.0/MatMul_output_0: 3cee8621
/model.18/fc/fc.1/Relu_output_0: 3cee8621
(Unnamed Layer* 594) [Constant]_output: 3a462375
/model.18/fc/fc.2/MatMul_output_0: 3c3e9377
/model.18/fc/fc.3/Sigmoid_output_0: 3bd9ba29
/model.18/Reshape_1_output_0: 3bd9ba29
/model.18/Mul_output_0: 3cbf683a
/model.18/Slice_output_0: 3cabf13b
/model.18/Slice_1_output_0: 3cd1406a
/model.18/Concat_2_output_0: 3cbf683a
/model.18/Add_output_0: 3d335353
/Slice_6_output_0: 3d4d947a
/Slice_7_output_0: 3d31597c
/model.19/cv1/conv/Conv_output_0: 3d4d6781
/model.19/cv1/act/Sigmoid_output_0: 3c009c3b
/model.19/cv1/act/Mul_output_0: 3cb1a335
/model.19/Split_output_0: 3cd1ce86
/model.19/Split_output_1: 3cc15258
/model.19/m.0/cv1/conv/Conv_output_0: 3d730748
/model.19/m.0/cv1/act/Sigmoid_output_0: 3c00bc34
/model.19/m.0/cv1/act/Mul_output_0: 3cea8c07
/model.19/m.0/cv2/conv/Conv_output_0: 3d7c213b
/model.19/m.0/cv2/act/Sigmoid_output_0: 3c00ca47
/model.19/m.0/cv2/act/Mul_output_0: 3d0159db
/model.19/m.0/Add_output_0: 3d8023b3
/model.19/Concat_output_0: 3d10a44f
/model.19/cv2/conv/Conv_output_0: 3d59695b
/model.19/cv2/act/Sigmoid_output_0: 3c009206
/model.19/cv2/act/Mul_output_0: 3cd2d1b4
/model.20/cv1/conv/Conv_output_0: 3d580d53
/model.20/cv1/act/Sigmoid_output_0: 3c00ce73
/model.20/cv1/act/Mul_output_0: 3d0080b3
/model.20/m/MaxPool_output_0: 3d0080b3
/model.20/m_1/MaxPool_output_0: 3d0080b3
/model.20/m_2/MaxPool_output_0: 3d0080b3
/model.20/Concat_output_0: 3d65cca9
/model.20/cv2/conv/Conv_output_0: 3d7faba0
/model.20/cv2/act/Sigmoid_output_0: 3c00936a
/model.20/cv2/act/Mul_output_0: 3cd33e81
/model.21/cv1/conv/Conv_output_0: 3d4e13b3
/model.21/cv1/act/Sigmoid_output_0: 3c00db91
/model.21/cv1/act/Mul_output_0: 3d02977e
/model.21/Split_output_0: 3d00f38c
/model.21/Split_output_1: 3d02977e
/model.21/m.0/spatial_mixing/Split_output_0: 3d02977e
/model.21/m.0/spatial_mixing/Split_output_1: 3cbf9c80
/model.21/m.0/spatial_mixing/partial_conv3/Conv_output_0: 3d193bb8
/model.21/m.0/spatial_mixing/Concat_output_0: 3cbf9c80
/model.21/m.0/mlp/mlp.0/conv/Conv_output_0: 3d4cc61a
/model.21/m.0/mlp/mlp.0/act/Sigmoid_output_0: 3c00808c
/model.21/m.0/mlp/mlp.0/act/Mul_output_0: 3d001cae
/model.21/Concat_output_0: 3d02977e
/model.21/cv2/conv/Conv_output_0: 3d3f3d6d
/model.21/cv2/act/Sigmoid_output_0: 3c007e63
/model.21/cv2/act/Mul_output_0: 3ce6dcb8
/model.22/cv1/conv/Conv_output_0: 3d4c00bd
/model.22/cv1/act/Sigmoid_output_0: 3c00a606
/model.22/cv1/act/Mul_output_0: 3ce72a56
/model.22/m/MaxPool_output_0: 3ce72a56
/model.22/m_1/MaxPool_output_0: 3ce72a56
/model.22/m_2/MaxPool_output_0: 3ce72a56
/model.22/Concat_output_0: 3d6285a1
/model.22/cv2/conv/Conv_output_0: 3d73327e
/model.22/cv2/act/Sigmoid_output_0: 3c00966c
/model.22/cv2/act/Mul_output_0: 3cd271d9
/model.23/Add_output_0: 3d80498c
/model.24/Add_output_0: 3d8d1d33
/model.25/Add_output_0: 3d637aba
/model.26/Resize_output_0: 3d637aba
/model.27/Concat_output_0: 3d79d4c3
/model.28/cv1/conv/Conv_output_0: 3d7e8bfa
/model.28/cv1/act/Sigmoid_output_0: 3c00bd6d
/model.28/cv1/act/Mul_output_0: 3ce896f3
/model.28/Split_output_0: 3ce896f3
/model.28/Split_output_1: 3cd3c09c
/model.28/m.0/cv1/conv/Conv_output_0: 3d7194e0
/model.28/m.0/cv1/act/Sigmoid_output_0: 3c00ea49
/model.28/m.0/cv1/act/Mul_output_0: 3d033fee
/model.28/m.0/cv2/conv/Conv_output_0: 3d823723
/model.28/m.0/cv2/act/Sigmoid_output_0: 3c00f114
/model.28/m.0/cv2/act/Mul_output_0: 3d24dfcb
/model.28/Concat_output_0: 3ce6db75
/model.28/cv2/conv/Conv_output_0: 3d72fc3b
/model.28/cv2/act/Sigmoid_output_0: 3c00eaed
/model.28/cv2/act/Mul_output_0: 3d00dceb
/model.29/Resize_output_0: 3d00dceb
/model.30/Concat_output_0: 3d130b2d
/model.31/cv1/conv/Conv_output_0: 3d4b4427
/model.31/cv1/act/Sigmoid_output_0: 3c0076a7
/model.31/cv1/act/Mul_output_0: 3d02d35e
/model.31/Split_output_0: 3d280b54
/model.31/Split_output_1: 3cd39a52
/model.31/m.0/cv1/conv/Conv_output_0: 3d4607a9
/model.31/m.0/cv1/act/Sigmoid_output_0: 3c004288
/model.31/m.0/cv1/act/Mul_output_0: 3ce90b21
/model.31/m.0/cv2/conv/Conv_output_0: 3d8d63ff
/model.31/m.0/cv2/act/Sigmoid_output_0: 3c00ece5
/model.31/m.0/cv2/act/Mul_output_0: 3d42feed
/model.31/Concat_output_0: 3d270a58
/model.31/cv2/conv/Conv_output_0: 3da66507
/model.31/cv2/act/Sigmoid_output_0: 3c00eaee
/model.31/cv2/act/Mul_output_0: 3cc13d0f
/model.32/conv/Conv_output_0: 3da11d35
/model.32/act/Sigmoid_output_0: 3c0417e8
/model.32/act/Mul_output_0: 3d2861b6
/model.33/Concat_output_0: 3d2861b6
/model.34/cv1/conv/Conv_output_0: 3d7977cb
/model.34/cv1/act/Sigmoid_output_0: 3c010d8e
/model.34/cv1/act/Mul_output_0: 3d28bce7
/model.34/Split_output_0: 3d28bce7
/model.34/Split_output_1: 3d0208d1
/model.34/m.0/cv1/conv/Conv_output_0: 3d86ca0f
/model.34/m.0/cv1/act/Sigmoid_output_0: 3c011015
/model.34/m.0/cv1/act/Mul_output_0: 3d127022
/model.34/m.0/cv2/conv/Conv_output_0: 3d8939b9
/model.34/m.0/cv2/act/Sigmoid_output_0: 3c0211e5
/model.34/m.0/cv2/act/Mul_output_0: 3d112542
/model.34/Concat_output_0: 3d112542
/model.34/cv2/conv/Conv_output_0: 3d87dcbd
/model.34/cv2/act/Sigmoid_output_0: 3c00eef7
/model.34/cv2/act/Mul_output_0: 3d11f412
/model.35/conv/Conv_output_0: 3d2f84f5
/model.35/act/Sigmoid_output_0: 3c00b7f3
/model.35/act/Mul_output_0: 3cbfaa58
/model.36/Concat_output_0: 3d240ade
/model.37/cv1/conv/Conv_output_0: 3d0e1fbe
/model.37/cv1/act/Sigmoid_output_0: 3bff47c9
/model.37/cv1/act/Mul_output_0: 3cb101e4
/model.37/Split_output_0: 3c999336
/model.37/Split_output_1: 3cb101e4
/model.37/m.0/cv1/conv/Conv_output_0: 3d057572
/model.37/m.0/cv1/act/Sigmoid_output_0: 3bfe678e
/model.37/m.0/cv1/act/Mul_output_0: 3c99fb26
/model.37/m.0/cv2/conv/Conv_output_0: 3d01063e
/model.37/m.0/cv2/act/Sigmoid_output_0: 3bfeb71f
/model.37/m.0/cv2/act/Mul_output_0: 3ca636c2
/model.37/Concat_output_0: 3cb101e4
/model.37/cv2/conv/Conv_output_0: 3cfa3e62
/model.37/cv2/act/Sigmoid_output_0: 3c006d92
/model.37/cv2/act/Mul_output_0: 3cb44552
/model.38/cv2.0/cv2.0.0/conv/Conv_output_0: 3d9431e8
/model.38/cv2.0/cv2.0.0/act/Sigmoid_output_0: 3c007e51
/model.38/cv2.0/cv2.0.0/act/Mul_output_0: 3d128c2a
/model.38/cv2.0/cv2.0.1/conv/Conv_output_0: 3da8556d
/model.38/cv2.0/cv2.0.1/act/Sigmoid_output_0: 3c011210
/model.38/cv2.0/cv2.0.1/act/Mul_output_0: 3d3ff161
/model.38/cv2.0/cv2.0.2/Conv_output_0: 3e038ff3
/model.38/cv3.0/cv3.0.0/conv/Conv_output_0: 3dc720b4
/model.38/cv3.0/cv3.0.0/act/Sigmoid_output_0: 3c011203
/model.38/cv3.0/cv3.0.0/act/Mul_output_0: 3cc0aca4
/model.38/cv3.0/cv3.0.1/conv/Conv_output_0: 3e411d3a
/model.38/cv3.0/cv3.0.1/act/Sigmoid_output_0: 3c010a14
/model.38/cv3.0/cv3.0.1/act/Mul_output_0: 3d841c25
/model.38/cv3.0/cv3.0.2/Conv_output_0: 3f160d4a
/model.38/Concat_output_0: 3eab03aa
/model.38/cv2.1/cv2.1.0/conv/Conv_output_0: 3d81c176
/model.38/cv2.1/cv2.1.0/act/Sigmoid_output_0: 3c00ef19
/model.38/cv2.1/cv2.1.0/act/Mul_output_0: 3d2754e1
/model.38/cv2.1/cv2.1.1/conv/Conv_output_0: 3dc9f3e2
/model.38/cv2.1/cv2.1.1/act/Sigmoid_output_0: 3c010a14
/model.38/cv2.1/cv2.1.1/act/Mul_output_0: 3d418b25
/model.38/cv2.1/cv2.1.2/Conv_output_0: 3dcc76fd
/model.38/cv3.1/cv3.1.0/conv/Conv_output_0: 3da64646
/model.38/cv3.1/cv3.1.0/act/Sigmoid_output_0: 3c010fbe
/model.38/cv3.1/cv3.1.0/act/Mul_output_0: 3cd1c649
/model.38/cv3.1/cv3.1.1/conv/Conv_output_0: 3dfc0e26
/model.38/cv3.1/cv3.1.1/act/Sigmoid_output_0: 3c021427
/model.38/cv3.1/cv3.1.1/act/Mul_output_0: 3d24cf65
/model.38/cv3.1/cv3.1.2/Conv_output_0: 3e9b6434
/model.38/Concat_1_output_0: 3e54f0f0
/model.38/cv2.2/cv2.2.0/conv/Conv_output_0: 3d1dde8b
/model.38/cv2.2/cv2.2.0/act/Sigmoid_output_0: 3c01e071
/model.38/cv2.2/cv2.2.0/act/Mul_output_0: 3ca4a0cd
/model.38/cv2.2/cv2.2.1/conv/Conv_output_0: 3d28099d
/model.38/cv2.2/cv2.2.1/act/Sigmoid_output_0: 3c01cb6e
/model.38/cv2.2/cv2.2.1/act/Mul_output_0: 3cf26e98
/model.38/cv2.2/cv2.2.2/Conv_output_0: 3c39a0f3
/model.38/cv3.2/cv3.2.0/conv/Conv_output_0: 3d006c24
/model.38/cv3.2/cv3.2.0/act/Sigmoid_output_0: 3c00d796
/model.38/cv3.2/cv3.2.0/act/Mul_output_0: 3c6ae433
/model.38/cv3.2/cv3.2.1/conv/Conv_output_0: 3ca740dd
/model.38/cv3.2/cv3.2.1/act/Sigmoid_output_0: 3bee7f46
/model.38/cv3.2/cv3.2.1/act/Mul_output_0: 3c9c7b7a
/model.38/cv3.2/cv3.2.2/Conv_output_0: 3dc67514
/model.38/Concat_2_output_0: 3dc41af2
/model.38/Reshape_output_0: 3eab03aa
/model.38/Reshape_1_output_0: 3e54f0f0
/model.38/Reshape_2_output_0: 3dc41af2
/model.38/Concat_6_output_0: 3e88b1c9
(Unnamed Layer* 967) [Constant]_output: 3e810a14
/model.38/Split_output_0: 3d810a14
/model.38/Split_output_1: 3e010a14
/model.38/Split_output_2: 3e810a14
/model.38/Range_output_0: 3f1f4871
(Unnamed Layer* 991) [Shuffle]_output: 3c010a14
(Unnamed Layer* 993) [Shuffle]_output: 3b810a14
/model.38/Add_output_0: 3f204a85
/model.38/Range_1_output_0: 3f1f4871
(Unnamed Layer* 1006) [Shuffle]_output: 3c010a14
(Unnamed Layer* 1008) [Shuffle]_output: 3b810a14
/model.38/Add_1_output_0: 3f204a85
/model.38/Reshape_5_output_0: 3f204a85
/model.38/Expand_output_0: 3f204a85
/model.38/Reshape_6_output_0: 3f204a85
/model.38/Expand_1_output_0: 3f204a85
/model.38/Unsqueeze_3_output_0: 3f204a85
/model.38/Unsqueeze_4_output_0: 3f204a85
/model.38/Concat_10_output_0: 3f204a85
/model.38/Reshape_7_output_0: 3f204a85
(Unnamed Layer* 1059) [Constant]_output: 0
(Unnamed Layer* 1060) [Shuffle]_output: 0
/model.38/ConstantOfShape_output_0: 0
(Unnamed Layer* 1063) [Shuffle]_output: 3d810a14
/model.38/Add_2_output_0: 3d810a14
/model.38/Range_2_output_0: 3e9d4449
(Unnamed Layer* 1082) [Shuffle]_output: 3c010a14
(Unnamed Layer* 1084) [Shuffle]_output: 3b810a14
/model.38/Add_3_output_0: 3e9f4871
/model.38/Range_3_output_0: 3e9d4449
(Unnamed Layer* 1097) [Shuffle]_output: 3c010a14
(Unnamed Layer* 1099) [Shuffle]_output: 3b810a14
/model.38/Add_4_output_0: 3e9f4871
/model.38/Reshape_10_output_0: 3e9f4871
/model.38/Expand_2_output_0: 3e9f4871
/model.38/Reshape_11_output_0: 3e9f4871
/model.38/Expand_3_output_0: 3e9f4871
/model.38/Unsqueeze_6_output_0: 3e9f4871
/model.38/Unsqueeze_7_output_0: 3e9f4871
/model.38/Concat_15_output_0: 3e9f4871
/model.38/Reshape_12_output_0: 3e9f4871
(Unnamed Layer* 1150) [Constant]_output: 0
(Unnamed Layer* 1151) [Shuffle]_output: 0
/model.38/ConstantOfShape_1_output_0: 0
(Unnamed Layer* 1154) [Shuffle]_output: 3e010a14
/model.38/Add_5_output_0: 3e010a14
/model.38/Range_4_output_0: 3e193bf8
(Unnamed Layer* 1173) [Shuffle]_output: 3c010a14
(Unnamed Layer* 1175) [Shuffle]_output: 3b810a14
/model.38/Add_6_output_0: 3e1d4449
/model.38/Range_5_output_0: 3e193bf8
(Unnamed Layer* 1188) [Shuffle]_output: 3c010a14
(Unnamed Layer* 1190) [Shuffle]_output: 3b810a14
/model.38/Add_7_output_0: 3e1d4449
/model.38/Reshape_15_output_0: 3e1d4449
/model.38/Expand_4_output_0: 3e1d4449
/model.38/Reshape_16_output_0: 3e1d4449
/model.38/Expand_5_output_0: 3e1d4449
/model.38/Unsqueeze_9_output_0: 3e1d4449
/model.38/Unsqueeze_10_output_0: 3e1d4449
/model.38/Concat_20_output_0: 3e1d4449
/model.38/Reshape_17_output_0: 3e1d4449
(Unnamed Layer* 1241) [Constant]_output: 0
(Unnamed Layer* 1242) [Shuffle]_output: 0
/model.38/ConstantOfShape_2_output_0: 0
(Unnamed Layer* 1245) [Shuffle]_output: 3e810a14
/model.38/Add_8_output_0: 3e810a14
/model.38/Concat_22_output_0: 3f204a85
/model.38/Concat_23_output_0: 3e810a14
/model.38/Transpose_output_0: 3f204a85
/model.38/Transpose_1_output_0: 3e810a14
/model.38/Split_1_output_0: 3dd91baa
/model.38/Split_1_output_1: 3ef1fe7a
/model.38/dfl/Reshape_output_0: 3dd91baa
/model.38/dfl/Transpose_output_0: 3dd91baa
(Unnamed Layer* 1274) [Softmax]_output: 3bd6e4aa
/model.38/dfl/conv/Conv_output_0: 3d9de8b4
/model.38/dfl/Reshape_1_output_0: 3d9de8b4
/model.38/Unsqueeze_12_output_0: 3f204a85
/model.38/Slice_output_0: 3d9fd2b3
/model.38/Slice_1_output_0: 3d751a9a
/model.38/Sub_output_0: 3f1ffa78
/model.38/Add_10_output_0: 3f21a7c3
/model.38/Add_11_output_0: 3fa0a822
(Unnamed Layer* 1357) [Shuffle]_output: 3c810a14
/model.38/Div_1_output_0: 3f20a822
/model.38/Sub_1_output_0: 3df49e81
/model.38/Concat_24_output_0: 3f232a73
(Unnamed Layer* 1364) [Shuffle]_output: 3e810a14
/model.38/Mul_5_output_0: 40a5d4e8
/model.38/Sigmoid_output_0: 3be48ef9
output0: 40a5d4e8
