TRT-8503-EntropyCalibration2
images: 3bf80000
/Slice_output_0: 3bf80000
/Slice_1_output_0: 3bf80000
/model.0/conv/Conv_output_0: 3e391654
/model.0/act/Sigmoid_output_0: 3c010a14
/model.0/act/Mul_output_0: 3d64740f
/model.1/conv/Conv_output_0: 3dd5ebab
/model.1/act/Sigmoid_output_0: 3c0068d2
/model.1/act/Mul_output_0: 3d0236e4
/model.2/cv1/conv/Conv_output_0: 3d80845b
/model.2/cv1/act/Sigmoid_output_0: 3c02b565
/model.2/cv1/act/Mul_output_0: 3d0f24b1
/model.2/Split_output_0: 3d12b489
/model.2/Split_output_1: 3c6b860d
/model.2/m.0/cv1/conv/Conv_output_0: 3d195de5
/model.2/m.0/cv1/act/Sigmoid_output_0: 3bffaf57
/model.2/m.0/cv1/act/Mul_output_0: 3cbf0bbb
/model.2/m.0/cv2/conv/Conv_output_0: 3dafe853
/model.2/m.0/cv2/act/Sigmoid_output_0: 3c010a14
/model.2/m.0/cv2/act/Mul_output_0: 3d36fc65
/model.2/m.0/Add_output_0: 3d5cb14d
/model.2/Concat_output_0: 3d0f6f6a
/model.2/cv2/conv/Conv_output_0: 3d40a1b4
/model.2/cv2/act/Sigmoid_output_0: 3bff9ca7
/model.2/cv2/act/Mul_output_0: 3d13bd2c
/model.3/conv/Conv_output_0: 3ce67c3a
/model.3/act/Sigmoid_output_0: 3c005fc6
/model.3/act/Mul_output_0: 3ca56a12
/model.4/conv/Conv_output_0: 3d9ec722
/model.4/act/Sigmoid_output_0: 3c010a14
/model.4/act/Mul_output_0: 3d6aa5b8
/model.5/conv/Conv_output_0: 3d8253ae
/model.5/act/Sigmoid_output_0: 3c010a14
/model.5/act/Mul_output_0: 3d265f4e
/model.6/cv1/conv/Conv_output_0: 3d88e57e
/model.6/cv1/act/Sigmoid_output_0: 3c03f7ed
/model.6/cv1/act/Mul_output_0: 3d8923ef
/model.6/Split_output_0: 3d4506cf
/model.6/Split_output_1: 3d1deb51
/model.6/m.0/spatial_mixing/Split_output_0: 3d41ca94
/model.6/m.0/spatial_mixing/Split_output_1: 3d097f1f
/model.6/m.0/spatial_mixing/partial_conv3/Conv_output_0: 3d06dd3a
/model.6/m.0/spatial_mixing/Concat_output_0: 3d1ede7d
/model.6/m.0/mlp/mlp.0/conv/Conv_output_0: 3d9f07eb
/model.6/m.0/mlp/mlp.0/act/Sigmoid_output_0: 3c00303d
/model.6/m.0/mlp/mlp.0/act/Mul_output_0: 3cfed9cc
/model.6/Concat_output_0: 3d401d81
/model.6/cv2/conv/Conv_output_0: 3d5d85a6
/model.6/cv2/act/Sigmoid_output_0: 3c072c27
/model.6/cv2/act/Mul_output_0: 3d1003b5
/model.7/conv/Conv_output_0: 3d426ee8
/model.7/act/Sigmoid_output_0: 3c03342d
/model.7/act/Mul_output_0: 3d25ac5b
/Concat_output_0: 3d25ac5b
/model.8/avg_pool/GlobalAveragePool_output_0: 3cf60195
/model.8/Reshape_output_0: 3cf60195
(Unnamed Layer* 147) [Constant]_output: 3b807a16
/model.8/fc/fc.0/MatMul_output_0: 3ce28bba
/model.8/fc/fc.1/Relu_output_0: 3d08645d
(Unnamed Layer* 150) [Constant]_output: 3b3beb0e
/model.8/fc/fc.2/MatMul_output_0: 3c7ba685
/model.8/fc/fc.3/Sigmoid_output_0: 3bde3880
/model.8/Reshape_1_output_0: 3bde3880
/model.8/Mul_output_0: 3cf86122
/model.8/Slice_output_0: 3d2e585e
/model.8/Slice_1_output_0: 3c986d3e
/model.8/Concat_2_output_0: 3cf86122
/model.8/Add_output_0: 3d6a0067
/Slice_2_output_0: 3d56f70d
/Slice_3_output_0: 3d2eae9d
/model.9/cv1/conv/Conv_output_0: 3d5d8c76
/model.9/cv1/act/Sigmoid_output_0: 3c06dd02
/model.9/cv1/act/Mul_output_0: 3d274d5c
/model.9/Split_output_0: 3d274d5c
/model.9/Split_output_1: 3ce5cd9c
/model.9/m.0/cv1/conv/Conv_output_0: 3d5eee52
/model.9/m.0/cv1/act/Sigmoid_output_0: 3c00cadb
/model.9/m.0/cv1/act/Mul_output_0: 3cd435b5
/model.9/m.0/cv2/conv/Conv_output_0: 3d5e9afd
/model.9/m.0/cv2/act/Sigmoid_output_0: 3c00a8d3
/model.9/m.0/cv2/act/Mul_output_0: 3d016167
/model.9/m.0/Add_output_0: 3d65021f
/model.9/m.1/cv1/conv/Conv_output_0: 3d7a28f6
/model.9/m.1/cv1/act/Sigmoid_output_0: 3c00cb12
/model.9/m.1/cv1/act/Mul_output_0: 3cc27fc3
/model.9/m.1/cv2/conv/Conv_output_0: 3da432dd
/model.9/m.1/cv2/act/Sigmoid_output_0: 3c063c34
/model.9/m.1/cv2/act/Mul_output_0: 3d6d2721
/model.9/m.1/Add_output_0: 3db354c1
/model.9/Concat_output_0: 3d449ac9
/model.9/cv2/conv/Conv_output_0: 3d937d54
/model.9/cv2/act/Sigmoid_output_0: 3c0213c9
/model.9/cv2/act/Mul_output_0: 3cb1057a
/model.10/conv/Conv_output_0: 3d7c1a00
/model.10/act/Sigmoid_output_0: 3c00ef17
/model.10/act/Mul_output_0: 3d12a10e
/model.11/cv1/conv/Conv_output_0: 3d85ee46
/model.11/cv1/act/Sigmoid_output_0: 3bffb1d0
/model.11/cv1/act/Mul_output_0: 3d01b4fa
/model.11/Split_output_0: 3d013ff5
/model.11/Split_output_1: 3d0f9922
/model.11/m.0/spatial_mixing/Split_output_0: 3cffacd7
/model.11/m.0/spatial_mixing/Split_output_1: 3d2679e6
/model.11/m.0/spatial_mixing/partial_conv3/Conv_output_0: 3cddd7bf
/model.11/m.0/spatial_mixing/Concat_output_0: 3d019ad8
/model.11/m.0/mlp/mlp.0/conv/Conv_output_0: 3d2965ad
/model.11/m.0/mlp/mlp.0/act/Sigmoid_output_0: 3c009116
/model.11/m.0/mlp/mlp.0/act/Mul_output_0: 3ce6a788
/model.11/m.1/spatial_mixing/Split_output_0: 3cd1e1be
/model.11/m.1/spatial_mixing/Split_output_1: 3ce65d57
/model.11/m.1/spatial_mixing/partial_conv3/Conv_output_0: 3cc3420d
/model.11/m.1/spatial_mixing/Concat_output_0: 3ce65d57
/model.11/m.1/mlp/mlp.0/conv/Conv_output_0: 3d66e054
/model.11/m.1/mlp/mlp.0/act/Sigmoid_output_0: 3c0205b8
/model.11/m.1/mlp/mlp.0/act/Mul_output_0: 3ce563dd
/model.11/Concat_output_0: 3ce563dd
/model.11/cv2/conv/Conv_output_0: 3d0ce5d3
/model.11/cv2/act/Sigmoid_output_0: 3c003416
/model.11/cv2/act/Mul_output_0: 3ca52e81
/model.12/conv/Conv_output_0: 3d3bc2ef
/model.12/act/Sigmoid_output_0: 3bfffe29
/model.12/act/Mul_output_0: 3cc0e0a5
/Concat_1_output_0: 3d12a10e
/model.13/avg_pool/GlobalAveragePool_output_0: 3c689366
/model.13/Reshape_output_0: 3c689366
(Unnamed Layer* 369) [Constant]_output: 3a9fc97b
/model.13/fc/fc.0/MatMul_output_0: 3c905771
/model.13/fc/fc.1/Relu_output_0: 3c95c765
(Unnamed Layer* 372) [Constant]_output: 3aa688a5
/model.13/fc/fc.2/MatMul_output_0: 3c0d034b
/model.13/fc/fc.3/Sigmoid_output_0: 3bcdfdf2
/model.13/Reshape_1_output_0: 3bcdfdf2
/model.13/Mul_output_0: 3c97ac6e
/model.13/Slice_output_0: 3c67cb3b
/model.13/Slice_1_output_0: 3cc8f479
/model.13/Concat_2_output_0: 3c97ac6e
/model.13/Add_output_0: 3d5c352e
/Slice_4_output_0: 3d5b9f5a
/Slice_5_output_0: 3d1fbb27
/model.14/cv1/conv/Conv_output_0: 3d87cf19
/model.14/cv1/act/Sigmoid_output_0: 3c00d182
/model.14/cv1/act/Mul_output_0: 3cc0954f
/model.14/Split_output_0: 3d108915
/model.14/Split_output_1: 3c9992ab
/model.14/m.0/cv1/conv/Conv_output_0: 3d87f774
/model.14/m.0/cv1/act/Sigmoid_output_0: 3c00ed3b
/model.14/m.0/cv1/act/Mul_output_0: 3d0301b9
/model.14/m.0/cv2/conv/Conv_output_0: 3d752c06
/model.14/m.0/cv2/act/Sigmoid_output_0: 3c00eacd
/model.14/m.0/cv2/act/Mul_output_0: 3d0099b7
/model.14/m.0/Add_output_0: 3d50ac03
/model.14/m.1/cv1/conv/Conv_output_0: 3d8dea4b
/model.14/m.1/cv1/act/Sigmoid_output_0: 3c00d25c
/model.14/m.1/cv1/act/Mul_output_0: 3d02b6b7
/model.14/m.1/cv2/conv/Conv_output_0: 3d96e625
/model.14/m.1/cv2/act/Sigmoid_output_0: 3c00f124
/model.14/m.1/cv2/act/Mul_output_0: 3d2620d3
/model.14/m.1/Add_output_0: 3d8e7bcb
/model.14/Concat_output_0: 3d108915
/model.14/cv2/conv/Conv_output_0: 3d8c3419
/model.14/cv2/act/Sigmoid_output_0: 3c00f1ac
/model.14/cv2/act/Mul_output_0: 3d0072d2
/model.15/conv/Conv_output_0: 3d66d2f5
/model.15/act/Sigmoid_output_0: 3c00e850
/model.15/act/Mul_output_0: 3cff41ae
/model.16/cv1/conv/Conv_output_0: 3d69e0c8
/model.16/cv1/act/Sigmoid_output_0: 3c004bd0
/model.16/cv1/act/Mul_output_0: 3d0290c2
/model.16/Split_output_0: 3d0290c2
/model.16/Split_output_1: 3ce9b19a
/model.16/m.0/spatial_mixing/Split_output_0: 3ce9b19a
/model.16/m.0/spatial_mixing/Split_output_1: 3d01ca5a
/model.16/m.0/spatial_mixing/partial_conv3/Conv_output_0: 3cf85054
/model.16/m.0/spatial_mixing/Concat_output_0: 3d01ca5a
/model.16/m.0/mlp/mlp.0/conv/Conv_output_0: 3d4137d4
/model.16/m.0/mlp/mlp.0/act/Sigmoid_output_0: 3c003446
/model.16/m.0/mlp/mlp.0/act/Mul_output_0: 3ce747db
/model.16/m.1/spatial_mixing/Split_output_0: 3ce747db
/model.16/m.1/spatial_mixing/Split_output_1: 3cd4d5c6
/model.16/m.1/spatial_mixing/partial_conv3/Conv_output_0: 3cc27bd7
/model.16/m.1/spatial_mixing/Concat_output_0: 3cd4d5c6
/model.16/m.1/mlp/mlp.0/conv/Conv_output_0: 3d6993d4
/model.16/m.1/mlp/mlp.0/act/Sigmoid_output_0: 3c008b92
/model.16/m.1/mlp/mlp.0/act/Mul_output_0: 3cc0add8
/model.16/Concat_output_0: 3cc0add8
/model.16/cv2/conv/Conv_output_0: 3d4b0475
/model.16/cv2/act/Sigmoid_output_0: 3c0140a7
/model.16/cv2/act/Mul_output_0: 3cb13bae
/model.17/conv/Conv_output_0: 3d3dcc89
/model.17/act/Sigmoid_output_0: 3c0084d9
/model.17/act/Mul_output_0: 3ceb53d5
/Concat_2_output_0: 3cff41ae
/model.18/avg_pool/GlobalAveragePool_output_0: 3c71c898
/model.18/Reshape_output_0: 3c71c898
(Unnamed Layer* 591) [Constant]_output: 3a11bb22
/model.18/fc/fc.0/MatMul_output_0: 3ce83e71
/model.18/fc/fc.1/Relu_output_0: 3d007e59
(Unnamed Layer* 594) [Constant]_output: 3a462375
/model.18/fc/fc.2/MatMul_output_0: 3c3c079c
/model.18/fc/fc.3/Sigmoid_output_0: 3bdcb55f
/model.18/Reshape_1_output_0: 3bdcb55f
/model.18/Mul_output_0: 3caa05cd
/model.18/Slice_output_0: 3cc0d8da
/model.18/Slice_1_output_0: 3caef21d
/model.18/Concat_2_output_0: 3caa05cd
/model.18/Add_output_0: 3d2b4c2f
/Slice_6_output_0: 3d48540c
/Slice_7_output_0: 3d2806ea
/model.19/cv1/conv/Conv_output_0: 3d5050b8
/model.19/cv1/act/Sigmoid_output_0: 3c009bce
/model.19/cv1/act/Mul_output_0: 3cc1e151
/model.19/Split_output_0: 3ce83d9c
/model.19/Split_output_1: 3cc1e151
/model.19/m.0/cv1/conv/Conv_output_0: 3d6a3b32
/model.19/m.0/cv1/act/Sigmoid_output_0: 3c00ad2e
/model.19/m.0/cv1/act/Mul_output_0: 3ce9638f
/model.19/m.0/cv2/conv/Conv_output_0: 3d81847c
/model.19/m.0/cv2/act/Sigmoid_output_0: 3c00dc08
/model.19/m.0/cv2/act/Mul_output_0: 3d11492c
/model.19/m.0/Add_output_0: 3d7d5799
/model.19/Concat_output_0: 3d2618c1
/model.19/cv2/conv/Conv_output_0: 3d532cd2
/model.19/cv2/act/Sigmoid_output_0: 3c00af43
/model.19/cv2/act/Mul_output_0: 3cea91ac
/model.20/cv1/conv/Conv_output_0: 3d56fb01
/model.20/cv1/act/Sigmoid_output_0: 3c00d2a2
/model.20/cv1/act/Mul_output_0: 3cffa122
/model.20/m/MaxPool_output_0: 3cffa122
/model.20/m_1/MaxPool_output_0: 3cffa122
/model.20/m_2/MaxPool_output_0: 3cffa122
/model.20/Concat_output_0: 3d65e429
/model.20/cv2/conv/Conv_output_0: 3d82c9c7
/model.20/cv2/act/Sigmoid_output_0: 3c00a808
/model.20/cv2/act/Mul_output_0: 3cc04711
/model.21/cv1/conv/Conv_output_0: 3d46b274
/model.21/cv1/act/Sigmoid_output_0: 3c00a84a
/model.21/cv1/act/Mul_output_0: 3cc0d580
/model.21/Split_output_0: 3cc0d580
/model.21/Split_output_1: 3ce5e7ac
/model.21/m.0/spatial_mixing/Split_output_0: 3ce5e7ac
/model.21/m.0/spatial_mixing/Split_output_1: 3cc0ef7b
/model.21/m.0/spatial_mixing/partial_conv3/Conv_output_0: 3d186250
/model.21/m.0/spatial_mixing/Concat_output_0: 3ce74cf6
/model.21/m.0/mlp/mlp.0/conv/Conv_output_0: 3d4aec66
/model.21/m.0/mlp/mlp.0/act/Sigmoid_output_0: 3c00435e
/model.21/m.0/mlp/mlp.0/act/Mul_output_0: 3ce76ae1
/model.21/Concat_output_0: 3cc0d580
/model.21/cv2/conv/Conv_output_0: 3d3e6781
/model.21/cv2/act/Sigmoid_output_0: 3c00a6e4
/model.21/cv2/act/Mul_output_0: 3cbfc9cc
/model.22/cv1/conv/Conv_output_0: 3d492544
/model.22/cv1/act/Sigmoid_output_0: 3c00b604
/model.22/cv1/act/Mul_output_0: 3d021556
/model.22/m/MaxPool_output_0: 3d021556
/model.22/m_1/MaxPool_output_0: 3d021556
/model.22/m_2/MaxPool_output_0: 3d021556
/model.22/Concat_output_0: 3d65f574
/model.22/cv2/conv/Conv_output_0: 3d5eb7d7
/model.22/cv2/act/Sigmoid_output_0: 3c00794a
/model.22/cv2/act/Mul_output_0: 3cc09795
/model.23/Add_output_0: 3d800b67
/model.24/Add_output_0: 3d8d01dc
/model.25/Add_output_0: 3d64a1f3
/model.26/Resize_output_0: 3d64a1f3
/model.27/Concat_output_0: 3d77c0e2
/model.28/cv1/conv/Conv_output_0: 3d7da5b6
/model.28/cv1/act/Sigmoid_output_0: 3c00bae2
/model.28/cv1/act/Mul_output_0: 3d023b10
/model.28/Split_output_0: 3d023b10
/model.28/Split_output_1: 3cd35f9d
/model.28/m.0/cv1/conv/Conv_output_0: 3d796243
/model.28/m.0/cv1/act/Sigmoid_output_0: 3c00ebe8
/model.28/m.0/cv1/act/Mul_output_0: 3d031c0b
/model.28/m.0/cv2/conv/Conv_output_0: 3d8363d3
/model.28/m.0/cv2/act/Sigmoid_output_0: 3c00e5e5
/model.28/m.0/cv2/act/Mul_output_0: 3d0dc098
/model.28/Concat_output_0: 3ce5a570
/model.28/cv2/conv/Conv_output_0: 3d728792
/model.28/cv2/act/Sigmoid_output_0: 3c00f083
/model.28/cv2/act/Mul_output_0: 3d138b69
/model.29/Resize_output_0: 3d138b69
/model.30/Concat_output_0: 3d28c61d
/model.31/cv1/conv/Conv_output_0: 3d487b7d
/model.31/cv1/act/Sigmoid_output_0: 3c00778a
/model.31/cv1/act/Mul_output_0: 3cd1bda3
/model.31/Split_output_0: 3d001326
/model.31/Split_output_1: 3ce6d8c4
/model.31/m.0/cv1/conv/Conv_output_0: 3d4ca01c
/model.31/m.0/cv1/act/Sigmoid_output_0: 3c002ed7
/model.31/m.0/cv1/act/Mul_output_0: 3cd4365a
/model.31/m.0/cv2/conv/Conv_output_0: 3d8c160c
/model.31/m.0/cv2/act/Sigmoid_output_0: 3c00e6be
/model.31/m.0/cv2/act/Mul_output_0: 3d4167d3
/model.31/Concat_output_0: 3d1115ec
/model.31/cv2/conv/Conv_output_0: 3dac99fc
/model.31/cv2/act/Sigmoid_output_0: 3c00e9e2
/model.31/cv2/act/Mul_output_0: 3d02743b
/model.32/conv/Conv_output_0: 3d9d3ed9
/model.32/act/Sigmoid_output_0: 3c041775
/model.32/act/Mul_output_0: 3d26ca32
/model.33/Concat_output_0: 3d26ca32
/model.34/cv1/conv/Conv_output_0: 3d793aef
/model.34/cv1/act/Sigmoid_output_0: 3c010c8c
/model.34/cv1/act/Mul_output_0: 3d004cc3
/model.34/Split_output_0: 3d004cc3
/model.34/Split_output_1: 3cc0c6cd
/model.34/m.0/cv1/conv/Conv_output_0: 3d855270
/model.34/m.0/cv1/act/Sigmoid_output_0: 3c01105f
/model.34/m.0/cv1/act/Mul_output_0: 3ce5f141
/model.34/m.0/cv2/conv/Conv_output_0: 3d86cb05
/model.34/m.0/cv2/act/Sigmoid_output_0: 3c011043
/model.34/m.0/cv2/act/Mul_output_0: 3d13c78e
/model.34/Concat_output_0: 3d13c78e
/model.34/cv2/conv/Conv_output_0: 3d83c8cd
/model.34/cv2/act/Sigmoid_output_0: 3c00eefd
/model.34/cv2/act/Mul_output_0: 3d1214fb
/model.35/conv/Conv_output_0: 3d3b5872
/model.35/act/Sigmoid_output_0: 3c01fff6
/model.35/act/Mul_output_0: 3cc3012a
/model.36/Concat_output_0: 3d24be11
/model.37/cv1/conv/Conv_output_0: 3d10e7d0
/model.37/cv1/act/Sigmoid_output_0: 3c006b14
/model.37/cv1/act/Mul_output_0: 3cb14950
/model.37/Split_output_0: 3cb14950
/model.37/Split_output_1: 3cc16f74
/model.37/m.0/cv1/conv/Conv_output_0: 3d065ab1
/model.37/m.0/cv1/act/Sigmoid_output_0: 3c00800e
/model.37/m.0/cv1/act/Mul_output_0: 3ca5c58a
/model.37/m.0/cv2/conv/Conv_output_0: 3d091695
/model.37/m.0/cv2/act/Sigmoid_output_0: 3bfddb05
/model.37/m.0/cv2/act/Mul_output_0: 3c8058a8
/model.37/Concat_output_0: 3cb14950
/model.37/cv2/conv/Conv_output_0: 3cfb23ce
/model.37/cv2/act/Sigmoid_output_0: 3c00f9e2
/model.37/cv2/act/Mul_output_0: 3cc23af0
/model.38/cv2.0/cv2.0.0/conv/Conv_output_0: 3d8ebe01
/model.38/cv2.0/cv2.0.0/act/Sigmoid_output_0: 3c00665f
/model.38/cv2.0/cv2.0.0/act/Mul_output_0: 3cd1378f
/model.38/cv2.0/cv2.0.1/conv/Conv_output_0: 3da78a7b
/model.38/cv2.0/cv2.0.1/act/Sigmoid_output_0: 3c01121d
/model.38/cv2.0/cv2.0.1/act/Mul_output_0: 3d46221f
/model.38/cv2.0/cv2.0.2/Conv_output_0: 3e0415f4
/model.38/cv3.0/cv3.0.0/conv/Conv_output_0: 3dc5d990
/model.38/cv3.0/cv3.0.0/act/Sigmoid_output_0: 3c0111f3
/model.38/cv3.0/cv3.0.0/act/Mul_output_0: 3d018535
/model.38/cv3.0/cv3.0.1/conv/Conv_output_0: 3e431010
/model.38/cv3.0/cv3.0.1/act/Sigmoid_output_0: 3c010a14
/model.38/cv3.0/cv3.0.1/act/Mul_output_0: 3d9680bd
/model.38/cv3.0/cv3.0.2/Conv_output_0: 3f136cc3
/model.38/Concat_output_0: 3ea850a3
/model.38/cv2.1/cv2.1.0/conv/Conv_output_0: 3d813e68
/model.38/cv2.1/cv2.1.0/act/Sigmoid_output_0: 3c00ee63
/model.38/cv2.1/cv2.1.0/act/Mul_output_0: 3d28cc92
/model.38/cv2.1/cv2.1.1/conv/Conv_output_0: 3dcf2d5f
/model.38/cv2.1/cv2.1.1/act/Sigmoid_output_0: 3c010a14
/model.38/cv2.1/cv2.1.1/act/Mul_output_0: 3d422fd2
/model.38/cv2.1/cv2.1.2/Conv_output_0: 3dcf8112
/model.38/cv3.1/cv3.1.0/conv/Conv_output_0: 3daf3256
/model.38/cv3.1/cv3.1.0/act/Sigmoid_output_0: 3c010e52
/model.38/cv3.1/cv3.1.0/act/Mul_output_0: 3d020810
/model.38/cv3.1/cv3.1.1/conv/Conv_output_0: 3df0e7d9
/model.38/cv3.1/cv3.1.1/act/Sigmoid_output_0: 3c021425
/model.38/cv3.1/cv3.1.1/act/Mul_output_0: 3d24add0
/model.38/cv3.1/cv3.1.2/Conv_output_0: 3e944d99
/model.38/Concat_1_output_0: 3e54c4b2
/model.38/cv2.2/cv2.2.0/conv/Conv_output_0: 3d12cb19
/model.38/cv2.2/cv2.2.0/act/Sigmoid_output_0: 3c01d070
/model.38/cv2.2/cv2.2.0/act/Mul_output_0: 3ce6f3be
/model.38/cv2.2/cv2.2.1/conv/Conv_output_0: 3d2303fb
/model.38/cv2.2/cv2.2.1/act/Sigmoid_output_0: 3c040346
/model.38/cv2.2/cv2.2.1/act/Mul_output_0: 3d21d593
/model.38/cv2.2/cv2.2.2/Conv_output_0: 3c1d2c47
/model.38/cv3.2/cv3.2.0/conv/Conv_output_0: 3ccb7868
/model.38/cv3.2/cv3.2.0/act/Sigmoid_output_0: 3c00ed60
/model.38/cv3.2/cv3.2.0/act/Mul_output_0: 3c7231be
/model.38/cv3.2/cv3.2.1/conv/Conv_output_0: 3cadb53b
/model.38/cv3.2/cv3.2.1/act/Sigmoid_output_0: 3bee8d52
/model.38/cv3.2/cv3.2.1/act/Mul_output_0: 3ca296bc
/model.38/cv3.2/cv3.2.2/Conv_output_0: 3dc66cef
/model.38/Concat_2_output_0: 3dc34d60
/model.38/Reshape_output_0: 3ea850a3
/model.38/Reshape_1_output_0: 3e54c4b2
/model.38/Reshape_2_output_0: 3dc34d60
/model.38/Concat_6_output_0: 3e932b47
(Unnamed Layer* 967) [Constant]_output: 3e810a14
/model.38/Split_output_0: 3d810a14
/model.38/Split_output_1: 3e010a14
/model.38/Split_output_2: 3e810a14
/model.38/Range_output_0: 3f1f4871
(Unnamed Layer* 991) [Shuffle]_output: 3c010a14
(Unnamed Layer* 993) [Shuffle]_output: 3b810a14
/model.38/Add_output_0: 3f204a85
/model.38/Range_1_output_0: 3f1f4871
(Unnamed Layer* 1006) [Shuffle]_output: 3c010a14
(Unnamed Layer* 1008) [Shuffle]_output: 3b810a14
/model.38/Add_1_output_0: 3f204a85
/model.38/Reshape_5_output_0: 3f204a85
/model.38/Expand_output_0: 3f204a85
/model.38/Reshape_6_output_0: 3f204a85
/model.38/Expand_1_output_0: 3f204a85
/model.38/Unsqueeze_3_output_0: 3f204a85
/model.38/Unsqueeze_4_output_0: 3f204a85
/model.38/Concat_10_output_0: 3f204a85
/model.38/Reshape_7_output_0: 3f204a85
(Unnamed Layer* 1059) [Constant]_output: 0
(Unnamed Layer* 1060) [Shuffle]_output: 0
/model.38/ConstantOfShape_output_0: 0
(Unnamed Layer* 1063) [Shuffle]_output: 3d810a14
/model.38/Add_2_output_0: 3d810a14
/model.38/Range_2_output_0: 3e9d4449
(Unnamed Layer* 1082) [Shuffle]_output: 3c010a14
(Unnamed Layer* 1084) [Shuffle]_output: 3b810a14
/model.38/Add_3_output_0: 3e9f4871
/model.38/Range_3_output_0: 3e9d4449
(Unnamed Layer* 1097) [Shuffle]_output: 3c010a14
(Unnamed Layer* 1099) [Shuffle]_output: 3b810a14
/model.38/Add_4_output_0: 3e9f4871
/model.38/Reshape_10_output_0: 3e9f4871
/model.38/Expand_2_output_0: 3e9f4871
/model.38/Reshape_11_output_0: 3e9f4871
/model.38/Expand_3_output_0: 3e9f4871
/model.38/Unsqueeze_6_output_0: 3e9f4871
/model.38/Unsqueeze_7_output_0: 3e9f4871
/model.38/Concat_15_output_0: 3e9f4871
/model.38/Reshape_12_output_0: 3e9f4871
(Unnamed Layer* 1150) [Constant]_output: 0
(Unnamed Layer* 1151) [Shuffle]_output: 0
/model.38/ConstantOfShape_1_output_0: 0
(Unnamed Layer* 1154) [Shuffle]_output: 3e010a14
/model.38/Add_5_output_0: 3e010a14
/model.38/Range_4_output_0: 3e193bf8
(Unnamed Layer* 1173) [Shuffle]_output: 3c010a14
(Unnamed Layer* 1175) [Shuffle]_output: 3b810a14
/model.38/Add_6_output_0: 3e1d4449
/model.38/Range_5_output_0: 3e193bf8
(Unnamed Layer* 1188) [Shuffle]_output: 3c010a14
(Unnamed Layer* 1190) [Shuffle]_output: 3b810a14
/model.38/Add_7_output_0: 3e1d4449
/model.38/Reshape_15_output_0: 3e1d4449
/model.38/Expand_4_output_0: 3e1d4449
/model.38/Reshape_16_output_0: 3e1d4449
/model.38/Expand_5_output_0: 3e1d4449
/model.38/Unsqueeze_9_output_0: 3e1d4449
/model.38/Unsqueeze_10_output_0: 3e1d4449
/model.38/Concat_20_output_0: 3e1d4449
/model.38/Reshape_17_output_0: 3e1d4449
(Unnamed Layer* 1241) [Constant]_output: 0
(Unnamed Layer* 1242) [Shuffle]_output: 0
/model.38/ConstantOfShape_2_output_0: 0
(Unnamed Layer* 1245) [Shuffle]_output: 3e810a14
/model.38/Add_8_output_0: 3e810a14
/model.38/Concat_22_output_0: 3f204a85
/model.38/Concat_23_output_0: 3e810a14
/model.38/Transpose_output_0: 3f204a85
/model.38/Transpose_1_output_0: 3e810a14
/model.38/Split_1_output_0: 3dd8e5ab
/model.38/Split_1_output_1: 3ee8c6ab
/model.38/dfl/Reshape_output_0: 3dd8e5ab
/model.38/dfl/Transpose_output_0: 3dd8e5ab
(Unnamed Layer* 1274) [Softmax]_output: 3bd52adc
/model.38/dfl/conv/Conv_output_0: 3d9cee87
/model.38/dfl/Reshape_1_output_0: 3d9cee87
/model.38/Unsqueeze_12_output_0: 3f204a85
/model.38/Slice_output_0: 3d9cee87
/model.38/Slice_1_output_0: 3d750a6b
/model.38/Sub_output_0: 3f1fe1e9
/model.38/Add_10_output_0: 3f218f9d
/model.38/Add_11_output_0: 3fa0c424
(Unnamed Layer* 1357) [Shuffle]_output: 3c810a14
/model.38/Div_1_output_0: 3f20c424
/model.38/Sub_1_output_0: 3df46508
/model.38/Concat_24_output_0: 3f29de1d
(Unnamed Layer* 1364) [Shuffle]_output: 3e810a14
/model.38/Mul_5_output_0: 40a5f1d1
/model.38/Sigmoid_output_0: 3be3e827
output0: 40a5f1d1
