TRT-8503-EntropyCalibration2
images: 3bf80000
/Slice_output_0: 3bf80000
/Slice_1_output_0: 3bf80000
/model.0/conv/Conv_output_0: 3e015481
/model.0/act/Sigmoid_output_0: 3c010a14
/model.0/act/Mul_output_0: 3d802810
/model.1/conv/Conv_output_0: 3dae327d
/model.1/act/Sigmoid_output_0: 3c0068d2
/model.1/act/Mul_output_0: 3d00db8e
/model.2/cv1/conv/Conv_output_0: 3d7046c2
/model.2/cv1/act/Sigmoid_output_0: 3bfecd9b
/model.2/cv1/act/Mul_output_0: 3d0b4aa2
/model.2/Split_output_0: 3d135547
/model.2/Split_output_1: 3c6be338
/model.2/m.0/cv1/conv/Conv_output_0: 3d61e621
/model.2/m.0/cv1/act/Sigmoid_output_0: 3c03769c
/model.2/m.0/cv1/act/Mul_output_0: 3cd2f58e
/model.2/m.0/cv2/conv/Conv_output_0: 3d6b3dea
/model.2/m.0/cv2/act/Sigmoid_output_0: 3c010a14
/model.2/m.0/cv2/act/Mul_output_0: 3d207855
/model.2/m.0/Add_output_0: 3ddea55a
/model.2/Concat_output_0: 3d401135
/model.2/cv2/conv/Conv_output_0: 3d4dafce
/model.2/cv2/act/Sigmoid_output_0: 3bff9e22
/model.2/cv2/act/Mul_output_0: 3c6ea7aa
/model.3/conv/Conv_output_0: 3ce86cae
/model.3/act/Sigmoid_output_0: 3c005ed6
/model.3/act/Mul_output_0: 3cb0ffda
/model.4/conv/Conv_output_0: 3db6e168
/model.4/act/Sigmoid_output_0: 3c010a14
/model.4/act/Mul_output_0: 3d7db90a
/model.5/conv/Conv_output_0: 3d7807b9
/model.5/act/Sigmoid_output_0: 3c010a14
/model.5/act/Mul_output_0: 3d251031
/model.6/cv1/conv/Conv_output_0: 3d825b55
/model.6/cv1/act/Sigmoid_output_0: 3c010a14
/model.6/cv1/act/Mul_output_0: 3d638926
/model.6/Split_output_0: 3d39ef5d
/model.6/Split_output_1: 3d407a78
/model.6/m.0/spatial_mixing/Split_output_0: 3d419d3f
/model.6/m.0/spatial_mixing/Split_output_1: 3d6c7933
/model.6/m.0/spatial_mixing/partial_conv3/Conv_output_0: 3cde82a2
/model.6/m.0/spatial_mixing/Concat_output_0: 3d116757
/model.6/m.0/mlp/mlp.0/conv/Conv_output_0: 3d7c16ba
/model.6/m.0/mlp/mlp.0/act/Sigmoid_output_0: 3c003056
/model.6/m.0/mlp/mlp.0/act/Mul_output_0: 3ccfc79c
/model.6/Concat_output_0: 3d638926
/model.6/cv2/conv/Conv_output_0: 3d91d666
/model.6/cv2/act/Sigmoid_output_0: 3c07165b
/model.6/cv2/act/Mul_output_0: 3cbbd194
/model.7/conv/Conv_output_0: 3d2dadc8
/model.7/act/Sigmoid_output_0: 3c033459
/model.7/act/Mul_output_0: 3d260b5b
/Concat_output_0: 3d260b5b
/model.8/avg_pool/GlobalAveragePool_output_0: 3ce68c1e
/model.8/Reshape_output_0: 3ce68c1e
(Unnamed Layer* 147) [Constant]_output: 3b807a16
/model.8/fc/fc.0/MatMul_output_0: 3ce963fd
/model.8/fc/fc.1/Relu_output_0: 3d0aadcb
(Unnamed Layer* 150) [Constant]_output: 3b3beb0e
/model.8/fc/fc.2/MatMul_output_0: 3c6ae6f3
/model.8/fc/fc.3/Sigmoid_output_0: 3be518a3
/model.8/Reshape_1_output_0: 3be518a3
/model.8/Mul_output_0: 3cf75700
/model.8/Slice_output_0: 3d2e2d0b
/model.8/Slice_1_output_0: 3c9c62f0
/model.8/Concat_2_output_0: 3cf75700
/model.8/Add_output_0: 3d69e155
/Slice_2_output_0: 3d575de8
/Slice_3_output_0: 3d2e976c
/model.9/cv1/conv/Conv_output_0: 3d5e50d2
/model.9/cv1/act/Sigmoid_output_0: 3c06dca6
/model.9/cv1/act/Mul_output_0: 3d128497
/model.9/Split_output_0: 3d128497
/model.9/Split_output_1: 3ce87180
/model.9/m.0/cv1/conv/Conv_output_0: 3d6d2d0b
/model.9/m.0/cv1/act/Sigmoid_output_0: 3c04a4b2
/model.9/m.0/cv1/act/Mul_output_0: 3ce8b450
/model.9/m.0/cv2/conv/Conv_output_0: 3d5dcbf3
/model.9/m.0/cv2/act/Sigmoid_output_0: 3c00aa23
/model.9/m.0/cv2/act/Mul_output_0: 3d003cfa
/model.9/m.0/Add_output_0: 3d515da6
/model.9/m.1/cv1/conv/Conv_output_0: 3d7beb9d
/model.9/m.1/cv1/act/Sigmoid_output_0: 3c00cf90
/model.9/m.1/cv1/act/Mul_output_0: 3cd4c978
/model.9/m.1/cv2/conv/Conv_output_0: 3da48a08
/model.9/m.1/cv2/act/Sigmoid_output_0: 3c075e91
/model.9/m.1/cv2/act/Mul_output_0: 3d6a95bb
/model.9/m.1/Add_output_0: 3dbb17fb
/model.9/Concat_output_0: 3d251376
/model.9/cv2/conv/Conv_output_0: 3d92813f
/model.9/cv2/act/Sigmoid_output_0: 3c02138e
/model.9/cv2/act/Mul_output_0: 3d299db6
/model.10/conv/Conv_output_0: 3d865f89
/model.10/act/Sigmoid_output_0: 3c00ef99
/model.10/act/Mul_output_0: 3d10d6b2
/model.11/cv1/conv/Conv_output_0: 3d87040f
/model.11/cv1/act/Sigmoid_output_0: 3bffaf9b
/model.11/cv1/act/Mul_output_0: 3d011786
/model.11/Split_output_0: 3d01671b
/model.11/Split_output_1: 3d1170f6
/model.11/m.0/spatial_mixing/Split_output_0: 3cff26b7
/model.11/m.0/spatial_mixing/Split_output_1: 3d011786
/model.11/m.0/spatial_mixing/partial_conv3/Conv_output_0: 3cd061d4
/model.11/m.0/spatial_mixing/Concat_output_0: 3d011786
/model.11/m.0/mlp/mlp.0/conv/Conv_output_0: 3d2faecc
/model.11/m.0/mlp/mlp.0/act/Sigmoid_output_0: 3c0089be
/model.11/m.0/mlp/mlp.0/act/Mul_output_0: 3d002b22
/model.11/m.1/spatial_mixing/Split_output_0: 3cd241b3
/model.11/m.1/spatial_mixing/Split_output_1: 3d10deca
/model.11/m.1/spatial_mixing/partial_conv3/Conv_output_0: 3cc2b1ce
/model.11/m.1/spatial_mixing/Concat_output_0: 3d107c37
/model.11/m.1/mlp/mlp.0/conv/Conv_output_0: 3d691431
/model.11/m.1/mlp/mlp.0/act/Sigmoid_output_0: 3c020d4a
/model.11/m.1/mlp/mlp.0/act/Mul_output_0: 3d00ec6a
/model.11/Concat_output_0: 3d0130d1
/model.11/cv2/conv/Conv_output_0: 3d0d11f5
/model.11/cv2/act/Sigmoid_output_0: 3c006a68
/model.11/cv2/act/Mul_output_0: 3d10db82
/model.12/conv/Conv_output_0: 3d4381d1
/model.12/act/Sigmoid_output_0: 3bfff393
/model.12/act/Mul_output_0: 3cc14de6
/Concat_1_output_0: 3d10d6b2
/model.13/avg_pool/GlobalAveragePool_output_0: 3c7723ef
/model.13/Reshape_output_0: 3c7723ef
(Unnamed Layer* 369) [Constant]_output: 3a9fc97b
/model.13/fc/fc.0/MatMul_output_0: 3c8947a8
/model.13/fc/fc.1/Relu_output_0: 3c969a6d
(Unnamed Layer* 372) [Constant]_output: 3aa688a5
/model.13/fc/fc.2/MatMul_output_0: 3c0e1405
/model.13/fc/fc.3/Sigmoid_output_0: 3bcb8fbe
/model.13/Reshape_1_output_0: 3bcb8fbe
/model.13/Mul_output_0: 3cae6d94
/model.13/Slice_output_0: 3c7f0107
/model.13/Slice_1_output_0: 3cc9d743
/model.13/Concat_2_output_0: 3cae6d94
/model.13/Add_output_0: 3d57c9a5
/Slice_4_output_0: 3d5a2acb
/Slice_5_output_0: 3d2c4342
/model.14/cv1/conv/Conv_output_0: 3d876cf0
/model.14/cv1/act/Sigmoid_output_0: 3c00f1a3
/model.14/cv1/act/Mul_output_0: 3d29a0d3
/model.14/Split_output_0: 3d29a0d3
/model.14/Split_output_1: 3cd27504
/model.14/m.0/cv1/conv/Conv_output_0: 3d884b5c
/model.14/m.0/cv1/act/Sigmoid_output_0: 3c00eaac
/model.14/m.0/cv1/act/Mul_output_0: 3d005556
/model.14/m.0/cv2/conv/Conv_output_0: 3d85e17a
/model.14/m.0/cv2/act/Sigmoid_output_0: 3c00e380
/model.14/m.0/cv2/act/Mul_output_0: 3ce6aff8
/model.14/m.0/Add_output_0: 3d65056b
/model.14/m.1/cv1/conv/Conv_output_0: 3d8bd25c
/model.14/m.1/cv1/act/Sigmoid_output_0: 3c00e46b
/model.14/m.1/cv1/act/Mul_output_0: 3ce8aa26
/model.14/m.1/cv2/conv/Conv_output_0: 3d9bb0a2
/model.14/m.1/cv2/act/Sigmoid_output_0: 3c010fe7
/model.14/m.1/cv2/act/Mul_output_0: 3d112d2e
/model.14/m.1/Add_output_0: 3d83e610
/model.14/Concat_output_0: 3d41ba78
/model.14/cv2/conv/Conv_output_0: 3d9168c9
/model.14/cv2/act/Sigmoid_output_0: 3c00f1c9
/model.14/cv2/act/Mul_output_0: 3d12b3e4
/model.15/conv/Conv_output_0: 3d6b16fe
/model.15/act/Sigmoid_output_0: 3c00e9b6
/model.15/act/Mul_output_0: 3d021fd8
/model.16/cv1/conv/Conv_output_0: 3d69488a
/model.16/cv1/act/Sigmoid_output_0: 3c00559b
/model.16/cv1/act/Mul_output_0: 3ce99ed6
/model.16/Split_output_0: 3d122fbb
/model.16/Split_output_1: 3ce99e64
/model.16/m.0/spatial_mixing/Split_output_0: 3ce99e64
/model.16/m.0/spatial_mixing/Split_output_1: 3cd372e6
/model.16/m.0/spatial_mixing/partial_conv3/Conv_output_0: 3cfa2480
/model.16/m.0/spatial_mixing/Concat_output_0: 3d013d0f
/model.16/m.0/mlp/mlp.0/conv/Conv_output_0: 3d40088f
/model.16/m.0/mlp/mlp.0/act/Sigmoid_output_0: 3c00200c
/model.16/m.0/mlp/mlp.0/act/Mul_output_0: 3cc06483
/model.16/m.1/spatial_mixing/Split_output_0: 3ce83381
/model.16/m.1/spatial_mixing/Split_output_1: 3cc06483
/model.16/m.1/spatial_mixing/partial_conv3/Conv_output_0: 3cc0f767
/model.16/m.1/spatial_mixing/Concat_output_0: 3cc06483
/model.16/m.1/mlp/mlp.0/conv/Conv_output_0: 3d692b52
/model.16/m.1/mlp/mlp.0/act/Sigmoid_output_0: 3c0062bf
/model.16/m.1/mlp/mlp.0/act/Mul_output_0: 3d011ecb
/model.16/Concat_output_0: 3d011ecb
/model.16/cv2/conv/Conv_output_0: 3d4ae520
/model.16/cv2/act/Sigmoid_output_0: 3c0127d4
/model.16/cv2/act/Mul_output_0: 3ce95f2d
/model.17/conv/Conv_output_0: 3d3eeae3
/model.17/act/Sigmoid_output_0: 3c00bb59
/model.17/act/Mul_output_0: 3d029995
/Concat_2_output_0: 3d021fd8
/model.18/avg_pool/GlobalAveragePool_output_0: 3c6f7119
/model.18/Reshape_output_0: 3c6f7119
(Unnamed Layer* 591) [Constant]_output: 3a11bb22
/model.18/fc/fc.0/MatMul_output_0: 3cef35e4
/model.18/fc/fc.1/Relu_output_0: 3cef35e4
(Unnamed Layer* 594) [Constant]_output: 3a462375
/model.18/fc/fc.2/MatMul_output_0: 3c3c9c0d
/model.18/fc/fc.3/Sigmoid_output_0: 3bdcaba4
/model.18/Reshape_1_output_0: 3bdcaba4
/model.18/Mul_output_0: 3cac4d4a
/model.18/Slice_output_0: 3c9c20c9
/model.18/Slice_1_output_0: 3cac4d4a
/model.18/Concat_2_output_0: 3cac4d4a
/model.18/Add_output_0: 3d30afb9
/Slice_6_output_0: 3d342025
/Slice_7_output_0: 3d238f0c
/model.19/cv1/conv/Conv_output_0: 3d4a4dbc
/model.19/cv1/act/Sigmoid_output_0: 3c009cb5
/model.19/cv1/act/Mul_output_0: 3ce7d75a
/model.19/Split_output_0: 3cd50f1e
/model.19/Split_output_1: 3ce7d75a
/model.19/m.0/cv1/conv/Conv_output_0: 3d6b2c67
/model.19/m.0/cv1/act/Sigmoid_output_0: 3c00e621
/model.19/m.0/cv1/act/Mul_output_0: 3cb13941
/model.19/m.0/cv2/conv/Conv_output_0: 3d6f5368
/model.19/m.0/cv2/act/Sigmoid_output_0: 3c00d026
/model.19/m.0/cv2/act/Mul_output_0: 3d125ca2
/model.19/m.0/Add_output_0: 3d805f32
/model.19/Concat_output_0: 3d2572d2
/model.19/cv2/conv/Conv_output_0: 3d4dc1d8
/model.19/cv2/act/Sigmoid_output_0: 3c007f53
/model.19/cv2/act/Mul_output_0: 3ce65fbe
/model.20/cv1/conv/Conv_output_0: 3d538571
/model.20/cv1/act/Sigmoid_output_0: 3c00d55f
/model.20/cv1/act/Mul_output_0: 3d0029b7
/model.20/m/MaxPool_output_0: 3d0029b7
/model.20/m_1/MaxPool_output_0: 3d0029b7
/model.20/m_2/MaxPool_output_0: 3d0029b7
/model.20/Concat_output_0: 3d6612ef
/model.20/cv2/conv/Conv_output_0: 3d80b856
/model.20/cv2/act/Sigmoid_output_0: 3c00bf87
/model.20/cv2/act/Mul_output_0: 3ceb1959
/model.21/cv1/conv/Conv_output_0: 3d412247
/model.21/cv1/act/Sigmoid_output_0: 3c0095f0
/model.21/cv1/act/Mul_output_0: 3d022f15
/model.21/Split_output_0: 3ce84ad0
/model.21/Split_output_1: 3cd5119c
/model.21/m.0/spatial_mixing/Split_output_0: 3d022f15
/model.21/m.0/spatial_mixing/Split_output_1: 3cd14783
/model.21/m.0/spatial_mixing/partial_conv3/Conv_output_0: 3d128ad0
/model.21/m.0/spatial_mixing/Concat_output_0: 3cd14783
/model.21/m.0/mlp/mlp.0/conv/Conv_output_0: 3d4d5d23
/model.21/m.0/mlp/mlp.0/act/Sigmoid_output_0: 3c00920b
/model.21/m.0/mlp/mlp.0/act/Mul_output_0: 3cc0b6a5
/model.21/Concat_output_0: 3d022f15
/model.21/cv2/conv/Conv_output_0: 3d3a459c
/model.21/cv2/act/Sigmoid_output_0: 3c0058b2
/model.21/cv2/act/Mul_output_0: 3cc060ba
/model.22/cv1/conv/Conv_output_0: 3d464082
/model.22/cv1/act/Sigmoid_output_0: 3c00a1ff
/model.22/cv1/act/Mul_output_0: 3d0024a2
/model.22/m/MaxPool_output_0: 3d0024a2
/model.22/m_1/MaxPool_output_0: 3d0024a2
/model.22/m_2/MaxPool_output_0: 3d0024a2
/model.22/Concat_output_0: 3d65fece
/model.22/cv2/conv/Conv_output_0: 3d6c9c83
/model.22/cv2/act/Sigmoid_output_0: 3c0089fd
/model.22/cv2/act/Mul_output_0: 3cd43bc3
/model.23/Add_output_0: 3d8e8a59
/model.24/Add_output_0: 3d8fb41d
/model.25/Add_output_0: 3d6699f4
/model.26/Resize_output_0: 3d6699f4
/model.27/Concat_output_0: 3d808c84
/model.28/cv1/conv/Conv_output_0: 3d7de06d
/model.28/cv1/act/Sigmoid_output_0: 3c00b5e0
/model.28/cv1/act/Mul_output_0: 3d01fddb
/model.28/Split_output_0: 3d01fddb
/model.28/Split_output_1: 3d023688
/model.28/m.0/cv1/conv/Conv_output_0: 3d72f2b3
/model.28/m.0/cv1/act/Sigmoid_output_0: 3c00e842
/model.28/m.0/cv1/act/Mul_output_0: 3ce8d2ed
/model.28/m.0/cv2/conv/Conv_output_0: 3d76178c
/model.28/m.0/cv2/act/Sigmoid_output_0: 3c00ee5c
/model.28/m.0/cv2/act/Mul_output_0: 3d28a3b9
/model.28/Concat_output_0: 3d033233
/model.28/cv2/conv/Conv_output_0: 3d6f388f
/model.28/cv2/act/Sigmoid_output_0: 3c00d0ed
/model.28/cv2/act/Mul_output_0: 3ce9a30b
/model.29/Resize_output_0: 3ce9a30b
/model.30/Concat_output_0: 3d2762a6
/model.31/cv1/conv/Conv_output_0: 3d4d447c
/model.31/cv1/act/Sigmoid_output_0: 3c007a42
/model.31/cv1/act/Mul_output_0: 3d021924
/model.31/Split_output_0: 3d276660
/model.31/Split_output_1: 3cd30614
/model.31/m.0/cv1/conv/Conv_output_0: 3d481708
/model.31/m.0/cv1/act/Sigmoid_output_0: 3c0030d2
/model.31/m.0/cv1/act/Mul_output_0: 3cd4f849
/model.31/m.0/cv2/conv/Conv_output_0: 3d877f6d
/model.31/m.0/cv2/act/Sigmoid_output_0: 3c00e709
/model.31/m.0/cv2/act/Mul_output_0: 3d41fcde
/model.31/Concat_output_0: 3d1185ba
/model.31/cv2/conv/Conv_output_0: 3db03496
/model.31/cv2/act/Sigmoid_output_0: 3c01687d
/model.31/cv2/act/Mul_output_0: 3ce9e4e6
/model.32/conv/Conv_output_0: 3d9e2562
/model.32/act/Sigmoid_output_0: 3c0111df
/model.32/act/Mul_output_0: 3d28bfcb
/model.33/Concat_output_0: 3d28bfcb
/model.34/cv1/conv/Conv_output_0: 3d842cf6
/model.34/cv1/act/Sigmoid_output_0: 3c010d95
/model.34/cv1/act/Mul_output_0: 3d28dc8f
/model.34/Split_output_0: 3d27d054
/model.34/Split_output_1: 3d035e2c
/model.34/m.0/cv1/conv/Conv_output_0: 3d86fabd
/model.34/m.0/cv1/act/Sigmoid_output_0: 3c0111a3
/model.34/m.0/cv1/act/Mul_output_0: 3d011fbe
/model.34/m.0/cv2/conv/Conv_output_0: 3d87c8d6
/model.34/m.0/cv2/act/Sigmoid_output_0: 3c01113d
/model.34/m.0/cv2/act/Mul_output_0: 3d1470c1
/model.34/Concat_output_0: 3d1470c1
/model.34/cv2/conv/Conv_output_0: 3d824e27
/model.34/cv2/act/Sigmoid_output_0: 3c00f00a
/model.34/cv2/act/Mul_output_0: 3d1407eb
/model.35/conv/Conv_output_0: 3d315508
/model.35/act/Sigmoid_output_0: 3c00acc4
/model.35/act/Mul_output_0: 3c99477e
/model.36/Concat_output_0: 3d408fa9
/model.37/cv1/conv/Conv_output_0: 3d0fc168
/model.37/cv1/act/Sigmoid_output_0: 3c0041b9
/model.37/cv1/act/Mul_output_0: 3cc181c6
/model.37/Split_output_0: 3cc181c6
/model.37/Split_output_1: 3cb19793
/model.37/m.0/cv1/conv/Conv_output_0: 3d095617
/model.37/m.0/cv1/act/Sigmoid_output_0: 3bffb7e4
/model.37/m.0/cv1/act/Mul_output_0: 3ca57fdc
/model.37/m.0/cv2/conv/Conv_output_0: 3d062ff4
/model.37/m.0/cv2/act/Sigmoid_output_0: 3c009169
/model.37/m.0/cv2/act/Mul_output_0: 3c91fcab
/model.37/Concat_output_0: 3cd6defe
/model.37/cv2/conv/Conv_output_0: 3cf50c0b
/model.37/cv2/act/Sigmoid_output_0: 3c0094f3
/model.37/cv2/act/Mul_output_0: 3ca6d5ed
/model.38/cv2.0/cv2.0.0/conv/Conv_output_0: 3d902c97
/model.38/cv2.0/cv2.0.0/act/Sigmoid_output_0: 3c0077f7
/model.38/cv2.0/cv2.0.0/act/Mul_output_0: 3d0060bb
/model.38/cv2.0/cv2.0.1/conv/Conv_output_0: 3da75cde
/model.38/cv2.0/cv2.0.1/act/Sigmoid_output_0: 3c011219
/model.38/cv2.0/cv2.0.1/act/Mul_output_0: 3d3b55c2
/model.38/cv2.0/cv2.0.2/Conv_output_0: 3e01fbf0
/model.38/cv3.0/cv3.0.0/conv/Conv_output_0: 3dbe593a
/model.38/cv3.0/cv3.0.0/act/Sigmoid_output_0: 3c0111ed
/model.38/cv3.0/cv3.0.0/act/Mul_output_0: 3cb1d867
/model.38/cv3.0/cv3.0.1/conv/Conv_output_0: 3e6d4567
/model.38/cv3.0/cv3.0.1/act/Sigmoid_output_0: 3c010a14
/model.38/cv3.0/cv3.0.1/act/Mul_output_0: 3d84992a
/model.38/cv3.0/cv3.0.2/Conv_output_0: 3f108ef2
/model.38/Concat_output_0: 3ea13de6
/model.38/cv2.1/cv2.1.0/conv/Conv_output_0: 3d7e4bb4
/model.38/cv2.1/cv2.1.0/act/Sigmoid_output_0: 3c00eb68
/model.38/cv2.1/cv2.1.0/act/Mul_output_0: 3d270155
/model.38/cv2.1/cv2.1.1/conv/Conv_output_0: 3db7893e
/model.38/cv2.1/cv2.1.1/act/Sigmoid_output_0: 3c010a14
/model.38/cv2.1/cv2.1.1/act/Mul_output_0: 3d4232d5
/model.38/cv2.1/cv2.1.2/Conv_output_0: 3dcc284a
/model.38/cv3.1/cv3.1.0/conv/Conv_output_0: 3da6a1cc
/model.38/cv3.1/cv3.1.0/act/Sigmoid_output_0: 3c010f3c
/model.38/cv3.1/cv3.1.0/act/Mul_output_0: 3d121100
/model.38/cv3.1/cv3.1.1/conv/Conv_output_0: 3de6c6d4
/model.38/cv3.1/cv3.1.1/act/Sigmoid_output_0: 3c010a14
/model.38/cv3.1/cv3.1.1/act/Mul_output_0: 3d41fcc4
/model.38/cv3.1/cv3.1.2/Conv_output_0: 3e961258
/model.38/Concat_1_output_0: 3e5c1ae7
/model.38/cv2.2/cv2.2.0/conv/Conv_output_0: 3d171562
/model.38/cv2.2/cv2.2.0/act/Sigmoid_output_0: 3c01f0c4
/model.38/cv2.2/cv2.2.0/act/Mul_output_0: 3cdb2ddb
/model.38/cv2.2/cv2.2.1/conv/Conv_output_0: 3d331770
/model.38/cv2.2/cv2.2.1/act/Sigmoid_output_0: 3c01efbb
/model.38/cv2.2/cv2.2.1/act/Mul_output_0: 3cd1e581
/model.38/cv2.2/cv2.2.2/Conv_output_0: 3c28d34e
/model.38/cv3.2/cv3.2.0/conv/Conv_output_0: 3ce3639a
/model.38/cv3.2/cv3.2.0/act/Sigmoid_output_0: 3c012b71
/model.38/cv3.2/cv3.2.0/act/Mul_output_0: 3c89d1f1
/model.38/cv3.2/cv3.2.1/conv/Conv_output_0: 3cacceb3
/model.38/cv3.2/cv3.2.1/act/Sigmoid_output_0: 3bef0b91
/model.38/cv3.2/cv3.2.1/act/Mul_output_0: 3ca199dd
/model.38/cv3.2/cv3.2.2/Conv_output_0: 3dc6a54e
/model.38/Concat_2_output_0: 3dc3b625
/model.38/Reshape_output_0: 3ea13de6
/model.38/Reshape_1_output_0: 3e5c1ae7
/model.38/Reshape_2_output_0: 3dc3b625
/model.38/Concat_6_output_0: 3e984b55
(Unnamed Layer* 967) [Constant]_output: 3e810a14
/model.38/Split_output_0: 3d810a14
/model.38/Split_output_1: 3e010a14
/model.38/Split_output_2: 3e810a14
/model.38/Range_output_0: 3f1f4871
(Unnamed Layer* 991) [Shuffle]_output: 3c010a14
(Unnamed Layer* 993) [Shuffle]_output: 3b810a14
/model.38/Add_output_0: 3f204a85
/model.38/Range_1_output_0: 3f1f4871
(Unnamed Layer* 1006) [Shuffle]_output: 3c010a14
(Unnamed Layer* 1008) [Shuffle]_output: 3b810a14
/model.38/Add_1_output_0: 3f204a85
/model.38/Reshape_5_output_0: 3f204a85
/model.38/Expand_output_0: 3f204a85
/model.38/Reshape_6_output_0: 3f204a85
/model.38/Expand_1_output_0: 3f204a85
/model.38/Unsqueeze_3_output_0: 3f204a85
/model.38/Unsqueeze_4_output_0: 3f204a85
/model.38/Concat_10_output_0: 3f204a85
/model.38/Reshape_7_output_0: 3f204a85
(Unnamed Layer* 1059) [Constant]_output: 0
(Unnamed Layer* 1060) [Shuffle]_output: 0
/model.38/ConstantOfShape_output_0: 0
(Unnamed Layer* 1063) [Shuffle]_output: 3d810a14
/model.38/Add_2_output_0: 3d810a14
/model.38/Range_2_output_0: 3e9d4449
(Unnamed Layer* 1082) [Shuffle]_output: 3c010a14
(Unnamed Layer* 1084) [Shuffle]_output: 3b810a14
/model.38/Add_3_output_0: 3e9f4871
/model.38/Range_3_output_0: 3e9d4449
(Unnamed Layer* 1097) [Shuffle]_output: 3c010a14
(Unnamed Layer* 1099) [Shuffle]_output: 3b810a14
/model.38/Add_4_output_0: 3e9f4871
/model.38/Reshape_10_output_0: 3e9f4871
/model.38/Expand_2_output_0: 3e9f4871
/model.38/Reshape_11_output_0: 3e9f4871
/model.38/Expand_3_output_0: 3e9f4871
/model.38/Unsqueeze_6_output_0: 3e9f4871
/model.38/Unsqueeze_7_output_0: 3e9f4871
/model.38/Concat_15_output_0: 3e9f4871
/model.38/Reshape_12_output_0: 3e9f4871
(Unnamed Layer* 1150) [Constant]_output: 0
(Unnamed Layer* 1151) [Shuffle]_output: 0
/model.38/ConstantOfShape_1_output_0: 0
(Unnamed Layer* 1154) [Shuffle]_output: 3e010a14
/model.38/Add_5_output_0: 3e010a14
/model.38/Range_4_output_0: 3e193bf8
(Unnamed Layer* 1173) [Shuffle]_output: 3c010a14
(Unnamed Layer* 1175) [Shuffle]_output: 3b810a14
/model.38/Add_6_output_0: 3e1d4449
/model.38/Range_5_output_0: 3e193bf8
(Unnamed Layer* 1188) [Shuffle]_output: 3c010a14
(Unnamed Layer* 1190) [Shuffle]_output: 3b810a14
/model.38/Add_7_output_0: 3e1d4449
/model.38/Reshape_15_output_0: 3e1d4449
/model.38/Expand_4_output_0: 3e1d4449
/model.38/Reshape_16_output_0: 3e1d4449
/model.38/Expand_5_output_0: 3e1d4449
/model.38/Unsqueeze_9_output_0: 3e1d4449
/model.38/Unsqueeze_10_output_0: 3e1d4449
/model.38/Concat_20_output_0: 3e1d4449
/model.38/Reshape_17_output_0: 3e1d4449
(Unnamed Layer* 1241) [Constant]_output: 0
(Unnamed Layer* 1242) [Shuffle]_output: 0
/model.38/ConstantOfShape_2_output_0: 0
(Unnamed Layer* 1245) [Shuffle]_output: 3e810a14
/model.38/Add_8_output_0: 3e810a14
/model.38/Concat_22_output_0: 3f204a85
/model.38/Concat_23_output_0: 3e810a14
/model.38/Transpose_output_0: 3f204a85
/model.38/Transpose_1_output_0: 3e810a14
/model.38/Split_1_output_0: 3dd82922
/model.38/Split_1_output_1: 3ee7b419
/model.38/dfl/Reshape_output_0: 3dd82922
/model.38/dfl/Transpose_output_0: 3dd82922
(Unnamed Layer* 1274) [Softmax]_output: 3bd98155
/model.38/dfl/conv/Conv_output_0: 3d9e18be
/model.38/dfl/Reshape_1_output_0: 3d9e18be
/model.38/Unsqueeze_12_output_0: 3f204a85
/model.38/Slice_output_0: 3da0034a
/model.38/Slice_1_output_0: 3d74f94a
/model.38/Sub_output_0: 3f1fe59f
/model.38/Add_10_output_0: 3f218eb4
/model.38/Add_11_output_0: 3fa0b261
(Unnamed Layer* 1357) [Shuffle]_output: 3c810a14
/model.38/Div_1_output_0: 3f20b261
/model.38/Sub_1_output_0: 3df4795c
/model.38/Concat_24_output_0: 3f312a9c
(Unnamed Layer* 1364) [Shuffle]_output: 3e810a14
/model.38/Mul_5_output_0: 40a5df7a
/model.38/Sigmoid_output_0: 3be321da
output0: 40a5df7a
