TRT-8503-EntropyCalibration2
images: 3bf80000
/Slice_output_0: 3bf80000
/Slice_1_output_0: 3bf80000
/model.0/conv/Conv_output_0: 3e029503
/model.0/act/Sigmoid_output_0: 3c010a14
/model.0/act/Mul_output_0: 3dc0e925
/model.1/conv/Conv_output_0: 3dc44e02
/model.1/act/Sigmoid_output_0: 3c0068d2
/model.1/act/Mul_output_0: 3d068a32
/model.2/cv1/conv/Conv_output_0: 3d7b2e6e
/model.2/cv1/act/Sigmoid_output_0: 3c02b567
/model.2/cv1/act/Mul_output_0: 3cbd71c1
/model.2/Split_output_0: 3d116ccf
/model.2/Split_output_1: 3c6b0752
/model.2/m.0/cv1/conv/Conv_output_0: 3d9374e1
/model.2/m.0/cv1/act/Sigmoid_output_0: 3c0376e9
/model.2/m.0/cv1/act/Mul_output_0: 3ca4b7d0
/model.2/m.0/cv2/conv/Conv_output_0: 3d7d124d
/model.2/m.0/cv2/act/Sigmoid_output_0: 3c029528
/model.2/m.0/cv2/act/Mul_output_0: 3d6d7161
/model.2/m.0/Add_output_0: 3d8df5fd
/model.2/Concat_output_0: 3d41633f
/model.2/cv2/conv/Conv_output_0: 3d4c375d
/model.2/cv2/act/Sigmoid_output_0: 3bff8ed6
/model.2/cv2/act/Mul_output_0: 3cd359f6
/model.3/conv/Conv_output_0: 3ce6bc50
/model.3/act/Sigmoid_output_0: 3c005e0a
/model.3/act/Mul_output_0: 3cb2cc37
/model.4/conv/Conv_output_0: 3dc7ef3e
/model.4/act/Sigmoid_output_0: 3c010a14
/model.4/act/Mul_output_0: 3d6b4a22
/model.5/conv/Conv_output_0: 3d793c59
/model.5/act/Sigmoid_output_0: 3c010a14
/model.5/act/Mul_output_0: 3d0a80b5
/model.6/cv1/conv/Conv_output_0: 3d897008
/model.6/cv1/act/Sigmoid_output_0: 3c010a14
/model.6/cv1/act/Mul_output_0: 3d400b6c
/model.6/Split_output_0: 3d392852
/model.6/Split_output_1: 3d41a49b
/model.6/m.0/spatial_mixing/Split_output_0: 3d41748b
/model.6/m.0/spatial_mixing/Split_output_1: 3d6b36b3
/model.6/m.0/spatial_mixing/partial_conv3/Conv_output_0: 3cded187
/model.6/m.0/spatial_mixing/Concat_output_0: 3d6a5d84
/model.6/m.0/mlp/mlp.0/conv/Conv_output_0: 3d95f2c2
/model.6/m.0/mlp/mlp.0/act/Sigmoid_output_0: 3c003052
/model.6/m.0/mlp/mlp.0/act/Mul_output_0: 3cc26bfd
/model.6/Concat_output_0: 3d400b6c
/model.6/cv2/conv/Conv_output_0: 3d8f4fc3
/model.6/cv2/act/Sigmoid_output_0: 3c07140e
/model.6/cv2/act/Mul_output_0: 3d129a4a
/model.7/conv/Conv_output_0: 3d331abd
/model.7/act/Sigmoid_output_0: 3c00f8df
/model.7/act/Mul_output_0: 3d26a787
/Concat_output_0: 3d2600f4
/model.8/avg_pool/GlobalAveragePool_output_0: 3cf0de66
/model.8/Reshape_output_0: 3cf0de66
(Unnamed Layer* 147) [Constant]_output: 3b807a16
/model.8/fc/fc.0/MatMul_output_0: 3ce72a1d
/model.8/fc/fc.1/Relu_output_0: 3d0dbed4
(Unnamed Layer* 150) [Constant]_output: 3b3beb0e
/model.8/fc/fc.2/MatMul_output_0: 3c794350
/model.8/fc/fc.3/Sigmoid_output_0: 3bde6553
/model.8/Reshape_1_output_0: 3bde6553
/model.8/Mul_output_0: 3cfd4a07
/model.8/Slice_output_0: 3d312e1e
/model.8/Slice_1_output_0: 3c98f96d
/model.8/Concat_2_output_0: 3cfd4a07
/model.8/Add_output_0: 3d7d2c76
/Slice_2_output_0: 3d57fe29
/Slice_3_output_0: 3d3b6b4a
/model.9/cv1/conv/Conv_output_0: 3d5def51
/model.9/cv1/act/Sigmoid_output_0: 3c06db29
/model.9/cv1/act/Mul_output_0: 3d0fce32
/model.9/Split_output_0: 3d0fce32
/model.9/Split_output_1: 3cd36fc9
/model.9/m.0/cv1/conv/Conv_output_0: 3d624363
/model.9/m.0/cv1/act/Sigmoid_output_0: 3c00bccb
/model.9/m.0/cv1/act/Mul_output_0: 3ce79d83
/model.9/m.0/cv2/conv/Conv_output_0: 3d53fc53
/model.9/m.0/cv2/act/Sigmoid_output_0: 3c00c8c1
/model.9/m.0/cv2/act/Mul_output_0: 3d00d0a3
/model.9/m.0/Add_output_0: 3d51fa2c
/model.9/m.1/cv1/conv/Conv_output_0: 3d76a1cb
/model.9/m.1/cv1/act/Sigmoid_output_0: 3c00cd03
/model.9/m.1/cv1/act/Mul_output_0: 3d031be3
/model.9/m.1/cv2/conv/Conv_output_0: 3dad77d7
/model.9/m.1/cv2/act/Sigmoid_output_0: 3c075eab
/model.9/m.1/cv2/act/Mul_output_0: 3d677f19
/model.9/m.1/Add_output_0: 3dbad5e0
/model.9/Concat_output_0: 3d267f3d
/model.9/cv2/conv/Conv_output_0: 3d893c69
/model.9/cv2/act/Sigmoid_output_0: 3c0213fe
/model.9/cv2/act/Mul_output_0: 3d032f5e
/model.10/conv/Conv_output_0: 3d871a0d
/model.10/act/Sigmoid_output_0: 3c00ec15
/model.10/act/Mul_output_0: 3d2432b2
/model.11/cv1/conv/Conv_output_0: 3d5b5629
/model.11/cv1/act/Sigmoid_output_0: 3bffab88
/model.11/cv1/act/Mul_output_0: 3cfe5d1a
/model.11/Split_output_0: 3cfc1e5f
/model.11/Split_output_1: 3d119b77
/model.11/m.0/spatial_mixing/Split_output_0: 3cfdd0a8
/model.11/m.0/spatial_mixing/Split_output_1: 3d0218a2
/model.11/m.0/spatial_mixing/partial_conv3/Conv_output_0: 3cde7908
/model.11/m.0/spatial_mixing/Concat_output_0: 3d0218a2
/model.11/m.0/mlp/mlp.0/conv/Conv_output_0: 3d315227
/model.11/m.0/mlp/mlp.0/act/Sigmoid_output_0: 3c00867c
/model.11/m.0/mlp/mlp.0/act/Mul_output_0: 3ce5264e
/model.11/m.1/spatial_mixing/Split_output_0: 3cd0e424
/model.11/m.1/spatial_mixing/Split_output_1: 3d002cb1
/model.11/m.1/spatial_mixing/partial_conv3/Conv_output_0: 3cc32079
/model.11/m.1/spatial_mixing/Concat_output_0: 3cfe77e8
/model.11/m.1/mlp/mlp.0/conv/Conv_output_0: 3d670cf1
/model.11/m.1/mlp/mlp.0/act/Sigmoid_output_0: 3c020abe
/model.11/m.1/mlp/mlp.0/act/Mul_output_0: 3d000d8a
/model.11/Concat_output_0: 3d000d8a
/model.11/cv2/conv/Conv_output_0: 3d0d0cd1
/model.11/cv2/act/Sigmoid_output_0: 3c006963
/model.11/cv2/act/Mul_output_0: 3d109a73
/model.12/conv/Conv_output_0: 3d438c7d
/model.12/act/Sigmoid_output_0: 3bfff8db
/model.12/act/Mul_output_0: 3cc2d151
/Concat_1_output_0: 3cff7ac9
/model.13/avg_pool/GlobalAveragePool_output_0: 3c5beced
/model.13/Reshape_output_0: 3c5beced
(Unnamed Layer* 369) [Constant]_output: 3a9fc97b
/model.13/fc/fc.0/MatMul_output_0: 3c905aa2
/model.13/fc/fc.1/Relu_output_0: 3c905aa2
(Unnamed Layer* 372) [Constant]_output: 3aa688a5
/model.13/fc/fc.2/MatMul_output_0: 3c1d6296
/model.13/fc/fc.3/Sigmoid_output_0: 3bce0422
/model.13/Reshape_1_output_0: 3bce0422
/model.13/Mul_output_0: 3ca91715
/model.13/Slice_output_0: 3c807952
/model.13/Slice_1_output_0: 3ca91715
/model.13/Concat_2_output_0: 3ca91715
/model.13/Add_output_0: 3d5a715d
/Slice_4_output_0: 3d5a715d
/Slice_5_output_0: 3d3e6424
/model.14/cv1/conv/Conv_output_0: 3d895e8b
/model.14/cv1/act/Sigmoid_output_0: 3c00f12b
/model.14/cv1/act/Mul_output_0: 3ce95cc1
/model.14/Split_output_0: 3d26a9cb
/model.14/Split_output_1: 3cd37d03
/model.14/m.0/cv1/conv/Conv_output_0: 3d86681c
/model.14/m.0/cv1/act/Sigmoid_output_0: 3c00eba5
/model.14/m.0/cv1/act/Mul_output_0: 3d0279d7
/model.14/m.0/cv2/conv/Conv_output_0: 3d81e5c4
/model.14/m.0/cv2/act/Sigmoid_output_0: 3c00ed08
/model.14/m.0/cv2/act/Mul_output_0: 3d025d44
/model.14/m.0/Add_output_0: 3d64d811
/model.14/m.1/cv1/conv/Conv_output_0: 3d8e6a63
/model.14/m.1/cv1/act/Sigmoid_output_0: 3c00e0ae
/model.14/m.1/cv1/act/Mul_output_0: 3ce7855d
/model.14/m.1/cv2/conv/Conv_output_0: 3d96556e
/model.14/m.1/cv2/act/Sigmoid_output_0: 3c011075
/model.14/m.1/cv2/act/Mul_output_0: 3d108b7a
/model.14/m.1/Add_output_0: 3d8db5f2
/model.14/Concat_output_0: 3d26fca4
/model.14/cv2/conv/Conv_output_0: 3d8bd29b
/model.14/cv2/act/Sigmoid_output_0: 3c00f131
/model.14/cv2/act/Mul_output_0: 3d272f6e
/model.15/conv/Conv_output_0: 3d65e96e
/model.15/act/Sigmoid_output_0: 3c00e5d0
/model.15/act/Mul_output_0: 3d139ce9
/model.16/cv1/conv/Conv_output_0: 3d6a1ab0
/model.16/cv1/act/Sigmoid_output_0: 3c005ca5
/model.16/cv1/act/Mul_output_0: 3ce978e3
/model.16/Split_output_0: 3ce75e5c
/model.16/Split_output_1: 3ce978e3
/model.16/m.0/spatial_mixing/Split_output_0: 3ce978e3
/model.16/m.0/spatial_mixing/Split_output_1: 3ce6da11
/model.16/m.0/spatial_mixing/partial_conv3/Conv_output_0: 3cf8bd43
/model.16/m.0/spatial_mixing/Concat_output_0: 3ce6da11
/model.16/m.0/mlp/mlp.0/conv/Conv_output_0: 3d3fe003
/model.16/m.0/mlp/mlp.0/act/Sigmoid_output_0: 3c003aab
/model.16/m.0/mlp/mlp.0/act/Mul_output_0: 3cea24b6
/model.16/m.1/spatial_mixing/Split_output_0: 3cea24b6
/model.16/m.1/spatial_mixing/Split_output_1: 3cb2910b
/model.16/m.1/spatial_mixing/partial_conv3/Conv_output_0: 3cceae02
/model.16/m.1/spatial_mixing/Concat_output_0: 3cd2e76e
/model.16/m.1/mlp/mlp.0/conv/Conv_output_0: 3d6a1ef9
/model.16/m.1/mlp/mlp.0/act/Sigmoid_output_0: 3c0090e8
/model.16/m.1/mlp/mlp.0/act/Mul_output_0: 3ce68cad
/model.16/Concat_output_0: 3ce978e3
/model.16/cv2/conv/Conv_output_0: 3d4a5f6c
/model.16/cv2/act/Sigmoid_output_0: 3c0136f3
/model.16/cv2/act/Mul_output_0: 3ce99cff
/model.17/conv/Conv_output_0: 3d3e263d
/model.17/act/Sigmoid_output_0: 3c008a97
/model.17/act/Mul_output_0: 3d01bcc6
/Concat_2_output_0: 3d01bcc6
/model.18/avg_pool/GlobalAveragePool_output_0: 3c87b461
/model.18/Reshape_output_0: 3c87b461
(Unnamed Layer* 591) [Constant]_output: 3a11bb22
/model.18/fc/fc.0/MatMul_output_0: 3ce6fd2d
/model.18/fc/fc.1/Relu_output_0: 3d0a60fc
(Unnamed Layer* 594) [Constant]_output: 3a462375
/model.18/fc/fc.2/MatMul_output_0: 3c3dbdfc
/model.18/fc/fc.3/Sigmoid_output_0: 3bd9c5e5
/model.18/Reshape_1_output_0: 3bd9c5e5
/model.18/Mul_output_0: 3cc1ab22
/model.18/Slice_output_0: 3cc153ed
/model.18/Slice_1_output_0: 3cb14daa
/model.18/Concat_2_output_0: 3cc1ab22
/model.18/Add_output_0: 3d2e4895
/Slice_6_output_0: 3d4caf6a
/Slice_7_output_0: 3d27e7d7
/model.19/cv1/conv/Conv_output_0: 3d51edfc
/model.19/cv1/act/Sigmoid_output_0: 3c006c91
/model.19/cv1/act/Mul_output_0: 3cd33ecd
/model.19/Split_output_0: 3cd3c829
/model.19/Split_output_1: 3cb2e9e8
/model.19/m.0/cv1/conv/Conv_output_0: 3d709c8d
/model.19/m.0/cv1/act/Sigmoid_output_0: 3c00c0dd
/model.19/m.0/cv1/act/Mul_output_0: 3cc04422
/model.19/m.0/cv2/conv/Conv_output_0: 3d79fe37
/model.19/m.0/cv2/act/Sigmoid_output_0: 3c00e9ca
/model.19/m.0/cv2/act/Mul_output_0: 3d0102b7
/model.19/m.0/Add_output_0: 3d801f4f
/model.19/Concat_output_0: 3d10638e
/model.19/cv2/conv/Conv_output_0: 3d539763
/model.19/cv2/act/Sigmoid_output_0: 3c00b751
/model.19/cv2/act/Mul_output_0: 3ce7f457
/model.20/cv1/conv/Conv_output_0: 3d515cdd
/model.20/cv1/act/Sigmoid_output_0: 3c00c7d2
/model.20/cv1/act/Mul_output_0: 3d002ebf
/model.20/m/MaxPool_output_0: 3d002ebf
/model.20/m_1/MaxPool_output_0: 3d002ebf
/model.20/m_2/MaxPool_output_0: 3d002ebf
/model.20/Concat_output_0: 3d66447e
/model.20/cv2/conv/Conv_output_0: 3d82de44
/model.20/cv2/act/Sigmoid_output_0: 3c009af1
/model.20/cv2/act/Mul_output_0: 3ce8e102
/model.21/cv1/conv/Conv_output_0: 3d4132dd
/model.21/cv1/act/Sigmoid_output_0: 3c00b3ff
/model.21/cv1/act/Mul_output_0: 3ce844f4
/model.21/Split_output_0: 3cc006a9
/model.21/Split_output_1: 3ce844f4
/model.21/m.0/spatial_mixing/Split_output_0: 3ce844f4
/model.21/m.0/spatial_mixing/Split_output_1: 3cd35d8a
/model.21/m.0/spatial_mixing/partial_conv3/Conv_output_0: 3d166c8f
/model.21/m.0/spatial_mixing/Concat_output_0: 3cd35d8a
/model.21/m.0/mlp/mlp.0/conv/Conv_output_0: 3d43fd5f
/model.21/m.0/mlp/mlp.0/act/Sigmoid_output_0: 3c008b7a
/model.21/m.0/mlp/mlp.0/act/Mul_output_0: 3d022b23
/model.21/Concat_output_0: 3d022b23
/model.21/cv2/conv/Conv_output_0: 3d3fc084
/model.21/cv2/act/Sigmoid_output_0: 3c005a61
/model.21/cv2/act/Mul_output_0: 3cc14db4
/model.22/cv1/conv/Conv_output_0: 3d4575ba
/model.22/cv1/act/Sigmoid_output_0: 3c009a8f
/model.22/cv1/act/Mul_output_0: 3d119f8b
/model.22/m/MaxPool_output_0: 3d119f8b
/model.22/m_1/MaxPool_output_0: 3d119f8b
/model.22/m_2/MaxPool_output_0: 3d119f8b
/model.22/Concat_output_0: 3d68a49a
/model.22/cv2/conv/Conv_output_0: 3d6c5f56
/model.22/cv2/act/Sigmoid_output_0: 3c00c2f8
/model.22/cv2/act/Mul_output_0: 3ce74806
/model.23/Add_output_0: 3d8030d2
/model.24/Add_output_0: 3d918d7f
/model.25/Add_output_0: 3d645997
/model.26/Resize_output_0: 3d645997
/model.27/Concat_output_0: 3d68b0e0
/model.28/cv1/conv/Conv_output_0: 3d7d3dd2
/model.28/cv1/act/Sigmoid_output_0: 3c00cd58
/model.28/cv1/act/Mul_output_0: 3cd1f348
/model.28/Split_output_0: 3cd1f348
/model.28/Split_output_1: 3cd486e7
/model.28/m.0/cv1/conv/Conv_output_0: 3d715ba0
/model.28/m.0/cv1/act/Sigmoid_output_0: 3c00e389
/model.28/m.0/cv1/act/Mul_output_0: 3ce6c19d
/model.28/m.0/cv2/conv/Conv_output_0: 3d7eb4d7
/model.28/m.0/cv2/act/Sigmoid_output_0: 3c00ec88
/model.28/m.0/cv2/act/Mul_output_0: 3d00e94c
/model.28/Concat_output_0: 3cd1f348
/model.28/cv2/conv/Conv_output_0: 3d6a92dd
/model.28/cv2/act/Sigmoid_output_0: 3c00d115
/model.28/cv2/act/Mul_output_0: 3cffdcdf
/model.29/Resize_output_0: 3cffdcdf
/model.30/Concat_output_0: 3d0048dc
/model.31/cv1/conv/Conv_output_0: 3d4b5679
/model.31/cv1/act/Sigmoid_output_0: 3c007db1
/model.31/cv1/act/Mul_output_0: 3ce9c0c3
/model.31/Split_output_0: 3d121ff6
/model.31/Split_output_1: 3cea041e
/model.31/m.0/cv1/conv/Conv_output_0: 3d4afc31
/model.31/m.0/cv1/act/Sigmoid_output_0: 3c00723d
/model.31/m.0/cv1/act/Mul_output_0: 3cc0e67a
/model.31/m.0/cv2/conv/Conv_output_0: 3d87145c
/model.31/m.0/cv2/act/Sigmoid_output_0: 3c00ece5
/model.31/m.0/cv2/act/Mul_output_0: 3d42fe0a
/model.31/Concat_output_0: 3d270996
/model.31/cv2/conv/Conv_output_0: 3da81687
/model.31/cv2/act/Sigmoid_output_0: 3c00ecae
/model.31/cv2/act/Mul_output_0: 3d0151aa
/model.32/conv/Conv_output_0: 3d9c8336
/model.32/act/Sigmoid_output_0: 3c0213fb
/model.32/act/Mul_output_0: 3d6b01af
/model.33/Concat_output_0: 3d27b2ac
/model.34/cv1/conv/Conv_output_0: 3d81f580
/model.34/cv1/act/Sigmoid_output_0: 3c00ec5e
/model.34/cv1/act/Mul_output_0: 3d0078d0
/model.34/Split_output_0: 3d020cf7
/model.34/Split_output_1: 3cc0e9c2
/model.34/m.0/cv1/conv/Conv_output_0: 3d867d31
/model.34/m.0/cv1/act/Sigmoid_output_0: 3c010f60
/model.34/m.0/cv1/act/Mul_output_0: 3d12d2f1
/model.34/m.0/cv2/conv/Conv_output_0: 3d8829fe
/model.34/m.0/cv2/act/Sigmoid_output_0: 3c010a01
/model.34/m.0/cv2/act/Mul_output_0: 3cffdcef
/model.34/Concat_output_0: 3cffdcef
/model.34/cv2/conv/Conv_output_0: 3d8214a0
/model.34/cv2/act/Sigmoid_output_0: 3c00f01f
/model.34/cv2/act/Mul_output_0: 3ce5f832
/model.35/conv/Conv_output_0: 3d344a07
/model.35/act/Sigmoid_output_0: 3c00fb23
/model.35/act/Mul_output_0: 3cc12bfb
/model.36/Concat_output_0: 3d2385cc
/model.37/cv1/conv/Conv_output_0: 3d0fcbed
/model.37/cv1/act/Sigmoid_output_0: 3c007e71
/model.37/cv1/act/Mul_output_0: 3ca5d23f
/model.37/Split_output_0: 3cb15132
/model.37/Split_output_1: 3cd301da
/model.37/m.0/cv1/conv/Conv_output_0: 3d0ca65f
/model.37/m.0/cv1/act/Sigmoid_output_0: 3bfe77f8
/model.37/m.0/cv1/act/Mul_output_0: 3c99dfd4
/model.37/m.0/cv2/conv/Conv_output_0: 3d0876e2
/model.37/m.0/cv2/act/Sigmoid_output_0: 3bfe1403
/model.37/m.0/cv2/act/Mul_output_0: 3c907ad8
/model.37/Concat_output_0: 3ca5d23f
/model.37/cv2/conv/Conv_output_0: 3ce51965
/model.37/cv2/act/Sigmoid_output_0: 3bfa51a8
/model.37/cv2/act/Mul_output_0: 3c9ad73c
/model.38/cv2.0/cv2.0.0/conv/Conv_output_0: 3d8cd3ff
/model.38/cv2.0/cv2.0.0/act/Sigmoid_output_0: 3c007ddb
/model.38/cv2.0/cv2.0.0/act/Mul_output_0: 3d124a8f
/model.38/cv2.0/cv2.0.1/conv/Conv_output_0: 3da67f76
/model.38/cv2.0/cv2.0.1/act/Sigmoid_output_0: 3c011219
/model.38/cv2.0/cv2.0.1/act/Mul_output_0: 3d6f7e3d
/model.38/cv2.0/cv2.0.2/Conv_output_0: 3e0649e6
/model.38/cv3.0/cv3.0.0/conv/Conv_output_0: 3dbefd22
/model.38/cv3.0/cv3.0.0/act/Sigmoid_output_0: 3c011209
/model.38/cv3.0/cv3.0.0/act/Mul_output_0: 3d129f24
/model.38/cv3.0/cv3.0.1/conv/Conv_output_0: 3e5c11d9
/model.38/cv3.0/cv3.0.1/act/Sigmoid_output_0: 3c010a14
/model.38/cv3.0/cv3.0.1/act/Mul_output_0: 3d9220d7
/model.38/cv3.0/cv3.0.2/Conv_output_0: 3f19c99c
/model.38/Concat_output_0: 3ea4b7ff
/model.38/cv2.1/cv2.1.0/conv/Conv_output_0: 3d7b4c86
/model.38/cv2.1/cv2.1.0/act/Sigmoid_output_0: 3c00edfb
/model.38/cv2.1/cv2.1.0/act/Mul_output_0: 3d26b4c2
/model.38/cv2.1/cv2.1.1/conv/Conv_output_0: 3dc9a8b4
/model.38/cv2.1/cv2.1.1/act/Sigmoid_output_0: 3c010a14
/model.38/cv2.1/cv2.1.1/act/Mul_output_0: 3d4368d9
/model.38/cv2.1/cv2.1.2/Conv_output_0: 3dcfc2e4
/model.38/cv3.1/cv3.1.0/conv/Conv_output_0: 3da821de
/model.38/cv3.1/cv3.1.0/act/Sigmoid_output_0: 3c01106d
/model.38/cv3.1/cv3.1.0/act/Mul_output_0: 3ce6b83c
/model.38/cv3.1/cv3.1.1/conv/Conv_output_0: 3df304ce
/model.38/cv3.1/cv3.1.1/act/Sigmoid_output_0: 3c010a14
/model.38/cv3.1/cv3.1.1/act/Mul_output_0: 3d268cb3
/model.38/cv3.1/cv3.1.2/Conv_output_0: 3e968e2b
/model.38/Concat_1_output_0: 3e59b42a
/model.38/cv2.2/cv2.2.0/conv/Conv_output_0: 3d13d559
/model.38/cv2.2/cv2.2.0/act/Sigmoid_output_0: 3c010d19
/model.38/cv2.2/cv2.2.0/act/Mul_output_0: 3cd3c282
/model.38/cv2.2/cv2.2.1/conv/Conv_output_0: 3d251dd1
/model.38/cv2.2/cv2.2.1/act/Sigmoid_output_0: 3c01770f
/model.38/cv2.2/cv2.2.1/act/Mul_output_0: 3ce9a37d
/model.38/cv2.2/cv2.2.2/Conv_output_0: 3c30e266
/model.38/cv3.2/cv3.2.0/conv/Conv_output_0: 3cc1fc29
/model.38/cv3.2/cv3.2.0/act/Sigmoid_output_0: 3bf03ad7
/model.38/cv3.2/cv3.2.0/act/Mul_output_0: 3c50cfbc
/model.38/cv3.2/cv3.2.1/conv/Conv_output_0: 3ca996a7
/model.38/cv3.2/cv3.2.1/act/Sigmoid_output_0: 3beed977
/model.38/cv3.2/cv3.2.1/act/Mul_output_0: 3c9193dd
/model.38/cv3.2/cv3.2.2/Conv_output_0: 3dc66dea
/model.38/Concat_2_output_0: 3dc2ec29
/model.38/Reshape_output_0: 3ea4b7ff
/model.38/Reshape_1_output_0: 3e59b42a
/model.38/Reshape_2_output_0: 3dc2ec29
/model.38/Concat_6_output_0: 3e905bbd
(Unnamed Layer* 967) [Constant]_output: 3e810a14
/model.38/Split_output_0: 3d810a14
/model.38/Split_output_1: 3e010a14
/model.38/Split_output_2: 3e810a14
/model.38/Range_output_0: 3f1f4871
(Unnamed Layer* 991) [Shuffle]_output: 3c010a14
(Unnamed Layer* 993) [Shuffle]_output: 3b810a14
/model.38/Add_output_0: 3f204a85
/model.38/Range_1_output_0: 3f1f4871
(Unnamed Layer* 1006) [Shuffle]_output: 3c010a14
(Unnamed Layer* 1008) [Shuffle]_output: 3b810a14
/model.38/Add_1_output_0: 3f204a85
/model.38/Reshape_5_output_0: 3f204a85
/model.38/Expand_output_0: 3f204a85
/model.38/Reshape_6_output_0: 3f204a85
/model.38/Expand_1_output_0: 3f204a85
/model.38/Unsqueeze_3_output_0: 3f204a85
/model.38/Unsqueeze_4_output_0: 3f204a85
/model.38/Concat_10_output_0: 3f204a85
/model.38/Reshape_7_output_0: 3f204a85
(Unnamed Layer* 1059) [Constant]_output: 0
(Unnamed Layer* 1060) [Shuffle]_output: 0
/model.38/ConstantOfShape_output_0: 0
(Unnamed Layer* 1063) [Shuffle]_output: 3d810a14
/model.38/Add_2_output_0: 3d810a14
/model.38/Range_2_output_0: 3e9d4449
(Unnamed Layer* 1082) [Shuffle]_output: 3c010a14
(Unnamed Layer* 1084) [Shuffle]_output: 3b810a14
/model.38/Add_3_output_0: 3e9f4871
/model.38/Range_3_output_0: 3e9d4449
(Unnamed Layer* 1097) [Shuffle]_output: 3c010a14
(Unnamed Layer* 1099) [Shuffle]_output: 3b810a14
/model.38/Add_4_output_0: 3e9f4871
/model.38/Reshape_10_output_0: 3e9f4871
/model.38/Expand_2_output_0: 3e9f4871
/model.38/Reshape_11_output_0: 3e9f4871
/model.38/Expand_3_output_0: 3e9f4871
/model.38/Unsqueeze_6_output_0: 3e9f4871
/model.38/Unsqueeze_7_output_0: 3e9f4871
/model.38/Concat_15_output_0: 3e9f4871
/model.38/Reshape_12_output_0: 3e9f4871
(Unnamed Layer* 1150) [Constant]_output: 0
(Unnamed Layer* 1151) [Shuffle]_output: 0
/model.38/ConstantOfShape_1_output_0: 0
(Unnamed Layer* 1154) [Shuffle]_output: 3e010a14
/model.38/Add_5_output_0: 3e010a14
/model.38/Range_4_output_0: 3e193bf8
(Unnamed Layer* 1173) [Shuffle]_output: 3c010a14
(Unnamed Layer* 1175) [Shuffle]_output: 3b810a14
/model.38/Add_6_output_0: 3e1d4449
/model.38/Range_5_output_0: 3e193bf8
(Unnamed Layer* 1188) [Shuffle]_output: 3c010a14
(Unnamed Layer* 1190) [Shuffle]_output: 3b810a14
/model.38/Add_7_output_0: 3e1d4449
/model.38/Reshape_15_output_0: 3e1d4449
/model.38/Expand_4_output_0: 3e1d4449
/model.38/Reshape_16_output_0: 3e1d4449
/model.38/Expand_5_output_0: 3e1d4449
/model.38/Unsqueeze_9_output_0: 3e1d4449
/model.38/Unsqueeze_10_output_0: 3e1d4449
/model.38/Concat_20_output_0: 3e1d4449
/model.38/Reshape_17_output_0: 3e1d4449
(Unnamed Layer* 1241) [Constant]_output: 0
(Unnamed Layer* 1242) [Shuffle]_output: 0
/model.38/ConstantOfShape_2_output_0: 0
(Unnamed Layer* 1245) [Shuffle]_output: 3e810a14
/model.38/Add_8_output_0: 3e810a14
/model.38/Concat_22_output_0: 3f204a85
/model.38/Concat_23_output_0: 3e810a14
/model.38/Transpose_output_0: 3f204a85
/model.38/Transpose_1_output_0: 3e810a14
/model.38/Split_1_output_0: 3dd8dcdc
/model.38/Split_1_output_1: 3ef12750
/model.38/dfl/Reshape_output_0: 3dd8dcdc
/model.38/dfl/Transpose_output_0: 3dd8dcdc
(Unnamed Layer* 1274) [Softmax]_output: 3bd6abdf
/model.38/dfl/conv/Conv_output_0: 3d9e3a7d
/model.38/dfl/Reshape_1_output_0: 3d9e3a7d
/model.38/Unsqueeze_12_output_0: 3f204a85
/model.38/Slice_output_0: 3da0192d
/model.38/Slice_1_output_0: 3d7525c3
/model.38/Sub_output_0: 3f200409
/model.38/Add_10_output_0: 3f219924
/model.38/Add_11_output_0: 3fa0a046
(Unnamed Layer* 1357) [Shuffle]_output: 3c810a14
/model.38/Div_1_output_0: 3f20a046
/model.38/Sub_1_output_0: 3df46c66
/model.38/Concat_24_output_0: 3f29e2a9
(Unnamed Layer* 1364) [Shuffle]_output: 3e810a14
/model.38/Mul_5_output_0: 40a5ce15
/model.38/Sigmoid_output_0: 3be40f3c
output0: 40a0a046
