TRT-8503-EntropyCalibration2
images: 3bf80000
/Slice_output_0: 3bf80000
/Slice_1_output_0: 3bf80000
/model.0/conv/Conv_output_0: 3e2be0c8
/model.0/act/Sigmoid_output_0: 3c010a14
/model.0/act/Mul_output_0: 3e038d47
/model.1/conv/Conv_output_0: 3df1519c
/model.1/act/Sigmoid_output_0: 3c0068d2
/model.1/act/Mul_output_0: 3ce9e2c9
/model.2/cv1/conv/Conv_output_0: 3d23c3cb
/model.2/cv1/act/Sigmoid_output_0: 3c02b56a
/model.2/cv1/act/Mul_output_0: 3cd455e8
/model.2/Split_output_0: 3d05e29f
/model.2/Split_output_1: 3c98daab
/model.2/m.0/cv1/conv/Conv_output_0: 3d1a8118
/model.2/m.0/cv1/act/Sigmoid_output_0: 3c0376e2
/model.2/m.0/cv1/act/Mul_output_0: 3cc12ed3
/model.2/m.0/cv2/conv/Conv_output_0: 3d6bf09b
/model.2/m.0/cv2/act/Sigmoid_output_0: 3c010a14
/model.2/m.0/cv2/act/Mul_output_0: 3d69c512
/model.2/m.0/Add_output_0: 3d4bfaec
/model.2/Concat_output_0: 3d413abe
/model.2/cv2/conv/Conv_output_0: 3d2f0e9c
/model.2/cv2/act/Sigmoid_output_0: 3bff9e91
/model.2/cv2/act/Mul_output_0: 3d002b53
/model.3/conv/Conv_output_0: 3ce701e1
/model.3/act/Sigmoid_output_0: 3c005c36
/model.3/act/Mul_output_0: 3ca56e8e
/model.4/conv/Conv_output_0: 3dba32d3
/model.4/act/Sigmoid_output_0: 3c010a14
/model.4/act/Mul_output_0: 3d6ac830
/model.5/conv/Conv_output_0: 3d33e9ea
/model.5/act/Sigmoid_output_0: 3c010a14
/model.5/act/Mul_output_0: 3d713bcd
/model.6/cv1/conv/Conv_output_0: 3d821bb2
/model.6/cv1/act/Sigmoid_output_0: 3c010a14
/model.6/cv1/act/Mul_output_0: 3d6c2786
/model.6/Split_output_0: 3d2a1ac4
/model.6/Split_output_1: 3d1056af
/model.6/m.0/spatial_mixing/Split_output_0: 3d64db29
/model.6/m.0/spatial_mixing/Split_output_1: 3d1056af
/model.6/m.0/spatial_mixing/partial_conv3/Conv_output_0: 3d0e9dc6
/model.6/m.0/spatial_mixing/Concat_output_0: 3d10c0b6
/model.6/m.0/mlp/mlp.0/conv/Conv_output_0: 3d7be89d
/model.6/m.0/mlp/mlp.0/act/Sigmoid_output_0: 3c003057
/model.6/m.0/mlp/mlp.0/act/Mul_output_0: 3d0e4bda
/model.6/Concat_output_0: 3d6c2786
/model.6/cv2/conv/Conv_output_0: 3d74df57
/model.6/cv2/act/Sigmoid_output_0: 3c0716f5
/model.6/cv2/act/Mul_output_0: 3d00e70a
/model.7/conv/Conv_output_0: 3d43870b
/model.7/act/Sigmoid_output_0: 3c033430
/model.7/act/Mul_output_0: 3d25c3ea
/Concat_output_0: 3d25c3ea
/model.8/avg_pool/GlobalAveragePool_output_0: 3cf4cce8
/model.8/Reshape_output_0: 3cf4cce8
(Unnamed Layer* 147) [Constant]_output: 3b807a16
/model.8/fc/fc.0/MatMul_output_0: 3ce5f879
/model.8/fc/fc.1/Relu_output_0: 3d138674
(Unnamed Layer* 150) [Constant]_output: 3b3beb0e
/model.8/fc/fc.2/MatMul_output_0: 3c828f29
/model.8/fc/fc.3/Sigmoid_output_0: 3be51a5f
/model.8/Reshape_1_output_0: 3be51a5f
/model.8/Mul_output_0: 3d01811c
/model.8/Slice_output_0: 3d3525d5
/model.8/Slice_1_output_0: 3c8af52a
/model.8/Concat_2_output_0: 3d01811c
/model.8/Add_output_0: 3d8a4bb3
/Slice_2_output_0: 3d586196
/Slice_3_output_0: 3d3b9711
/model.9/cv1/conv/Conv_output_0: 3d5e5584
/model.9/cv1/act/Sigmoid_output_0: 3c06d685
/model.9/cv1/act/Mul_output_0: 3d010396
/model.9/Split_output_0: 3d010396
/model.9/Split_output_1: 3cd16793
/model.9/m.0/cv1/conv/Conv_output_0: 3d764752
/model.9/m.0/cv1/act/Sigmoid_output_0: 3c0081bb
/model.9/m.0/cv1/act/Mul_output_0: 3cc10f1f
/model.9/m.0/cv2/conv/Conv_output_0: 3d505dc5
/model.9/m.0/cv2/act/Sigmoid_output_0: 3c00a1ff
/model.9/m.0/cv2/act/Mul_output_0: 3d12e6cf
/model.9/m.0/Add_output_0: 3d64d25d
/model.9/m.1/cv1/conv/Conv_output_0: 3d7a018f
/model.9/m.1/cv1/act/Sigmoid_output_0: 3c00caf5
/model.9/m.1/cv1/act/Mul_output_0: 3cc2208d
/model.9/m.1/cv2/conv/Conv_output_0: 3da44da9
/model.9/m.1/cv2/act/Sigmoid_output_0: 3c063c61
/model.9/m.1/cv2/act/Mul_output_0: 3d6d7f88
/model.9/m.1/Add_output_0: 3dbb2ef2
/model.9/Concat_output_0: 3d457c6a
/model.9/cv2/conv/Conv_output_0: 3d8223e1
/model.9/cv2/act/Sigmoid_output_0: 3c021335
/model.9/cv2/act/Mul_output_0: 3d13db28
/model.10/conv/Conv_output_0: 3d70aee8
/model.10/act/Sigmoid_output_0: 3c00ec90
/model.10/act/Mul_output_0: 3d25cf72
/model.11/cv1/conv/Conv_output_0: 3d86db92
/model.11/cv1/act/Sigmoid_output_0: 3bffc19c
/model.11/cv1/act/Mul_output_0: 3d0fcdb7
/model.11/Split_output_0: 3d00cb98
/model.11/Split_output_1: 3d0fcdb7
/model.11/m.0/spatial_mixing/Split_output_0: 3cfdc532
/model.11/m.0/spatial_mixing/Split_output_1: 3d0241fc
/model.11/m.0/spatial_mixing/partial_conv3/Conv_output_0: 3cdf07aa
/model.11/m.0/spatial_mixing/Concat_output_0: 3d1276e2
/model.11/m.0/mlp/mlp.0/conv/Conv_output_0: 3d29011b
/model.11/m.0/mlp/mlp.0/act/Sigmoid_output_0: 3c00967e
/model.11/m.0/mlp/mlp.0/act/Mul_output_0: 3d007ef3
/model.11/m.1/spatial_mixing/Split_output_0: 3cd3ace5
/model.11/m.1/spatial_mixing/Split_output_1: 3cff34cd
/model.11/m.1/spatial_mixing/partial_conv3/Conv_output_0: 3cf616b8
/model.11/m.1/spatial_mixing/Concat_output_0: 3cff34cd
/model.11/m.1/mlp/mlp.0/conv/Conv_output_0: 3d6924f7
/model.11/m.1/mlp/mlp.0/act/Sigmoid_output_0: 3c02070f
/model.11/m.1/mlp/mlp.0/act/Mul_output_0: 3ce945fb
/model.11/Concat_output_0: 3d124239
/model.11/cv2/conv/Conv_output_0: 3d0d197a
/model.11/cv2/act/Sigmoid_output_0: 3c0067c1
/model.11/cv2/act/Mul_output_0: 3c801541
/model.12/conv/Conv_output_0: 3d438a6e
/model.12/act/Sigmoid_output_0: 3bffd562
/model.12/act/Mul_output_0: 3cc1f2b1
/Concat_1_output_0: 3d00fe7f
/model.13/avg_pool/GlobalAveragePool_output_0: 3c5d18c9
/model.13/Reshape_output_0: 3c5d18c9
(Unnamed Layer* 369) [Constant]_output: 3a9fc97b
/model.13/fc/fc.0/MatMul_output_0: 3c8fcf02
/model.13/fc/fc.1/Relu_output_0: 3c935087
(Unnamed Layer* 372) [Constant]_output: 3aa688a5
/model.13/fc/fc.2/MatMul_output_0: 3c1e0a4c
/model.13/fc/fc.3/Sigmoid_output_0: 3bce1fdf
/model.13/Reshape_1_output_0: 3bce1fdf
/model.13/Mul_output_0: 3ca77b18
/model.13/Slice_output_0: 3c53fe21
/model.13/Slice_1_output_0: 3ccb930b
/model.13/Concat_2_output_0: 3ca77b18
/model.13/Add_output_0: 3d3dd64c
/Slice_4_output_0: 3d55ec02
/Slice_5_output_0: 3d166f6e
/model.14/cv1/conv/Conv_output_0: 3d717514
/model.14/cv1/act/Sigmoid_output_0: 3c00f10a
/model.14/cv1/act/Mul_output_0: 3ce5eef7
/model.14/Split_output_0: 3ce5eef7
/model.14/Split_output_1: 3ceb2a3e
/model.14/m.0/cv1/conv/Conv_output_0: 3d852866
/model.14/m.0/cv1/act/Sigmoid_output_0: 3c00ec9a
/model.14/m.0/cv1/act/Mul_output_0: 3d011955
/model.14/m.0/cv2/conv/Conv_output_0: 3d841dc3
/model.14/m.0/cv2/act/Sigmoid_output_0: 3c00e4ac
/model.14/m.0/cv2/act/Mul_output_0: 3ce93bff
/model.14/m.0/Add_output_0: 3d66b52d
/model.14/m.1/cv1/conv/Conv_output_0: 3d8f01e2
/model.14/m.1/cv1/act/Sigmoid_output_0: 3c00dfd8
/model.14/m.1/cv1/act/Mul_output_0: 3cb11835
/model.14/m.1/cv2/conv/Conv_output_0: 3d96f682
/model.14/m.1/cv2/act/Sigmoid_output_0: 3c00f117
/model.14/m.1/cv2/act/Mul_output_0: 3d25241e
/model.14/m.1/Add_output_0: 3d8ed18e
/model.14/Concat_output_0: 3d476a44
/model.14/cv2/conv/Conv_output_0: 3d90e75b
/model.14/cv2/act/Sigmoid_output_0: 3c00f1bc
/model.14/cv2/act/Mul_output_0: 3d298d92
/model.15/conv/Conv_output_0: 3d62e0dd
/model.15/act/Sigmoid_output_0: 3c00e7ee
/model.15/act/Mul_output_0: 3d132a30
/model.16/cv1/conv/Conv_output_0: 3d482f9a
/model.16/cv1/act/Sigmoid_output_0: 3c0055ac
/model.16/cv1/act/Mul_output_0: 3d024eda
/model.16/Split_output_0: 3d024eda
/model.16/Split_output_1: 3d019b06
/model.16/m.0/spatial_mixing/Split_output_0: 3d019b06
/model.16/m.0/spatial_mixing/Split_output_1: 3cd2f9d6
/model.16/m.0/spatial_mixing/partial_conv3/Conv_output_0: 3cfa9afc
/model.16/m.0/spatial_mixing/Concat_output_0: 3cd2f9d6
/model.16/m.0/mlp/mlp.0/conv/Conv_output_0: 3d68e55b
/model.16/m.0/mlp/mlp.0/act/Sigmoid_output_0: 3c0017ff
/model.16/m.0/mlp/mlp.0/act/Mul_output_0: 3cc0366a
/model.16/m.1/spatial_mixing/Split_output_0: 3cc0366a
/model.16/m.1/spatial_mixing/Split_output_1: 3cc13e11
/model.16/m.1/spatial_mixing/partial_conv3/Conv_output_0: 3cc259d6
/model.16/m.1/spatial_mixing/Concat_output_0: 3cc13e11
/model.16/m.1/mlp/mlp.0/conv/Conv_output_0: 3d691b68
/model.16/m.1/mlp/mlp.0/act/Sigmoid_output_0: 3c005e3a
/model.16/m.1/mlp/mlp.0/act/Mul_output_0: 3cea989d
/model.16/Concat_output_0: 3d024eda
/model.16/cv2/conv/Conv_output_0: 3d4a6766
/model.16/cv2/act/Sigmoid_output_0: 3c013242
/model.16/cv2/act/Mul_output_0: 3d024313
/model.17/conv/Conv_output_0: 3d3eb145
/model.17/act/Sigmoid_output_0: 3c02b787
/model.17/act/Mul_output_0: 3ce88c80
/Concat_2_output_0: 3ceb1b35
/model.18/avg_pool/GlobalAveragePool_output_0: 3c7c3151
/model.18/Reshape_output_0: 3c7c3151
(Unnamed Layer* 591) [Constant]_output: 3a11bb22
/model.18/fc/fc.0/MatMul_output_0: 3ce6eae2
/model.18/fc/fc.1/Relu_output_0: 3d08cfd0
(Unnamed Layer* 594) [Constant]_output: 3a462375
/model.18/fc/fc.2/MatMul_output_0: 3c40b918
/model.18/fc/fc.3/Sigmoid_output_0: 3bdcce0f
/model.18/Reshape_1_output_0: 3bdcce0f
/model.18/Mul_output_0: 3caac2b0
/model.18/Slice_output_0: 3c9c6023
/model.18/Slice_1_output_0: 3cd55269
/model.18/Concat_2_output_0: 3caac2b0
/model.18/Add_output_0: 3d38b7b2
/Slice_6_output_0: 3d4af2e3
/Slice_7_output_0: 3d269e26
/model.19/cv1/conv/Conv_output_0: 3d4beb68
/model.19/cv1/act/Sigmoid_output_0: 3c009401
/model.19/cv1/act/Mul_output_0: 3ce6f55d
/model.19/Split_output_0: 3ce6f55d
/model.19/Split_output_1: 3cd37450
/model.19/m.0/cv1/conv/Conv_output_0: 3d62d0c4
/model.19/m.0/cv1/act/Sigmoid_output_0: 3c00a7ef
/model.19/m.0/cv1/act/Mul_output_0: 3cc03c48
/model.19/m.0/cv2/conv/Conv_output_0: 3d6aa884
/model.19/m.0/cv2/act/Sigmoid_output_0: 3c00d18f
/model.19/m.0/cv2/act/Mul_output_0: 3d023d2b
/model.19/m.0/Add_output_0: 3d8f97de
/model.19/Concat_output_0: 3d270fd0
/model.19/cv2/conv/Conv_output_0: 3d4e164f
/model.19/cv2/act/Sigmoid_output_0: 3c009f6e
/model.19/cv2/act/Mul_output_0: 3ceb2d58
/model.20/cv1/conv/Conv_output_0: 3d5d8e07
/model.20/cv1/act/Sigmoid_output_0: 3c00b460
/model.20/cv1/act/Mul_output_0: 3d117c4b
/model.20/m/MaxPool_output_0: 3d117c4b
/model.20/m_1/MaxPool_output_0: 3d117c4b
/model.20/m_2/MaxPool_output_0: 3d117c4b
/model.20/Concat_output_0: 3d6801a5
/model.20/cv2/conv/Conv_output_0: 3d7525c6
/model.20/cv2/act/Sigmoid_output_0: 3c00825d
/model.20/cv2/act/Mul_output_0: 3cd21065
/model.21/cv1/conv/Conv_output_0: 3d41a598
/model.21/cv1/act/Sigmoid_output_0: 3c009f38
/model.21/cv1/act/Mul_output_0: 3ce5cabb
/model.21/Split_output_0: 3d0181e3
/model.21/Split_output_1: 3cebeeac
/model.21/m.0/spatial_mixing/Split_output_0: 3d137cba
/model.21/m.0/spatial_mixing/Split_output_1: 3cc2294f
/model.21/m.0/spatial_mixing/partial_conv3/Conv_output_0: 3d1ba92c
/model.21/m.0/spatial_mixing/Concat_output_0: 3ce88196
/model.21/m.0/mlp/mlp.0/conv/Conv_output_0: 3d4b254c
/model.21/m.0/mlp/mlp.0/act/Sigmoid_output_0: 3c0050dc
/model.21/m.0/mlp/mlp.0/act/Mul_output_0: 3cc05111
/model.21/Concat_output_0: 3ce5cabb
/model.21/cv2/conv/Conv_output_0: 3d39d99c
/model.21/cv2/act/Sigmoid_output_0: 3c005098
/model.21/cv2/act/Mul_output_0: 3cd17473
/model.22/cv1/conv/Conv_output_0: 3d48ccbd
/model.22/cv1/act/Sigmoid_output_0: 3c009fe8
/model.22/cv1/act/Mul_output_0: 3cff8ca3
/model.22/m/MaxPool_output_0: 3cff8ca3
/model.22/m_1/MaxPool_output_0: 3cff8ca3
/model.22/m_2/MaxPool_output_0: 3cff8ca3
/model.22/Concat_output_0: 3d65e9a8
/model.22/cv2/conv/Conv_output_0: 3d69a89d
/model.22/cv2/act/Sigmoid_output_0: 3c00b4c1
/model.22/cv2/act/Mul_output_0: 3ce8366d
/model.23/Add_output_0: 3d7d1f47
/model.24/Add_output_0: 3d8f7adc
/model.25/Add_output_0: 3d636946
/model.26/Resize_output_0: 3d636946
/model.27/Concat_output_0: 3d6871ee
/model.28/cv1/conv/Conv_output_0: 3d78eea4
/model.28/cv1/act/Sigmoid_output_0: 3c00bcf2
/model.28/cv1/act/Mul_output_0: 3ce7daba
/model.28/Split_output_0: 3ce7daba
/model.28/Split_output_1: 3ce860e4
/model.28/m.0/cv1/conv/Conv_output_0: 3d7054e1
/model.28/m.0/cv1/act/Sigmoid_output_0: 3c00e97e
/model.28/m.0/cv1/act/Mul_output_0: 3d01b7a4
/model.28/m.0/cv2/conv/Conv_output_0: 3d77abed
/model.28/m.0/cv2/act/Sigmoid_output_0: 3c00ec8d
/model.28/m.0/cv2/act/Mul_output_0: 3d00f757
/model.28/Concat_output_0: 3d00f757
/model.28/cv2/conv/Conv_output_0: 3d6db2e4
/model.28/cv2/act/Sigmoid_output_0: 3c00f04b
/model.28/cv2/act/Mul_output_0: 3ce88609
/model.29/Resize_output_0: 3ce88609
/model.30/Concat_output_0: 3ce5fd73
/model.31/cv1/conv/Conv_output_0: 3d4f3499
/model.31/cv1/act/Sigmoid_output_0: 3c0079fa
/model.31/cv1/act/Mul_output_0: 3d01e0b4
/model.31/Split_output_0: 3d271dc1
/model.31/Split_output_1: 3cd4252b
/model.31/m.0/cv1/conv/Conv_output_0: 3d465991
/model.31/m.0/cv1/act/Sigmoid_output_0: 3c000fba
/model.31/m.0/cv1/act/Mul_output_0: 3ca45493
/model.31/m.0/cv2/conv/Conv_output_0: 3d8b371f
/model.31/m.0/cv2/act/Sigmoid_output_0: 3c00ea76
/model.31/m.0/cv2/act/Mul_output_0: 3d246941
/model.31/Concat_output_0: 3cffcf38
/model.31/cv2/conv/Conv_output_0: 3da3e4b0
/model.31/cv2/act/Sigmoid_output_0: 3c0108de
/model.31/cv2/act/Mul_output_0: 3cc06e33
/model.32/conv/Conv_output_0: 3d9ac3e8
/model.32/act/Sigmoid_output_0: 3c0417a9
/model.32/act/Mul_output_0: 3d25d605
/model.33/Concat_output_0: 3d00de09
/model.34/cv1/conv/Conv_output_0: 3d81f493
/model.34/cv1/act/Sigmoid_output_0: 3c010eab
/model.34/cv1/act/Mul_output_0: 3d0374f5
/model.34/Split_output_0: 3d0118cd
/model.34/Split_output_1: 3d0374f5
/model.34/m.0/cv1/conv/Conv_output_0: 3d833183
/model.34/m.0/cv1/act/Sigmoid_output_0: 3c010da0
/model.34/m.0/cv1/act/Mul_output_0: 3d038689
/model.34/m.0/cv2/conv/Conv_output_0: 3d892ea8
/model.34/m.0/cv2/act/Sigmoid_output_0: 3c021124
/model.34/m.0/cv2/act/Mul_output_0: 3d119e38
/model.34/Concat_output_0: 3d119e38
/model.34/cv2/conv/Conv_output_0: 3d83349a
/model.34/cv2/act/Sigmoid_output_0: 3c00ee94
/model.34/cv2/act/Mul_output_0: 3d1005a0
/model.35/conv/Conv_output_0: 3d35e951
/model.35/act/Sigmoid_output_0: 3c009fcb
/model.35/act/Mul_output_0: 3c995aca
/model.36/Concat_output_0: 3d239394
/model.37/cv1/conv/Conv_output_0: 3d0e0528
/model.37/cv1/act/Sigmoid_output_0: 3c00434a
/model.37/cv1/act/Mul_output_0: 3ca4dec5
/model.37/Split_output_0: 3cb228a6
/model.37/Split_output_1: 3ca4dec5
/model.37/m.0/cv1/conv/Conv_output_0: 3d079fc6
/model.37/m.0/cv1/act/Sigmoid_output_0: 3bfec290
/model.37/m.0/cv1/act/Mul_output_0: 3c9a4242
/model.37/m.0/cv2/conv/Conv_output_0: 3cff1e4d
/model.37/m.0/cv2/act/Sigmoid_output_0: 3bfd0693
/model.37/m.0/cv2/act/Mul_output_0: 3c90ae8f
/model.37/Concat_output_0: 3ca4dec5
/model.37/cv2/conv/Conv_output_0: 3ceb4005
/model.37/cv2/act/Sigmoid_output_0: 3bfbd77e
/model.37/cv2/act/Mul_output_0: 3ca603c5
/model.38/cv2.0/cv2.0.0/conv/Conv_output_0: 3d9728a1
/model.38/cv2.0/cv2.0.0/act/Sigmoid_output_0: 3c0064a5
/model.38/cv2.0/cv2.0.0/act/Mul_output_0: 3d01f30a
/model.38/cv2.0/cv2.0.1/conv/Conv_output_0: 3dab75b6
/model.38/cv2.0/cv2.0.1/act/Sigmoid_output_0: 3c011221
/model.38/cv2.0/cv2.0.1/act/Mul_output_0: 3d47f050
/model.38/cv2.0/cv2.0.2/Conv_output_0: 3e02908a
/model.38/cv3.0/cv3.0.0/conv/Conv_output_0: 3dc450ed
/model.38/cv3.0/cv3.0.0/act/Sigmoid_output_0: 3c0111d6
/model.38/cv3.0/cv3.0.0/act/Mul_output_0: 3d01c9ee
/model.38/cv3.0/cv3.0.1/conv/Conv_output_0: 3e4ca801
/model.38/cv3.0/cv3.0.1/act/Sigmoid_output_0: 3c010a14
/model.38/cv3.0/cv3.0.1/act/Mul_output_0: 3d84be0c
/model.38/cv3.0/cv3.0.2/Conv_output_0: 3f185fb8
/model.38/Concat_output_0: 3e9eb9e7
/model.38/cv2.1/cv2.1.0/conv/Conv_output_0: 3d83d7e8
/model.38/cv2.1/cv2.1.0/act/Sigmoid_output_0: 3c00f039
/model.38/cv2.1/cv2.1.0/act/Mul_output_0: 3d10af80
/model.38/cv2.1/cv2.1.1/conv/Conv_output_0: 3dbd2217
/model.38/cv2.1/cv2.1.1/act/Sigmoid_output_0: 3c011222
/model.38/cv2.1/cv2.1.1/act/Mul_output_0: 3d6dea01
/model.38/cv2.1/cv2.1.2/Conv_output_0: 3dcb4256
/model.38/cv3.1/cv3.1.0/conv/Conv_output_0: 3da1448f
/model.38/cv3.1/cv3.1.0/act/Sigmoid_output_0: 3c010f3c
/model.38/cv3.1/cv3.1.0/act/Mul_output_0: 3d121413
/model.38/cv3.1/cv3.1.1/conv/Conv_output_0: 3ddcee50
/model.38/cv3.1/cv3.1.1/act/Sigmoid_output_0: 3c021425
/model.38/cv3.1/cv3.1.1/act/Mul_output_0: 3d2416b8
/model.38/cv3.1/cv3.1.2/Conv_output_0: 3e95d289
/model.38/Concat_1_output_0: 3e50f420
/model.38/cv2.2/cv2.2.0/conv/Conv_output_0: 3d08095e
/model.38/cv2.2/cv2.2.0/act/Sigmoid_output_0: 3c019236
/model.38/cv2.2/cv2.2.0/act/Mul_output_0: 3d017a52
/model.38/cv2.2/cv2.2.1/conv/Conv_output_0: 3d2cd841
/model.38/cv2.2/cv2.2.1/act/Sigmoid_output_0: 3c0139b0
/model.38/cv2.2/cv2.2.1/act/Mul_output_0: 3ce956b6
/model.38/cv2.2/cv2.2.2/Conv_output_0: 3c2a6825
/model.38/cv3.2/cv3.2.0/conv/Conv_output_0: 3cb9a46b
/model.38/cv3.2/cv3.2.0/act/Sigmoid_output_0: 3bf1ea5f
/model.38/cv3.2/cv3.2.0/act/Mul_output_0: 3c499df8
/model.38/cv3.2/cv3.2.1/conv/Conv_output_0: 3ca997ca
/model.38/cv3.2/cv3.2.1/act/Sigmoid_output_0: 3bee8358
/model.38/cv3.2/cv3.2.1/act/Mul_output_0: 3c9b80a1
/model.38/cv3.2/cv3.2.2/Conv_output_0: 3dc66459
/model.38/Concat_2_output_0: 3dc37626
/model.38/Reshape_output_0: 3e9eb9e7
/model.38/Reshape_1_output_0: 3e50f420
/model.38/Reshape_2_output_0: 3dc37626
/model.38/Concat_6_output_0: 3e8dadfa
(Unnamed Layer* 967) [Constant]_output: 3e810a14
/model.38/Split_output_0: 3d810a14
/model.38/Split_output_1: 3e010a14
/model.38/Split_output_2: 3e810a14
/model.38/Range_output_0: 3f1f4871
(Unnamed Layer* 991) [Shuffle]_output: 3c010a14
(Unnamed Layer* 993) [Shuffle]_output: 3b810a14
/model.38/Add_output_0: 3f204a85
/model.38/Range_1_output_0: 3f1f4871
(Unnamed Layer* 1006) [Shuffle]_output: 3c010a14
(Unnamed Layer* 1008) [Shuffle]_output: 3b810a14
/model.38/Add_1_output_0: 3f204a85
/model.38/Reshape_5_output_0: 3f204a85
/model.38/Expand_output_0: 3f204a85
/model.38/Reshape_6_output_0: 3f204a85
/model.38/Expand_1_output_0: 3f204a85
/model.38/Unsqueeze_3_output_0: 3f204a85
/model.38/Unsqueeze_4_output_0: 3f204a85
/model.38/Concat_10_output_0: 3f204a85
/model.38/Reshape_7_output_0: 3f204a85
(Unnamed Layer* 1059) [Constant]_output: 0
(Unnamed Layer* 1060) [Shuffle]_output: 0
/model.38/ConstantOfShape_output_0: 0
(Unnamed Layer* 1063) [Shuffle]_output: 3d810a14
/model.38/Add_2_output_0: 3d810a14
/model.38/Range_2_output_0: 3e9d4449
(Unnamed Layer* 1082) [Shuffle]_output: 3c010a14
(Unnamed Layer* 1084) [Shuffle]_output: 3b810a14
/model.38/Add_3_output_0: 3e9f4871
/model.38/Range_3_output_0: 3e9d4449
(Unnamed Layer* 1097) [Shuffle]_output: 3c010a14
(Unnamed Layer* 1099) [Shuffle]_output: 3b810a14
/model.38/Add_4_output_0: 3e9f4871
/model.38/Reshape_10_output_0: 3e9f4871
/model.38/Expand_2_output_0: 3e9f4871
/model.38/Reshape_11_output_0: 3e9f4871
/model.38/Expand_3_output_0: 3e9f4871
/model.38/Unsqueeze_6_output_0: 3e9f4871
/model.38/Unsqueeze_7_output_0: 3e9f4871
/model.38/Concat_15_output_0: 3e9f4871
/model.38/Reshape_12_output_0: 3e9f4871
(Unnamed Layer* 1150) [Constant]_output: 0
(Unnamed Layer* 1151) [Shuffle]_output: 0
/model.38/ConstantOfShape_1_output_0: 0
(Unnamed Layer* 1154) [Shuffle]_output: 3e010a14
/model.38/Add_5_output_0: 3e010a14
/model.38/Range_4_output_0: 3e193bf8
(Unnamed Layer* 1173) [Shuffle]_output: 3c010a14
(Unnamed Layer* 1175) [Shuffle]_output: 3b810a14
/model.38/Add_6_output_0: 3e1d4449
/model.38/Range_5_output_0: 3e193bf8
(Unnamed Layer* 1188) [Shuffle]_output: 3c010a14
(Unnamed Layer* 1190) [Shuffle]_output: 3b810a14
/model.38/Add_7_output_0: 3e1d4449
/model.38/Reshape_15_output_0: 3e1d4449
/model.38/Expand_4_output_0: 3e1d4449
/model.38/Reshape_16_output_0: 3e1d4449
/model.38/Expand_5_output_0: 3e1d4449
/model.38/Unsqueeze_9_output_0: 3e1d4449
/model.38/Unsqueeze_10_output_0: 3e1d4449
/model.38/Concat_20_output_0: 3e1d4449
/model.38/Reshape_17_output_0: 3e1d4449
(Unnamed Layer* 1241) [Constant]_output: 0
(Unnamed Layer* 1242) [Shuffle]_output: 0
/model.38/ConstantOfShape_2_output_0: 0
(Unnamed Layer* 1245) [Shuffle]_output: 3e810a14
/model.38/Add_8_output_0: 3e810a14
/model.38/Concat_22_output_0: 3f204a85
/model.38/Concat_23_output_0: 3e810a14
/model.38/Transpose_output_0: 3f204a85
/model.38/Transpose_1_output_0: 3e810a14
/model.38/Split_1_output_0: 3df0920a
/model.38/Split_1_output_1: 3ef259d5
/model.38/dfl/Reshape_output_0: 3df0920a
/model.38/dfl/Transpose_output_0: 3df0920a
(Unnamed Layer* 1274) [Softmax]_output: 3bd776eb
/model.38/dfl/conv/Conv_output_0: 3d9d28e9
/model.38/dfl/Reshape_1_output_0: 3d9d28e9
/model.38/Unsqueeze_12_output_0: 3f204a85
/model.38/Slice_output_0: 3d9e1684
/model.38/Slice_1_output_0: 3d754d83
/model.38/Sub_output_0: 3f200303
/model.38/Add_10_output_0: 3f219a8b
/model.38/Add_11_output_0: 3fa0b732
(Unnamed Layer* 1357) [Shuffle]_output: 3c810a14
/model.38/Div_1_output_0: 3f20b732
/model.38/Sub_1_output_0: 3df47674
/model.38/Concat_24_output_0: 3f2339bf
(Unnamed Layer* 1364) [Shuffle]_output: 3e810a14
/model.38/Mul_5_output_0: 40a5e474
/model.38/Sigmoid_output_0: 3be1574a
output0: 40a5e474
