TRT-8503-EntropyCalibration2
images: 3bf80000
/Slice_output_0: 3bf80000
/Slice_1_output_0: 3bf80000
/model.0/conv/Conv_output_0: 3df241c1
/model.0/act/Sigmoid_output_0: 3c010a14
/model.0/act/Mul_output_0: 3dd62b4a
/model.1/conv/Conv_output_0: 3e0406d8
/model.1/act/Sigmoid_output_0: 3c0068d2
/model.1/act/Mul_output_0: 3d00d94e
/model.2/cv1/conv/Conv_output_0: 3d93f263
/model.2/cv1/act/Sigmoid_output_0: 3c02b55c
/model.2/cv1/act/Mul_output_0: 3ce4c00f
/model.2/Split_output_0: 3d11a00a
/model.2/Split_output_1: 3c6bd705
/model.2/m.0/cv1/conv/Conv_output_0: 3d09993e
/model.2/m.0/cv1/act/Sigmoid_output_0: 3c0376de
/model.2/m.0/cv1/act/Mul_output_0: 3ca6723e
/model.2/m.0/cv2/conv/Conv_output_0: 3d68c111
/model.2/m.0/cv2/act/Sigmoid_output_0: 3c010a14
/model.2/m.0/cv2/act/Mul_output_0: 3d36cd61
/model.2/m.0/Add_output_0: 3d853847
/model.2/Concat_output_0: 3d4418d1
/model.2/cv2/conv/Conv_output_0: 3d295b77
/model.2/cv2/act/Sigmoid_output_0: 3bff9c0c
/model.2/cv2/act/Mul_output_0: 3c6e334f
/model.3/conv/Conv_output_0: 3ce90cf5
/model.3/act/Sigmoid_output_0: 3c0059c7
/model.3/act/Mul_output_0: 3c9b9b72
/model.4/conv/Conv_output_0: 3dfc09c8
/model.4/act/Sigmoid_output_0: 3c010a14
/model.4/act/Mul_output_0: 3d66c341
/model.5/conv/Conv_output_0: 3d7a1259
/model.5/act/Sigmoid_output_0: 3c010a14
/model.5/act/Mul_output_0: 3d117960
/model.6/cv1/conv/Conv_output_0: 3d8304ee
/model.6/cv1/act/Sigmoid_output_0: 3c010a14
/model.6/cv1/act/Mul_output_0: 3d40dbe8
/model.6/Split_output_0: 3d4542cc
/model.6/Split_output_1: 3d400294
/model.6/m.0/spatial_mixing/Split_output_0: 3d282a5b
/model.6/m.0/spatial_mixing/Split_output_1: 3d400294
/model.6/m.0/spatial_mixing/partial_conv3/Conv_output_0: 3cfccdf4
/model.6/m.0/spatial_mixing/Concat_output_0: 3d67cd6c
/model.6/m.0/mlp/mlp.0/conv/Conv_output_0: 3d87b8bc
/model.6/m.0/mlp/mlp.0/act/Sigmoid_output_0: 3c003043
/model.6/m.0/mlp/mlp.0/act/Mul_output_0: 3d0018b8
/model.6/Concat_output_0: 3d6c53f4
/model.6/cv2/conv/Conv_output_0: 3da9669c
/model.6/cv2/act/Sigmoid_output_0: 3c071208
/model.6/cv2/act/Mul_output_0: 3cbb7548
/model.7/conv/Conv_output_0: 3d388627
/model.7/act/Sigmoid_output_0: 3c033519
/model.7/act/Mul_output_0: 3d12d08b
/Concat_output_0: 3d132257
/model.8/avg_pool/GlobalAveragePool_output_0: 3cfc2f20
/model.8/Reshape_output_0: 3cfc2f20
(Unnamed Layer* 147) [Constant]_output: 3b807a16
/model.8/fc/fc.0/MatMul_output_0: 3ce6ed0f
/model.8/fc/fc.1/Relu_output_0: 3d0e2385
(Unnamed Layer* 150) [Constant]_output: 3b3beb0e
/model.8/fc/fc.2/MatMul_output_0: 3c79e54b
/model.8/fc/fc.3/Sigmoid_output_0: 3bf1bd4c
/model.8/Reshape_1_output_0: 3bf1bd4c
/model.8/Mul_output_0: 3cf910f1
/model.8/Slice_output_0: 3d2ed3c5
/model.8/Slice_1_output_0: 3c8af867
/model.8/Concat_2_output_0: 3cf910f1
/model.8/Add_output_0: 3d3bd87b
/Slice_2_output_0: 3d56a0a7
/Slice_3_output_0: 3d42dc80
/model.9/cv1/conv/Conv_output_0: 3d5e91ef
/model.9/cv1/act/Sigmoid_output_0: 3c06da80
/model.9/cv1/act/Mul_output_0: 3d111a49
/model.9/Split_output_0: 3d111a49
/model.9/Split_output_1: 3cd2d9a1
/model.9/m.0/cv1/conv/Conv_output_0: 3d5f362d
/model.9/m.0/cv1/act/Sigmoid_output_0: 3c09222f
/model.9/m.0/cv1/act/Mul_output_0: 3cd20ea0
/model.9/m.0/cv2/conv/Conv_output_0: 3d551dab
/model.9/m.0/cv2/act/Sigmoid_output_0: 3c00c7d2
/model.9/m.0/cv2/act/Mul_output_0: 3d136bd2
/model.9/m.0/Add_output_0: 3d64e4ba
/model.9/m.1/cv1/conv/Conv_output_0: 3d7a1607
/model.9/m.1/cv1/act/Sigmoid_output_0: 3c00cc1c
/model.9/m.1/cv1/act/Mul_output_0: 3cc0dd8f
/model.9/m.1/cv2/conv/Conv_output_0: 3da38a4c
/model.9/m.1/cv2/act/Sigmoid_output_0: 3c075eb7
/model.9/m.1/cv2/act/Mul_output_0: 3d6f8fa5
/model.9/m.1/Add_output_0: 3db9a3d8
/model.9/Concat_output_0: 3d48d356
/model.9/cv2/conv/Conv_output_0: 3d8f9ae8
/model.9/cv2/act/Sigmoid_output_0: 3c0213e9
/model.9/cv2/act/Mul_output_0: 3d2a1816
/model.10/conv/Conv_output_0: 3d8771ab
/model.10/act/Sigmoid_output_0: 3c00e88f
/model.10/act/Mul_output_0: 3d000c57
/model.11/cv1/conv/Conv_output_0: 3d65ae09
/model.11/cv1/act/Sigmoid_output_0: 3bffb878
/model.11/cv1/act/Mul_output_0: 3d11d41a
/model.11/Split_output_0: 3ce94769
/model.11/Split_output_1: 3d0f0cb6
/model.11/m.0/spatial_mixing/Split_output_0: 3cfee502
/model.11/m.0/spatial_mixing/Split_output_1: 3d0f0cb6
/model.11/m.0/spatial_mixing/partial_conv3/Conv_output_0: 3cdfe7a8
/model.11/m.0/spatial_mixing/Concat_output_0: 3cfea297
/model.11/m.0/mlp/mlp.0/conv/Conv_output_0: 3d2917c7
/model.11/m.0/mlp/mlp.0/act/Sigmoid_output_0: 3c02263d
/model.11/m.0/mlp/mlp.0/act/Mul_output_0: 3ce6f450
/model.11/m.1/spatial_mixing/Split_output_0: 3cd20ef8
/model.11/m.1/spatial_mixing/Split_output_1: 3d10b4bb
/model.11/m.1/spatial_mixing/partial_conv3/Conv_output_0: 3cc35fdd
/model.11/m.1/spatial_mixing/Concat_output_0: 3d10b4bb
/model.11/m.1/mlp/mlp.0/conv/Conv_output_0: 3d68d9c1
/model.11/m.1/mlp/mlp.0/act/Sigmoid_output_0: 3c020828
/model.11/m.1/mlp/mlp.0/act/Mul_output_0: 3ce4e556
/model.11/Concat_output_0: 3ce46588
/model.11/cv2/conv/Conv_output_0: 3d0d1946
/model.11/cv2/act/Sigmoid_output_0: 3c007335
/model.11/cv2/act/Mul_output_0: 3c801ea7
/model.12/conv/Conv_output_0: 3d43244b
/model.12/act/Sigmoid_output_0: 3bffd1c1
/model.12/act/Mul_output_0: 3cd3d13a
/Concat_1_output_0: 3d000c57
/model.13/avg_pool/GlobalAveragePool_output_0: 3c627189
/model.13/Reshape_output_0: 3c627189
(Unnamed Layer* 369) [Constant]_output: 3a9fc97b
/model.13/fc/fc.0/MatMul_output_0: 3c8938f6
/model.13/fc/fc.1/Relu_output_0: 3c9502f8
(Unnamed Layer* 372) [Constant]_output: 3aa688a5
/model.13/fc/fc.2/MatMul_output_0: 3c1e3e92
/model.13/fc/fc.3/Sigmoid_output_0: 3bce323a
/model.13/Reshape_1_output_0: 3bce323a
/model.13/Mul_output_0: 3cab6638
/model.13/Slice_output_0: 3c836e16
/model.13/Slice_1_output_0: 3cab6638
/model.13/Concat_2_output_0: 3cab6638
/model.13/Add_output_0: 3d56ad59
/Slice_4_output_0: 3d56ad59
/Slice_5_output_0: 3d2c6a9d
/model.14/cv1/conv/Conv_output_0: 3d6f0e4c
/model.14/cv1/act/Sigmoid_output_0: 3c00f180
/model.14/cv1/act/Mul_output_0: 3d2a0976
/model.14/Split_output_0: 3d2a0976
/model.14/Split_output_1: 3c993d75
/model.14/m.0/cv1/conv/Conv_output_0: 3d855e60
/model.14/m.0/cv1/act/Sigmoid_output_0: 3c00e896
/model.14/m.0/cv1/act/Mul_output_0: 3d0018e6
/model.14/m.0/cv2/conv/Conv_output_0: 3d85ce7f
/model.14/m.0/cv2/act/Sigmoid_output_0: 3c00e9c6
/model.14/m.0/cv2/act/Mul_output_0: 3d023d23
/model.14/m.0/Add_output_0: 3d66a1f0
/model.14/m.1/cv1/conv/Conv_output_0: 3d8caf1c
/model.14/m.1/cv1/act/Sigmoid_output_0: 3c00c976
/model.14/m.1/cv1/act/Mul_output_0: 3d021d88
/model.14/m.1/cv2/conv/Conv_output_0: 3d98457b
/model.14/m.1/cv2/act/Sigmoid_output_0: 3c00f12b
/model.14/m.1/cv2/act/Mul_output_0: 3d26b5a1
/model.14/m.1/Add_output_0: 3d8ccb55
/model.14/Concat_output_0: 3d0ff596
/model.14/cv2/conv/Conv_output_0: 3d910e9b
/model.14/cv2/act/Sigmoid_output_0: 3c00f11e
/model.14/cv2/act/Mul_output_0: 3d25abad
/model.15/conv/Conv_output_0: 3d5e26e4
/model.15/act/Sigmoid_output_0: 3c00e639
/model.15/act/Mul_output_0: 3ce674b4
/model.16/cv1/conv/Conv_output_0: 3d69424c
/model.16/cv1/act/Sigmoid_output_0: 3c0059c3
/model.16/cv1/act/Mul_output_0: 3ce782d5
/model.16/Split_output_0: 3ce782d5
/model.16/Split_output_1: 3ceaac10
/model.16/m.0/spatial_mixing/Split_output_0: 3ceaac10
/model.16/m.0/spatial_mixing/Split_output_1: 3cd2d6c5
/model.16/m.0/spatial_mixing/partial_conv3/Conv_output_0: 3cf87e9b
/model.16/m.0/spatial_mixing/Concat_output_0: 3cd2d6c5
/model.16/m.0/mlp/mlp.0/conv/Conv_output_0: 3d6a9491
/model.16/m.0/mlp/mlp.0/act/Sigmoid_output_0: 3c0024da
/model.16/m.0/mlp/mlp.0/act/Mul_output_0: 3cd4e6f8
/model.16/m.1/spatial_mixing/Split_output_0: 3d022079
/model.16/m.1/spatial_mixing/Split_output_1: 3cb165af
/model.16/m.1/spatial_mixing/partial_conv3/Conv_output_0: 3cc14799
/model.16/m.1/spatial_mixing/Concat_output_0: 3cb165af
/model.16/m.1/mlp/mlp.0/conv/Conv_output_0: 3d6921f5
/model.16/m.1/mlp/mlp.0/act/Sigmoid_output_0: 3c0055c0
/model.16/m.1/mlp/mlp.0/act/Mul_output_0: 3ce9b668
/model.16/Concat_output_0: 3ce782d5
/model.16/cv2/conv/Conv_output_0: 3d4abcd3
/model.16/cv2/act/Sigmoid_output_0: 3c0133a6
/model.16/cv2/act/Mul_output_0: 3cd18878
/model.17/conv/Conv_output_0: 3d3fec2a
/model.17/act/Sigmoid_output_0: 3c02c451
/model.17/act/Mul_output_0: 3ce7b639
/Concat_2_output_0: 3ce674b4
/model.18/avg_pool/GlobalAveragePool_output_0: 3c6530d1
/model.18/Reshape_output_0: 3c6530d1
(Unnamed Layer* 591) [Constant]_output: 3a11bb22
/model.18/fc/fc.0/MatMul_output_0: 3ce98c33
/model.18/fc/fc.1/Relu_output_0: 3cf55ac1
(Unnamed Layer* 594) [Constant]_output: 3a462375
/model.18/fc/fc.2/MatMul_output_0: 3c3cbf91
/model.18/fc/fc.3/Sigmoid_output_0: 3be2dcf0
/model.18/Reshape_1_output_0: 3be2dcf0
/model.18/Mul_output_0: 3cc0be2b
/model.18/Slice_output_0: 3cacae57
/model.18/Slice_1_output_0: 3cb3147f
/model.18/Concat_2_output_0: 3cc0be2b
/model.18/Add_output_0: 3d338c30
/Slice_6_output_0: 3d4a2af4
/Slice_7_output_0: 3d240817
/model.19/cv1/conv/Conv_output_0: 3d45a470
/model.19/cv1/act/Sigmoid_output_0: 3c0086e3
/model.19/cv1/act/Mul_output_0: 3cd171c1
/model.19/Split_output_0: 3cd171c1
/model.19/Split_output_1: 3cd4d197
/model.19/m.0/cv1/conv/Conv_output_0: 3d6a017c
/model.19/m.0/cv1/act/Sigmoid_output_0: 3c00a836
/model.19/m.0/cv1/act/Mul_output_0: 3cd249c4
/model.19/m.0/cv2/conv/Conv_output_0: 3d70e912
/model.19/m.0/cv2/act/Sigmoid_output_0: 3c00e11e
/model.19/m.0/cv2/act/Mul_output_0: 3d1148dc
/model.19/m.0/Add_output_0: 3d7d5b15
/model.19/Concat_output_0: 3d28ad7d
/model.19/cv2/conv/Conv_output_0: 3d512762
/model.19/cv2/act/Sigmoid_output_0: 3c00bd45
/model.19/cv2/act/Mul_output_0: 3ce97cf9
/model.20/cv1/conv/Conv_output_0: 3d4e54f2
/model.20/cv1/act/Sigmoid_output_0: 3c00c369
/model.20/cv1/act/Mul_output_0: 3ce7006f
/model.20/m/MaxPool_output_0: 3ce7006f
/model.20/m_1/MaxPool_output_0: 3ce7006f
/model.20/m_2/MaxPool_output_0: 3ce7006f
/model.20/Concat_output_0: 3d6376f7
/model.20/cv2/conv/Conv_output_0: 3d6dd465
/model.20/cv2/act/Sigmoid_output_0: 3c0094b5
/model.20/cv2/act/Mul_output_0: 3ce742f9
/model.21/cv1/conv/Conv_output_0: 3d45a7ab
/model.21/cv1/act/Sigmoid_output_0: 3c00a7cd
/model.21/cv1/act/Mul_output_0: 3cbf921f
/model.21/Split_output_0: 3d0171e7
/model.21/Split_output_1: 3cd37277
/model.21/m.0/spatial_mixing/Split_output_0: 3d00f5a2
/model.21/m.0/spatial_mixing/Split_output_1: 3cc09d66
/model.21/m.0/spatial_mixing/partial_conv3/Conv_output_0: 3d1a7263
/model.21/m.0/spatial_mixing/Concat_output_0: 3ce6fa04
/model.21/m.0/mlp/mlp.0/conv/Conv_output_0: 3d499b9c
/model.21/m.0/mlp/mlp.0/act/Sigmoid_output_0: 3c0081db
/model.21/m.0/mlp/mlp.0/act/Mul_output_0: 3cd3b6e5
/model.21/Concat_output_0: 3cbf921f
/model.21/cv2/conv/Conv_output_0: 3d36642c
/model.21/cv2/act/Sigmoid_output_0: 3c007766
/model.21/cv2/act/Mul_output_0: 3cd487af
/model.22/cv1/conv/Conv_output_0: 3d47ad02
/model.22/cv1/act/Sigmoid_output_0: 3c00adf4
/model.22/cv1/act/Mul_output_0: 3d005ac4
/model.22/m/MaxPool_output_0: 3d005ac4
/model.22/m_1/MaxPool_output_0: 3d005ac4
/model.22/m_2/MaxPool_output_0: 3d005ac4
/model.22/Concat_output_0: 3d66d2c9
/model.22/cv2/conv/Conv_output_0: 3d672de9
/model.22/cv2/act/Sigmoid_output_0: 3c00907d
/model.22/cv2/act/Mul_output_0: 3cd45d2b
/model.23/Add_output_0: 3d79d65b
/model.24/Add_output_0: 3d8eb98d
/model.25/Add_output_0: 3d63a37b
/model.26/Resize_output_0: 3d63a37b
/model.27/Concat_output_0: 3d7b6e61
/model.28/cv1/conv/Conv_output_0: 3d738c4a
/model.28/cv1/act/Sigmoid_output_0: 3c00b56b
/model.28/cv1/act/Mul_output_0: 3d01b086
/model.28/Split_output_0: 3d01b086
/model.28/Split_output_1: 3d027fc2
/model.28/m.0/cv1/conv/Conv_output_0: 3d73935e
/model.28/m.0/cv1/act/Sigmoid_output_0: 3c00ebc4
/model.28/m.0/cv1/act/Mul_output_0: 3d02c1e0
/model.28/m.0/cv2/conv/Conv_output_0: 3d85126f
/model.28/m.0/cv2/act/Sigmoid_output_0: 3c00f025
/model.28/m.0/cv2/act/Mul_output_0: 3ce6535e
/model.28/Concat_output_0: 3ce6535e
/model.28/cv2/conv/Conv_output_0: 3d68da53
/model.28/cv2/act/Sigmoid_output_0: 3c00cfc6
/model.28/cv2/act/Mul_output_0: 3d13e411
/model.29/Resize_output_0: 3d13e411
/model.30/Concat_output_0: 3d29b619
/model.31/cv1/conv/Conv_output_0: 3d49eb0f
/model.31/cv1/act/Sigmoid_output_0: 3c007885
/model.31/cv1/act/Mul_output_0: 3cd2e36b
/model.31/Split_output_0: 3d00c68a
/model.31/Split_output_1: 3ce85c19
/model.31/m.0/cv1/conv/Conv_output_0: 3d49fd9b
/model.31/m.0/cv1/act/Sigmoid_output_0: 3c0014f4
/model.31/m.0/cv1/act/Mul_output_0: 3cc2940e
/model.31/m.0/cv2/conv/Conv_output_0: 3d8cd254
/model.31/m.0/cv2/act/Sigmoid_output_0: 3c00e8c5
/model.31/m.0/cv2/act/Mul_output_0: 3d40aee8
/model.31/Concat_output_0: 3d006998
/model.31/cv2/conv/Conv_output_0: 3daddd93
/model.31/cv2/act/Sigmoid_output_0: 3c01040b
/model.31/cv2/act/Mul_output_0: 3ce7551a
/model.32/conv/Conv_output_0: 3d9ebf87
/model.32/act/Sigmoid_output_0: 3c0111df
/model.32/act/Mul_output_0: 3d289aed
/model.33/Concat_output_0: 3d289aed
/model.34/cv1/conv/Conv_output_0: 3d7de6cc
/model.34/cv1/act/Sigmoid_output_0: 3c00ef11
/model.34/cv1/act/Mul_output_0: 3d127c74
/model.34/Split_output_0: 3d11413d
/model.34/Split_output_1: 3d11e565
/model.34/m.0/cv1/conv/Conv_output_0: 3d83e57a
/model.34/m.0/cv1/act/Sigmoid_output_0: 3c010f1d
/model.34/m.0/cv1/act/Mul_output_0: 3cd330ce
/model.34/m.0/cv2/conv/Conv_output_0: 3d84d79c
/model.34/m.0/cv2/act/Sigmoid_output_0: 3c01104e
/model.34/m.0/cv2/act/Mul_output_0: 3d13d81b
/model.34/Concat_output_0: 3d14270a
/model.34/cv2/conv/Conv_output_0: 3d853ec6
/model.34/cv2/act/Sigmoid_output_0: 3c00ecab
/model.34/cv2/act/Mul_output_0: 3d014941
/model.35/conv/Conv_output_0: 3d319a1c
/model.35/act/Sigmoid_output_0: 3c00c131
/model.35/act/Mul_output_0: 3ca4c91d
/model.36/Concat_output_0: 3d244cb1
/model.37/cv1/conv/Conv_output_0: 3d11e28a
/model.37/cv1/act/Sigmoid_output_0: 3bff971a
/model.37/cv1/act/Mul_output_0: 3cb321af
/model.37/Split_output_0: 3cb321af
/model.37/Split_output_1: 3cb2ba7b
/model.37/m.0/cv1/conv/Conv_output_0: 3d07c90d
/model.37/m.0/cv1/act/Sigmoid_output_0: 3bfe049b
/model.37/m.0/cv1/act/Mul_output_0: 3c9a8ca6
/model.37/m.0/cv2/conv/Conv_output_0: 3d03eaa5
/model.37/m.0/cv2/act/Sigmoid_output_0: 3bfd5683
/model.37/m.0/cv2/act/Mul_output_0: 3c9ae1a3
/model.37/Concat_output_0: 3cb3420c
/model.37/cv2/conv/Conv_output_0: 3ceddd04
/model.37/cv2/act/Sigmoid_output_0: 3bfd36ca
/model.37/cv2/act/Mul_output_0: 3ca05faa
/model.38/cv2.0/cv2.0.0/conv/Conv_output_0: 3d967e7b
/model.38/cv2.0/cv2.0.0/act/Sigmoid_output_0: 3c00721b
/model.38/cv2.0/cv2.0.0/act/Mul_output_0: 3cd152dd
/model.38/cv2.0/cv2.0.1/conv/Conv_output_0: 3da6edef
/model.38/cv2.0/cv2.0.1/act/Sigmoid_output_0: 3c011223
/model.38/cv2.0/cv2.0.1/act/Mul_output_0: 3d244fb7
/model.38/cv2.0/cv2.0.2/Conv_output_0: 3e011771
/model.38/cv3.0/cv3.0.0/conv/Conv_output_0: 3dc3bfbf
/model.38/cv3.0/cv3.0.0/act/Sigmoid_output_0: 3c0111fe
/model.38/cv3.0/cv3.0.0/act/Mul_output_0: 3d29fe96
/model.38/cv3.0/cv3.0.1/conv/Conv_output_0: 3e5c4507
/model.38/cv3.0/cv3.0.1/act/Sigmoid_output_0: 3c010a14
/model.38/cv3.0/cv3.0.1/act/Mul_output_0: 3d9329e2
/model.38/cv3.0/cv3.0.2/Conv_output_0: 3f1ba46c
/model.38/Concat_output_0: 3ea6e2eb
/model.38/cv2.1/cv2.1.0/conv/Conv_output_0: 3d80cd1c
/model.38/cv2.1/cv2.1.0/act/Sigmoid_output_0: 3c00eaca
/model.38/cv2.1/cv2.1.0/act/Mul_output_0: 3d254582
/model.38/cv2.1/cv2.1.1/conv/Conv_output_0: 3dbbef79
/model.38/cv2.1/cv2.1.1/act/Sigmoid_output_0: 3c011223
/model.38/cv2.1/cv2.1.1/act/Mul_output_0: 3d67dde3
/model.38/cv2.1/cv2.1.2/Conv_output_0: 3dcc6943
/model.38/cv3.1/cv3.1.0/conv/Conv_output_0: 3da97358
/model.38/cv3.1/cv3.1.0/act/Sigmoid_output_0: 3c010e5b
/model.38/cv3.1/cv3.1.0/act/Mul_output_0: 3d02296d
/model.38/cv3.1/cv3.1.1/conv/Conv_output_0: 3def087f
/model.38/cv3.1/cv3.1.1/act/Sigmoid_output_0: 3c021427
/model.38/cv3.1/cv3.1.1/act/Mul_output_0: 3d25d73d
/model.38/cv3.1/cv3.1.2/Conv_output_0: 3e934882
/model.38/Concat_1_output_0: 3e58899c
/model.38/cv2.2/cv2.2.0/conv/Conv_output_0: 3d0d8da7
/model.38/cv2.2/cv2.2.0/act/Sigmoid_output_0: 3c01bdee
/model.38/cv2.2/cv2.2.0/act/Mul_output_0: 3d042ba0
/model.38/cv2.2/cv2.2.1/conv/Conv_output_0: 3d3730a3
/model.38/cv2.2/cv2.2.1/act/Sigmoid_output_0: 3c01fe3e
/model.38/cv2.2/cv2.2.1/act/Mul_output_0: 3cba1cd0
/model.38/cv2.2/cv2.2.2/Conv_output_0: 3c22e30e
/model.38/cv3.2/cv3.2.0/conv/Conv_output_0: 3cd24b5c
/model.38/cv3.2/cv3.2.0/act/Sigmoid_output_0: 3bf4769b
/model.38/cv3.2/cv3.2.0/act/Mul_output_0: 3c3d14d9
/model.38/cv3.2/cv3.2.1/conv/Conv_output_0: 3ca7f78c
/model.38/cv3.2/cv3.2.1/act/Sigmoid_output_0: 3beeaa16
/model.38/cv3.2/cv3.2.1/act/Mul_output_0: 3c92cac1
/model.38/cv3.2/cv3.2.2/Conv_output_0: 3dc679b9
/model.38/Concat_2_output_0: 3dc359f7
/model.38/Reshape_output_0: 3ea6e2eb
/model.38/Reshape_1_output_0: 3e58899c
/model.38/Reshape_2_output_0: 3dc359f7
/model.38/Concat_6_output_0: 3e90e7c9
(Unnamed Layer* 967) [Constant]_output: 3e810a14
/model.38/Split_output_0: 3d810a14
/model.38/Split_output_1: 3e010a14
/model.38/Split_output_2: 3e810a14
/model.38/Range_output_0: 3f1f4871
(Unnamed Layer* 991) [Shuffle]_output: 3c010a14
(Unnamed Layer* 993) [Shuffle]_output: 3b810a14
/model.38/Add_output_0: 3f204a85
/model.38/Range_1_output_0: 3f1f4871
(Unnamed Layer* 1006) [Shuffle]_output: 3c010a14
(Unnamed Layer* 1008) [Shuffle]_output: 3b810a14
/model.38/Add_1_output_0: 3f204a85
/model.38/Reshape_5_output_0: 3f204a85
/model.38/Expand_output_0: 3f204a85
/model.38/Reshape_6_output_0: 3f204a85
/model.38/Expand_1_output_0: 3f204a85
/model.38/Unsqueeze_3_output_0: 3f204a85
/model.38/Unsqueeze_4_output_0: 3f204a85
/model.38/Concat_10_output_0: 3f204a85
/model.38/Reshape_7_output_0: 3f204a85
(Unnamed Layer* 1059) [Constant]_output: 0
(Unnamed Layer* 1060) [Shuffle]_output: 0
/model.38/ConstantOfShape_output_0: 0
(Unnamed Layer* 1063) [Shuffle]_output: 3d810a14
/model.38/Add_2_output_0: 3d810a14
/model.38/Range_2_output_0: 3e9d4449
(Unnamed Layer* 1082) [Shuffle]_output: 3c010a14
(Unnamed Layer* 1084) [Shuffle]_output: 3b810a14
/model.38/Add_3_output_0: 3e9f4871
/model.38/Range_3_output_0: 3e9d4449
(Unnamed Layer* 1097) [Shuffle]_output: 3c010a14
(Unnamed Layer* 1099) [Shuffle]_output: 3b810a14
/model.38/Add_4_output_0: 3e9f4871
/model.38/Reshape_10_output_0: 3e9f4871
/model.38/Expand_2_output_0: 3e9f4871
/model.38/Reshape_11_output_0: 3e9f4871
/model.38/Expand_3_output_0: 3e9f4871
/model.38/Unsqueeze_6_output_0: 3e9f4871
/model.38/Unsqueeze_7_output_0: 3e9f4871
/model.38/Concat_15_output_0: 3e9f4871
/model.38/Reshape_12_output_0: 3e9f4871
(Unnamed Layer* 1150) [Constant]_output: 0
(Unnamed Layer* 1151) [Shuffle]_output: 0
/model.38/ConstantOfShape_1_output_0: 0
(Unnamed Layer* 1154) [Shuffle]_output: 3e010a14
/model.38/Add_5_output_0: 3e010a14
/model.38/Range_4_output_0: 3e193bf8
(Unnamed Layer* 1173) [Shuffle]_output: 3c010a14
(Unnamed Layer* 1175) [Shuffle]_output: 3b810a14
/model.38/Add_6_output_0: 3e1d4449
/model.38/Range_5_output_0: 3e193bf8
(Unnamed Layer* 1188) [Shuffle]_output: 3c010a14
(Unnamed Layer* 1190) [Shuffle]_output: 3b810a14
/model.38/Add_7_output_0: 3e1d4449
/model.38/Reshape_15_output_0: 3e1d4449
/model.38/Expand_4_output_0: 3e1d4449
/model.38/Reshape_16_output_0: 3e1d4449
/model.38/Expand_5_output_0: 3e1d4449
/model.38/Unsqueeze_9_output_0: 3e1d4449
/model.38/Unsqueeze_10_output_0: 3e1d4449
/model.38/Concat_20_output_0: 3e1d4449
/model.38/Reshape_17_output_0: 3e1d4449
(Unnamed Layer* 1241) [Constant]_output: 0
(Unnamed Layer* 1242) [Shuffle]_output: 0
/model.38/ConstantOfShape_2_output_0: 0
(Unnamed Layer* 1245) [Shuffle]_output: 3e810a14
/model.38/Add_8_output_0: 3e810a14
/model.38/Concat_22_output_0: 3f204a85
/model.38/Concat_23_output_0: 3e810a14
/model.38/Transpose_output_0: 3f204a85
/model.38/Transpose_1_output_0: 3e810a14
/model.38/Split_1_output_0: 3defb4ed
/model.38/Split_1_output_1: 3ef14898
/model.38/dfl/Reshape_output_0: 3defb4ed
/model.38/dfl/Transpose_output_0: 3defb4ed
(Unnamed Layer* 1274) [Softmax]_output: 3bd62979
/model.38/dfl/conv/Conv_output_0: 3d9da92b
/model.38/dfl/Reshape_1_output_0: 3d9da92b
/model.38/Unsqueeze_12_output_0: 3f204a85
/model.38/Slice_output_0: 3d9e2f2f
/model.38/Slice_1_output_0: 3d748f04
/model.38/Sub_output_0: 3f2005a1
/model.38/Add_10_output_0: 3f219e2a
/model.38/Add_11_output_0: 3fa0ad80
(Unnamed Layer* 1357) [Shuffle]_output: 3c810a14
/model.38/Div_1_output_0: 3f20ad80
/model.38/Sub_1_output_0: 3df472d9
/model.38/Concat_24_output_0: 3f232fe6
(Unnamed Layer* 1364) [Shuffle]_output: 3e810a14
/model.38/Mul_5_output_0: 40a5da72
/model.38/Sigmoid_output_0: 3be19874
output0: 40a5da72
